{
  "version": "1.0",
  "truncation": null,
  "padding": null,
  "added_tokens": [
    {
      "id": 8183,
      "content": "<|endoftext|>",
      "single_word": false,
      "lstrip": false,
      "rstrip": false,
      "normalized": false,
      "special": true
    },
    {
      "id": 8184,
      "content": "<|im_start|>",
      "single_word": false,
      "lstrip": false,
      "rstrip": false,
      "normalized": false,
      "special": true
    },
    {
      "id": 8185,
      "content": "<|im_end|>",
      "single_word": false,
      "lstrip": false,
      "rstrip": false,
      "normalized": false,
      "special": true
    },
    {
      "id": 8186,
      "content": "<think>",
      "single_word": false,
      "lstrip": false,
      "rstrip": false,
      "normalized": false,
      "special": true
    },
    {
      "id": 8187,
      "content": "</think>",
      "single_word": false,
      "lstrip": false,
      "rstrip": false,
      "normalized": false,
      "special": true
    },
    {
      "id": 8188,
      "content": "<tool_call>",
      "single_word": false,
      "lstrip": false,
      "rstrip": false,
      "normalized": false,
      "special": true
    },
    {
      "id": 8189,
      "content": "</tool_call>",
      "single_word": false,
      "lstrip": false,
      "rstrip": false,
      "normalized": false,
      "special": true
    },
    {
      "id": 8190,
      "content": "<tool_response>",
      "single_word": false,
      "lstrip": false,
      "rstrip": false,
      "normalized": false,
      "special": true
    },
    {
      "id": 8191,
      "content": "</tool_response>",
      "single_word": false,
      "lstrip": false,
      "rstrip": false,
      "normalized": false,
      "special": true
    }
  ],
  "normalizer": null,
  "pre_tokenizer": {
    "type": "Sequence",
    "pretokenizers": [
      {
        "type": "Split",
        "pattern": {
          "Regex": "(?i:'s|'t|'re|'ve|'m|'ll|'d)|[^\\r\\n\\p{L}\\p{N}]?\\p{L}+|\\p{N}| ?[^\\s\\p{L}\\p{N}]+[\\r\\n]*|\\s*[\\r\\n]+|\\s+(?!\\S)|\\s+"
        },
        "behavior": "Isolated",
        "invert": false
      },
      {
        "type": "ByteLevel",
        "add_prefix_space": false,
        "trim_offsets": true,
        "use_regex": false
      }
    ]
  },
  "post_processor": null,
  "decoder": {
    "type": "ByteLevel",
    "add_prefix_space": true,
    "trim_offsets": true,
    "use_regex": true
  },
  "model": {
    "type": "BPE",
    "dropout": null,
    "unk_token": null,
    "continuing_subword_prefix": null,
    "end_of_word_suffix": null,
    "fuse_unk": false,
    "byte_fallback": false,
    "ignore_merges": false,
    "vocab": {
      "!": 0,
      "\"": 1,
      "#": 2,
      "$": 3,
      "%": 4,
      "&": 5,
      "'": 6,
      "(": 7,
      ")": 8,
      "*": 9,
      "+": 10,
      ",": 11,
      "-": 12,
      ".": 13,
      "/": 14,
      "0": 15,
      "1": 16,
      "2": 17,
      "3": 18,
      "4": 19,
      "5": 20,
      "6": 21,
      "7": 22,
      "8": 23,
      "9": 24,
      ":": 25,
      ";": 26,
      "<": 27,
      "=": 28,
      ">": 29,
      "?": 30,
      "@": 31,
      "A": 32,
      "B": 33,
      "C": 34,
      "D": 35,
      "E": 36,
      "F": 37,
      "G": 38,
      "H": 39,
      "I": 40,
      "J": 41,
      "K": 42,
      "L": 43,
      "M": 44,
      "N": 45,
      "O": 46,
      "P": 47,
      "Q": 48,
      "R": 49,
      "S": 50,
      "T": 51,
      "U": 52,
      "V": 53,
      "W": 54,
      "X": 55,
      "Y": 56,
      "Z": 57,
      "[": 58,
      "\\": 59,
      "]": 60,
      "^": 61,
      "_": 62,
      "`": 63,
      "a": 64,
      "b": 65,
      "c": 66,
      "d": 67,
      "e": 68,
      "f": 69,
      "g": 70,
      "h": 71,
      "i": 72,
      "j": 73,
      "k": 74,
      "l": 75,
      "m": 76,
      "n": 77,
      "o": 78,
      "p": 79,
      "q": 80,
      "r": 81,
      "s": 82,
      "t": 83,
      "u": 84,
      "v": 85,
      "w": 86,
      "x": 87,
      "y": 88,
      "z": 89,
      "{": 90,
      "|": 91,
      "}": 92,
      "~": 93,
      "¡": 94,
      "¢": 95,
      "£": 96,
      "¤": 97,
      "¥": 98,
      "¦": 99,
      "§": 100,
      "¨": 101,
      "©": 102,
      "ª": 103,
      "«": 104,
      "¬": 105,
      "®": 106,
      "¯": 107,
      "°": 108,
      "±": 109,
      "²": 110,
      "³": 111,
      "´": 112,
      "µ": 113,
      "¶": 114,
      "·": 115,
      "¸": 116,
      "¹": 117,
      "º": 118,
      "»": 119,
      "¼": 120,
      "½": 121,
      "¾": 122,
      "¿": 123,
      "À": 124,
      "Á": 125,
      "Â": 126,
      "Ã": 127,
      "Ä": 128,
      "Å": 129,
      "Æ": 130,
      "Ç": 131,
      "È": 132,
      "É": 133,
      "Ê": 134,
      "Ë": 135,
      "Ì": 136,
      "Í": 137,
      "Î": 138,
      "Ï": 139,
      "Ð": 140,
      "Ñ": 141,
      "Ò": 142,
      "Ó": 143,
      "Ô": 144,
      "Õ": 145,
      "Ö": 146,
      "×": 147,
      "Ø": 148,
      "Ù": 149,
      "Ú": 150,
      "Û": 151,
      "Ü": 152,
      "Ý": 153,
      "Þ": 154,
      "ß": 155,
      "à": 156,
      "á": 157,
      "â": 158,
      "ã": 159,
      "ä": 160,
      "å": 161,
      "æ": 162,
      "ç": 163,
      "è": 164,
      "é": 165,
      "ê": 166,
      "ë": 167,
      "ì": 168,
      "í": 169,
      "î": 170,
      "ï": 171,
      "ð": 172,
      "ñ": 173,
      "ò": 174,
      "ó": 175,
      "ô": 176,
      "õ": 177,
      "ö": 178,
      "÷": 179,
      "ø": 180,
      "ù": 181,
      "ú": 182,
      "û": 183,
      "ü": 184,
      "ý": 185,
      "þ": 186,
      "ÿ": 187,
      "Ā": 188,
      "ā": 189,
      "Ă": 190,
      "ă": 191,
      "Ą": 192,
      "ą": 193,
      "Ć": 194,
      "ć": 195,
      "Ĉ": 196,
      "ĉ": 197,
      "Ċ": 198,
      "ċ": 199,
      "Č": 200,
      "č": 201,
      "Ď": 202,
      "ď": 203,
      "Đ": 204,
      "đ": 205,
      "Ē": 206,
      "ē": 207,
      "Ĕ": 208,
      "ĕ": 209,
      "Ė": 210,
      "ė": 211,
      "Ę": 212,
      "ę": 213,
      "Ě": 214,
      "ě": 215,
      "Ĝ": 216,
      "ĝ": 217,
      "Ğ": 218,
      "ğ": 219,
      "Ġ": 220,
      "ġ": 221,
      "Ģ": 222,
      "ģ": 223,
      "Ĥ": 224,
      "ĥ": 225,
      "Ħ": 226,
      "ħ": 227,
      "Ĩ": 228,
      "ĩ": 229,
      "Ī": 230,
      "ī": 231,
      "Ĭ": 232,
      "ĭ": 233,
      "Į": 234,
      "į": 235,
      "İ": 236,
      "ı": 237,
      "Ĳ": 238,
      "ĳ": 239,
      "Ĵ": 240,
      "ĵ": 241,
      "Ķ": 242,
      "ķ": 243,
      "ĸ": 244,
      "Ĺ": 245,
      "ĺ": 246,
      "Ļ": 247,
      "ļ": 248,
      "Ľ": 249,
      "ľ": 250,
      "Ŀ": 251,
      "ŀ": 252,
      "Ł": 253,
      "ł": 254,
      "Ń": 255,
      "he": 256,
      "Ġt": 257,
      "in": 258,
      "Ġa": 259,
      "st": 260,
      "re": 261,
      "en": 262,
      "Ġthe": 263,
      "er": 264,
      "on": 265,
      "ar": 266,
      "Ġs": 267,
      "Ġw": 268,
      "im": 269,
      "Ġc": 270,
      "ĠĠ": 271,
      "Ġf": 272,
      "at": 273,
      "or": 274,
      "it": 275,
      "Ġb": 276,
      "an": 277,
      "<|": 278,
      "|>": 279,
      "al": 280,
      "ing": 281,
      "\":": 282,
      "ed": 283,
      "ol": 284,
      "es": 285,
      "is": 286,
      "Ġ\"": 287,
      "Ġo": 288,
      "Ġm": 289,
      "Ġh": 290,
      "as": 291,
      "Ġto": 292,
      "to": 293,
      "ou": 294,
      "Ġd": 295,
      "The": 296,
      "nd": 297,
      "tool": 298,
      "le": 299,
      "art": 300,
      "Ġp": 301,
      "end": 302,
      "Ġof": 303,
      "Ġin": 304,
      "ion": 305,
      "start": 306,
      "ĠThe": 307,
      "se": 308,
      "_end": 309,
      "Ġn": 310,
      "_start": 311,
      "ro": 312,
      "Ġl": 313,
      "me": 314,
      "ent": 315,
      "|>Ċ": 316,
      "ct": 317,
      "Ġhe": 318,
      "{\"": 319,
      "Ġand": 320,
      "ad": 321,
      "ist": 322,
      "all": 323,
      "ut": 324,
      "Ġre": 325,
      "ic": 326,
      "us": 327,
      "il": 328,
      "Ġth": 329,
      ">Ċ": 330,
      "Ġst": 331,
      "res": 332,
      "</": 333,
      "\",": 334,
      "ac": 335,
      "un": 336,
      "ame": 337,
      "ith": 338,
      "ow": 339,
      "ant": 340,
      "Ġe": 341,
      ".Ċ": 342,
      "_c": 343,
      "Ġbe": 344,
      "pt": 345,
      "ve": 346,
      "id": 347,
      "_call": 348,
      "ot": 349,
      "Ġwith": 350,
      "Ġis": 351,
      "Ġit": 352,
      "Ġg": 353,
      "ĠĠĠĠ": 354,
      "ass": 355,
      "ra": 356,
      "um": 357,
      "ri": 358,
      "<tool": 359,
      "pon": 360,
      "ĠS": 361,
      "ĠA": 362,
      "><|": 363,
      "ho": 364,
      "et": 365,
      "ers": 366,
      "ponse": 367,
      "user": 368,
      "_res": 369,
      "_response": 370,
      "ur": 371,
      "\\u": 372,
      "el": 373,
      "istant": 374,
      "ig": 375,
      "pe": 376,
      "assistant": 377,
      "ĠĠĠ": 378,
      "Ġ{\"": 379,
      "Ġher": 380,
      "}}": 381,
      "'s": 382,
      "th": 383,
      "Ġfor": 384,
      "Ġ\\": 385,
      "ir": 386,
      "om": 387,
      "ce": 388,
      "name": 389,
      "Ġv": 390,
      "ch": 391,
      "ĠE": 392,
      "Ġwas": 393,
      "Ġon": 394,
      "ag": 395,
      "Ġde": 396,
      "Ġthat": 397,
      "ction": 398,
      "ents": 399,
      "ul": 400,
      "Ġch": 401,
      "lo": 402,
      "md": 403,
      "ile": 404,
      ".md": 405,
      "if": 406,
      "ht": 407,
      "arg": 408,
      "red": 409,
      "\"}}": 410,
      "Ġby": 411,
      "ĠH": 412,
      "ath": 413,
      "Ġbut": 414,
      "\\n": 415,
      "ver": 416,
      "ĠI": 417,
      "uments": 418,
      "unction": 419,
      "and": 420,
      "ĠL": 421,
      "Ġse": 422,
      "\":\"": 423,
      "ĠC": 424,
      "ke": 425,
      "ly": 426,
      "Ġhis": 427,
      "Ġhad": 428,
      "ld": 429,
      "ĠM": 430,
      "ine": 431,
      "Ġnot": 432,
      "qu": 433,
      "li": 434,
      ".<|": 435,
      "arguments": 436,
      "ck": 437,
      "ind": 438,
      "od": 439,
      "Ġsh": 440,
      "ore": 441,
      "apt": 442,
      "ty": 443,
      "em": 444,
      "ain": 445,
      "ay": 446,
      ":Ċ": 447,
      "âĢ": 448,
      "ink": 449,
      "type": 450,
      "ast": 451,
      "Ġshe": 452,
      "Ġwor": 453,
      "ĠT": 454,
      "Ġas": 455,
      "ight": 456,
      "Ġne": 457,
      "am": 458,
      "Ġan": 459,
      "Ġr": 460,
      "ust": 461,
      "Ġcon": 462,
      "ice": 463,
      "per": 464,
      "Ġlo": 465,
      "cri": 466,
      "\"}}Ċ": 467,
      "cript": 468,
      "Ch": 469,
      "ess": 470,
      "ill": 471,
      "ime": 472,
      "Ġy": 473,
      "wn": 474,
      "Ġwh": 475,
      "think": 476,
      "Ġwho": 477,
      ".\\": 478,
      "ter": 479,
      "file": 480,
      "Ġle": 481,
      "ĠShe": 482,
      "ate": 483,
      "ak": 484,
      "urn": 485,
      "te": 486,
      "ation": 487,
      "ĠHe": 488,
      "ĠĠĠĠĠĠĠ": 489,
      "ack": 490,
      "Ġk": 491,
      "her": 492,
      "Ġsa": 493,
      "Ġwhe": 494,
      "Ġ-": 495,
      "rom": 496,
      "ge": 497,
      "pp": 498,
      "ome": 499,
      "Ġex": 500,
      "Ġwe": 501,
      "ĠB": 502,
      "Ġtr": 503,
      "Ġor": 504,
      "des": 505,
      "ect": 506,
      "cription": 507,
      "out": 508,
      "function": 509,
      "description": 510,
      "Ġal": 511,
      "\",\"": 512,
      "Ġun": 513,
      "ĠW": 514,
      "Ġar": 515,
      "ity": 516,
      "Ġtime": 517,
      "ound": 518,
      "ould": 519,
      "apter": 520,
      "ĊĊ": 521,
      "ĠR": 522,
      "ara": 523,
      "ĠF": 524,
      "Ġu": 525,
      "old": 526,
      "Ġ=": 527,
      "ĠN": 528,
      "ies": 529,
      "ach": 530,
      "tes": 531,
      "age": 532,
      "Ġfrom": 533,
      "Ġyou": 534,
      "Ġme": 535,
      "Ġif": 536,
      "Ġj": 537,
      "Ġbytes": 538,
      "ars": 539,
      "You": 540,
      "ĠD": 541,
      "lock": 542,
      "ue": 543,
      "ex": 544,
      "Ġits": 545,
      "ong": 546,
      "op": 547,
      "ard": 548,
      "Ġhim": 549,
      "ory": 550,
      "ace": 551,
      "Ġpro": 552,
      "Ġli": 553,
      "Ġcom": 554,
      "ab": 555,
      "str": 556,
      "ence": 557,
      "ĠK": 558,
      "ok": 559,
      "ject": 560,
      "oug": 561,
      "Ġout": 562,
      "yst": 563,
      "ip": 564,
      "Ġret": 565,
      "one": 566,
      "ive": 567,
      "ap": 568,
      "ure": 569,
      "ĠV": 570,
      "path": 571,
      "Ġdo": 572,
      "ved": 573,
      "thing": 574,
      "Ġat": 575,
      "ob": 576,
      "rit": 577,
      "Ġ(": 578,
      "cre": 579,
      "Ġkn": 580,
      "ep": 581,
      "ĠEli": 582,
      "line": 583,
      "Ġvo": 584,
      "ort": 585,
      "ous": 586,
      "Ġdis": 587,
      ".\",": 588,
      "__": 589,
      "Ġsp": 590,
      "Ġfunction": 591,
      "os": 592,
      "Ġha": 593,
      "co": 594,
      "ie": 595,
      "hed": 596,
      "ren": 597,
      "ira": 598,
      "ide": 599,
      "low": 600,
      "Ġreturn": 601,
      "?<|": 602,
      "ult": 603,
      "Ġwhere": 604,
      "qui": 605,
      "int": 606,
      "--": 607,
      "Ġinto": 608,
      "ĠP": 609,
      "ick": 610,
      "_file": 611,
      "Ġsome": 612,
      "read": 613,
      "ang": 614,
      "ci": 615,
      "cho": 616,
      "ĠG": 617,
      "led": 618,
      "Ġone": 619,
      "idd": 620,
      "Ġare": 621,
      "inal": 622,
      "Ġ<": 623,
      "\":{\"": 624,
      "Ġthis": 625,
      "ael": 626,
      "ough": 627,
      "<think": 628,
      "string": 629,
      "Ġstr": 630,
      "Ġcl": 631,
      "Ġfile": 632,
      "Ġfind": 633,
      "Ġclock": 634,
      ")Ċ": 635,
      "cret": 636,
      "Ġvoice": 637,
      "ting": 638,
      "iv": 639,
      "ten": 640,
      "Ġpl": 641,
      "\\\"": 642,
      "our": 643,
      "sel": 644,
      "}Ċ": 645,
      ".ĊĊ": 646,
      "Ġab": 647,
      "iz": 648,
      "Ġmore": 649,
      "ĠElias": 650,
      "Chapter": 651,
      "object": 652,
      "Ġen": 653,
      "Wh": 654,
      "Ġag": 655,
      "Ġwar": 656,
      "âĢĻ": 657,
      "ds": 658,
      ">ĊĊ": 659,
      "py": 660,
      "pro": 661,
      "Ġro": 662,
      "idden": 663,
      "ign": 664,
      "Ġbeen": 665,
      "ise": 666,
      "orm": 667,
      "\"}},": 668,
      "ont": 669,
      "rem": 670,
      "Ġthr": 671,
      "Ġ\\\"": 672,
      "Ġ'": 673,
      "Ġcan": 674,
      "irst": 675,
      "par": 676,
      "self": 677,
      "Ġthen": 678,
      "Ġus": 679,
      "ters": 680,
      "Ġ[": 681,
      "vers": 682,
      "Ġbeg": 683,
      "Ġworld": 684,
      "ĠKael": 685,
      "Ġlike": 686,
      "Ġonly": 687,
      "ning": 688,
      "Ġco": 689,
      "Ġmust": 690,
      "ins": 691,
      "ĠJ": 692,
      "Ġpr": 693,
      "Ġste": 694,
      "dd": 695,
      "ery": 696,
      "Ġtown": 697,
      "Ġqu": 698,
      "umb": 699,
      "Ġknow": 700,
      "Ġsomething": 701,
      "xt": 702,
      "Ġcont": 703,
      "uth": 704,
      "Ġsu": 705,
      "ode": 706,
      "Ġreve": 707,
      "Ġpast": 708,
      "quired": 709,
      "Ġno": 710,
      "Ġthrough": 711,
      "ĠEl": 712,
      "ĠIn": 713,
      "Ġman": 714,
      "his": 715,
      "ĠIt": 716,
      "Ġsil": 717,
      "Ġcall": 718,
      "ress": 719,
      "Ġreveal": 720,
      "],": 721,
      "Ġhidden": 722,
      "ange": 723,
      "Ġnow": 724,
      "):": 725,
      "put": 726,
      "Ġke": 727,
      "Ġwhat": 728,
      "ameters": 729,
      "proper": 730,
      "Ġmem": 731,
      "Ġdef": 732,
      "ire": 733,
      "ties": 734,
      "Ġsecret": 735,
      ".py": 736,
      "est": 737,
      "required": 738,
      "covers": 739,
      "Ġhave": 740,
      "parameters": 741,
      "properties": 742,
      "Ġbre": 743,
      "Ġsk": 744,
      "Ġthem": 745,
      "Ġwork": 746,
      "Ġcould": 747,
      "adow": 748,
      "av": 749,
      "tag": 750,
      "Ġres": 751,
      "Ġagain": 752,
      "Ġhand": 753,
      "Ġcr": 754,
      "Ġjust": 755,
      "onist": 756,
      "tagonist": 757,
      "val": 758,
      "outline": 759,
      "pped": 760,
      "ple": 761,
      "Ġtra": 762,
      "Ġtheir": 763,
      "Ġdec": 764,
      "Ġmo": 765,
      "Ġcre": 766,
      "au": 767,
      "pr": 768,
      "ĠO": 769,
      "aract": 770,
      "ance": 771,
      "ft": 772,
      "ata": 773,
      "Ġso": 774,
      "tools": 775,
      "de": 776,
      "Ġcity": 777,
      "apters": 778,
      "Ġcur": 779,
      "ark": 780,
      "fore": 781,
      "ines": 782,
      "fe": 783,
      "rite": 784,
      "ears": 785,
      "etting": 786,
      "Ġtruth": 787,
      "Ġmyst": 788,
      "Ġsign": 789,
      "mand": 790,
      "What": 791,
      "Ġmach": 792,
      "ious": 793,
      "Ġbet": 794,
      "ght": 795,
      "Ġbu": 796,
      "able": 797,
      "Pro": 798,
      "Ġsaid": 799,
      "mb": 800,
      "Ġbefore": 801,
      "aracters": 802,
      "ĠBut": 803,
      "we": 804,
      "Ġneed": 805,
      "Ġconf": 806,
      "Ġdid": 807,
      "Ġoff": 808,
      "wor": 809,
      "ther": 810,
      "Ġname": 811,
      ".\"": 812,
      "Ġfe": 813,
      "ary": 814,
      "\"],": 815,
      "itle": 816,
      "atch": 817,
      "ĠĠĠĠĠĠĠĠĠĠĠ": 818,
      "ian": 819,
      "ical": 820,
      "Gen": 821,
      "sh": 822,
      "Ġever": 823,
      "ling": 824,
      "Ġsto": 825,
      "Ġover": 826,
      "Ġey": 827,
      "Setting": 828,
      "Characters": 829,
      "remise": 830,
      "Title": 831,
      "Premise": 832,
      "Chapters": 833,
      "Protagonist": 834,
      "Genre": 835,
      "Ġown": 836,
      "Ġwhis": 837,
      "oun": 838,
      "Ġdiscovers": 839,
      "Ġexp": 840,
      "ns": 841,
      "Ġlight": 842,
      "ystem": 843,
      "Ġwords": 844,
      "are": 845,
      "sed": 846,
      "Ġold": 847,
      "Ġabout": 848,
      "Ġgr": 849,
      "Ġthey": 850,
      "Ġrec": 851,
      "ase": 852,
      "Ġsc": 853,
      "Ġback": 854,
      "Ġup": 855,
      "Ġprint": 856,
      "row": 857,
      "Ġsaved": 858,
      "ror": 859,
      "Ġfl": 860,
      "way": 861,
      "Ġwould": 862,
      "Ġlist": 863,
      "wer": 864,
      "Ġlong": 865,
      "Ġwere": 866,
      "Ġfirst": 867,
      "Ġem": 868,
      ",\\": 869,
      "Ġsky": 870,
      "fil": 871,
      "Ġeyes": 872,
      "son": 873,
      "Ġpul": 874,
      "ves": 875,
      "ens": 876,
      "rote": 877,
      "Ġvill": 878,
      "Ġund": 879,
      "ched": 880,
      "ment": 881,
      "Ġchapter": 882,
      "wrote": 883,
      "arch": 884,
      "Ġfa": 885,
      "Ġbo": 886,
      "got": 887,
      "Ġval": 888,
      "tern": 889,
      "Ġac": 890,
      "Ġ`": 891,
      "Ġ+": 892,
      "Ġsel": 893,
      "ower": 894,
      "Ġ*": 895,
      "orn": 896,
      "Ġset": 897,
      "own": 898,
      "Ġnever": 899,
      "Ġ{": 900,
      "Ġeach": 901,
      "ĠLil": 902,
      "rent": 903,
      "gotten": 904,
      "Ġcho": 905,
      "âĢĻs": 906,
      "Ġte": 907,
      "Ġair": 908,
      "Ġfinds": 909,
      "----": 910,
      "host": 911,
      "Ġecho": 912,
      "Ġwithin": 913,
      "Ġall": 914,
      "ates": 915,
      "aker": 916,
      "ĠAI": 917,
      "Ġfinal": 918,
      "Ġonce": 919,
      "ph": 920,
      "Ġshadow": 921,
      "ose": 922,
      "cess": 923,
      "Ġself": 924,
      "ated": 925,
      "Ġunder": 926,
      "Ġbr": 927,
      "ollow": 928,
      "Ġbl": 929,
      "com": 930,
      "Ġheart": 931,
      "Ġlost": 932,
      "erious": 933,
      "Ġop": 934,
      "ray": 935,
      "ff": 936,
      "Ġsilence": 937,
      "cont": 938,
      "Ġturn": 939,
      "Ġsur": 940,
      "ĠThey": 941,
      "ally": 942,
      "Ġevery": 943,
      "imp": 944,
      "oss": 945,
      "Ġmay": 946,
      "Ġmachine": 947,
      "Ġvillage": 948,
      "Ġbreath": 949,
      "ĠâĢ": 950,
      "Ġmemory": 951,
      "Ġwhen": 952,
      "Ġthan": 953,
      "Ġhas": 954,
      "Ġfound": 955,
      "ĠSil": 956,
      "Ġend": 957,
      "ell": 958,
      "Ġnew": 959,
      "ĠMira": 960,
      "Ġreal": 961,
      "cient": 962,
      "ying": 963,
      "ĠLila": 964,
      "ted": 965,
      "ween": 966,
      "Ġdes": 967,
      ")\\": 968,
      "ĠAnd": 969,
      "Ġwill": 970,
      "iss": 971,
      "alc": 972,
      "Ġbetween": 973,
      "Ġpower": 974,
      "Ġspe": 975,
      "Ġkey": 976,
      "Ġsy": 977,
      "_s": 978,
      "''": 979,
      "fter": 980,
      "âĢĿ": 981,
      "Ġob": 982,
      "Ġlif": 983,
      "Ġbegins": 984,
      "Ġhum": 985,
      "les": 986,
      "Ġform": 987,
      "Ġfil": 988,
      "rown": 989,
      "ried": 990,
      "Ġsent": 991,
      "Ġwrit": 992,
      "ene": 993,
      "Ġweight": 994,
      "\"}Ċ": 995,
      "Ġlet": 996,
      "Ġrem": 997,
      "ures": 998,
      "ade": 999,
      "ave": 1000,
      "ax": 1001,
      ".sh": 1002,
      "ew": 1003,
      "ody": 1004,
      "ags": 1005,
      "ource": 1006,
      "Ġclo": 1007,
      "Ġsee": 1008,
      "Ġagainst": 1009,
      "ble": 1010,
      "Ġcons": 1011,
      "Ġpath": 1012,
      "ĠX": 1013,
      "aim": 1014,
      "ML": 1015,
      "Ġsong": 1016,
      "Ġtags": 1017,
      "ened": 1018,
      "Ġlast": 1019,
      "ĠTh": 1020,
      "ĠClock": 1021,
      "maker": 1022,
      "Ġforgotten": 1023,
      "Ġfi": 1024,
      "Ġlook": 1025,
      "Ġlead": 1026,
      "ving": 1027,
      "Ġstill": 1028,
      "other": 1029,
      "ĠXML": 1030,
      "></": 1031,
      "Ġcol": 1032,
      "):Ċ": 1033,
      "Ġmysterious": 1034,
      "ĠEcho": 1035,
      "Ġdata": 1036,
      "ĠSt": 1037,
      "Ġbro": 1038,
      "Ġche": 1039,
      "ract": 1040,
      "Ġhel": 1041,
      "Ġreveals": 1042,
      "ady": 1043,
      "yth": 1044,
      "Ġdark": 1045,
      "hes": 1046,
      "Ġ[\"": 1047,
      "reat": 1048,
      "Ġri": 1049,
      "Ġsm": 1050,
      "Ġdidn": 1051,
      "Ġadd": 1052,
      "Ġdoes": 1053,
      "ake": 1054,
      "ĠElara": 1055,
      "ĠâĢľ": 1056,
      "ict": 1057,
      "Ġsame": 1058,
      "ger": 1059,
      "ash": 1060,
      "form": 1061,
      "ols": 1062,
      "aught": 1063,
      "ined": 1064,
      ":\\": 1065,
      "work": 1066,
      "its": 1067,
      "Ġusing": 1068,
      "Ġhelp": 1069,
      "\"\"": 1070,
      "},": 1071,
      "der": 1072,
      "Ġnight": 1073,
      "Ġstory": 1074,
      "eneath": 1075,
      "Ġworks": 1076,
      "oth": 1077,
      "ree": 1078,
      "Ġafter": 1079,
      "Ġlife": 1080,
      "Ġmet": 1081,
      "Ġmind": 1082,
      "ward": 1083,
      "lean": 1084,
      "Ġ__": 1085,
      "get": 1086,
      "write": 1087,
      "ices": 1088,
      "ey": 1089,
      "cI": 1090,
      "ole": 1091,
      "ator": 1092,
      "list": 1093,
      "Ġsub": 1094,
      "Ġdest": 1095,
      "Ġclaim": 1096,
      "Ġdead": 1097,
      "Ġmess": 1098,
      "Ġstart": 1099,
      "Ġer": 1100,
      "up": 1101,
      "Ġrun": 1102,
      "ĠLira": 1103,
      "Ġghost": 1104,
      "Ġper": 1105,
      "Ġsing": 1106,
      "chan": 1107,
      "Ġoutline": 1108,
      "cYou": 1109,
      "expr": 1110,
      "Ġarg": 1111,
      "Ġpre": 1112,
      "ish": 1113,
      "elt": 1114,
      ".\\\"": 1115,
      "ich": 1116,
      "ĠLast": 1117,
      "\\nThe": 1118,
      "ext": 1119,
      "ild": 1120,
      "ena": 1121,
      "Ġline": 1122,
      "Ġhands": 1123,
      "Ġship": 1124,
      "Ġresult": 1125,
      "Ġ$": 1126,
      "Ġstop": 1127,
      "Ġgu": 1128,
      "lass": 1129,
      "ĠAs": 1130,
      "Ġancient": 1131,
      "text": 1132,
      "ression": 1133,
      "anger": 1134,
      "content": 1135,
      "Ġscript": 1136,
      "Ġbeneath": 1137,
      "Ġcor": 1138,
      "oman": 1139,
      "Ġans": 1140,
      "ories": 1141,
      "ll": 1142,
      "Ġstrange": 1143,
      "ream": 1144,
      "ĠCl": 1145,
      "ize": 1146,
      "Ġsystem": 1147,
      "Ġdestro": 1148,
      "Ġcontr": 1149,
      "ken": 1150,
      "Ġuse": 1151,
      "ront": 1152,
      "Ġpe": 1153,
      "Ġnext": 1154,
      "ient": 1155,
      "ness": 1156,
      "Ġel": 1157,
      "side": 1158,
      "ault": 1159,
      "less": 1160,
      "ions": 1161,
      "Ġstood": 1162,
      "Ġcommand": 1163,
      "ename": 1164,
      "ĠNo": 1165,
      "ait": 1166,
      "Ġvalue": 1167,
      "Ġway": 1168,
      "ans": 1169,
      "Ġfelt": 1170,
      "tic": 1171,
      "Ġsignal": 1172,
      "Ġtoo": 1173,
      "ultip": 1174,
      "Ġfore": 1175,
      "uture": 1176,
      "Ġroom": 1177,
      "ought": 1178,
      "Ġass": 1179,
      "Ġlines": 1180,
      "Ġwritten": 1181,
      "Ġfar": 1182,
      "ful": 1183,
      "âĢĶ": 1184,
      "Ġvis": 1185,
      "pl": 1186,
      "ating": 1187,
      "ĠTo": 1188,
      "lie": 1189,
      "Ġshould": 1190,
      "Ġstep": 1191,
      "Ġap": 1192,
      "Ġdestroy": 1193,
      "Ġmessage": 1194,
      "Ġent": 1195,
      "Ġwind": 1196,
      "ub": 1197,
      "ern": 1198,
      "_read": 1199,
      "Ġra": 1200,
      "ople": 1201,
      "cation": 1202,
      "Ġbeh": 1203,
      "ured": 1204,
      "Ġany": 1205,
      "args": 1206,
      "Ġthere": 1207,
      "ry": 1208,
      "ĠSe": 1209,
      "Ġdet": 1210,
      "Ġpo": 1211,
      "ook": 1212,
      "Ġstars": 1213,
      "Ġleft": 1214,
      "Ġact": 1215,
      "Ġwant": 1216,
      "Ġplan": 1217,
      "Ġfuture": 1218,
      "Ġpart": 1219,
      "Ġnumb": 1220,
      "ged": 1221,
      "filename": 1222,
      "cy": 1223,
      "Ġking": 1224,
      "vent": 1225,
      "Ġobject": 1226,
      "Ġfig": 1227,
      "ets": 1228,
      "act": 1229,
      ").<|": 1230,
      "Ġfall": 1231,
      "Ġ==": 1232,
      "Ġseen": 1233,
      "ks": 1234,
      "ven": 1235,
      "Ġturned": 1236,
      "?\\": 1237,
      "Ġmom": 1238,
      "Ġgo": 1239,
      "ull": 1240,
      "_d": 1241,
      "pect": 1242,
      "Ġhold": 1243,
      "ert": 1244,
      "ĠSh": 1245,
      "lic": 1246,
      "Ġmechan": 1247,
      "og": 1248,
      "vid": 1249,
      "Ġread": 1250,
      "Ġmultip": 1251,
      "ering": 1252,
      "ĠYou": 1253,
      "ec": 1254,
      "Ġopen": 1255,
      "Ġali": 1256,
      "ond": 1257,
      ".\",\"": 1258,
      "\":[": 1259,
      "Ġforc": 1260,
      "Ġuser": 1261,
      "ingers": 1262,
      "import": 1263,
      "ered": 1264,
      "ĠFor": 1265,
      "Ġdown": 1266,
      "ss": 1267,
      "tered": 1268,
      "Ġsearch": 1269,
      "ber": 1270,
      "ĠZ": 1271,
      "Ġconfront": 1272,
      "ud": 1273,
      "ĠVoss": 1274,
      "Ġspeak": 1275,
      "Ġhist": 1276,
      "()": 1277,
      "ways": 1278,
      "Ġfiles": 1279,
      "Ġhere": 1280,
      "Ġint": 1281,
      "uct": 1282,
      "This": 1283,
      "Ġrevealing": 1284,
      "Ġelse": 1285,
      "attern": 1286,
      ".</": 1287,
      "ather": 1288,
      "location": 1289,
      "ied": 1290,
      "ample": 1291,
      "Ġcontrol": 1292,
      "Ġwait": 1293,
      "cover": 1294,
      "ount": 1295,
      "}}}Ċ": 1296,
      "leanor": 1297,
      "Ġsort": 1298,
      "ĠU": 1299,
      "Ġface": 1300,
      "Ġanswer": 1301,
      "filepath": 1302,
      "ead": 1303,
      "Ġmoment": 1304,
      "Ġshadows": 1305,
      "def": 1306,
      "json": 1307,
      "Ġquery": 1308,
      "Ġteam": 1309,
      "Ġwhisper": 1310,
      "ared": 1311,
      "vel": 1312,
      "aced": 1313,
      "Ġdif": 1314,
      "\":[\"": 1315,
      "ony": 1316,
      "alcul": 1317,
      "set": 1318,
      "Ġknew": 1319,
      "Ġtrem": 1320,
      "Ġbelie": 1321,
      "Ġsound": 1322,
      "Ġbehind": 1323,
      "br": 1324,
      "hop": 1325,
      "Ġsea": 1326,
      "illed": 1327,
      "Ġfigure": 1328,
      "Ġgra": 1329,
      "Ġcomp": 1330,
      "ial": 1331,
      "Ġappe": 1332,
      "Ġdeep": 1333,
      "Ġdoor": 1334,
      "Ġarguments": 1335,
      "be": 1336,
      "Ġed": 1337,
      "Ġwatch": 1338,
      "Ġshow": 1339,
      "Ġaround": 1340,
      "}}Ċ": 1341,
      "Ġbeing": 1342,
      "Ġwarning": 1343,
      "Ġpres": 1344,
      "âĢĳ": 1345,
      "gr": 1346,
      "Ġmus": 1347,
      "ilt": 1348,
      "Ġbroken": 1349,
      "Ġdiffe": 1350,
      "Ġstepped": 1351,
      "ord": 1352,
      "ked": 1353,
      "Ġacc": 1354,
      "ached": 1355,
      "Ġfingers": 1356,
      "Ġ\"$": 1357,
      "Ġseem": 1358,
      "uck": 1359,
      "Ġstorm": 1360,
      "',": 1361,
      "ries": 1362,
      "Ġoffice": 1363,
      "memb": 1364,
      "pace": 1365,
      "ption": 1366,
      "Ġpress": 1367,
      "ys": 1368,
      "Ġwoman": 1369,
      "aw": 1370,
      "Ġpeople": 1371,
      "How": 1372,
      "ative": 1373,
      "atc": 1374,
      "ident": 1375,
      "âĢĻt": 1376,
      "Ġru": 1377,
      "Ġcrown": 1378,
      "Ġalways": 1379,
      "Ġfollow": 1380,
      "ĠEleanor": 1381,
      "ru": 1382,
      "atures": 1383,
      "Ġdecide": 1384,
      "ps": 1385,
      "oc": 1386,
      "ĠSecret": 1387,
      "Ġprovid": 1388,
      "ĠMar": 1389,
      "app": 1390,
      "Ġrest": 1391,
      "'t": 1392,
      "eper": 1393,
      "ĠCh": 1394,
      "Ġtremb": 1395,
      "mat": 1396,
      "Ġaw": 1397,
      "Ġarri": 1398,
      "Ġfunctions": 1399,
      "Ġjson": 1400,
      "Ġmiss": 1401,
      "Ġgears": 1402,
      "eld": 1403,
      "Ġdon": 1404,
      "('": 1405,
      "ĠSilas": 1406,
      "ĠWhis": 1407,
      "ale": 1408,
      "Ġhuman": 1409,
      "ython": 1410,
      "quiet": 1411,
      "Ġrememb": 1412,
      "Ġfear": 1413,
      ".âĢĿ": 1414,
      "ier": 1415,
      "Ġquiet": 1416,
      "ĠFinal": 1417,
      "Ġcode": 1418,
      "Ġprocess": 1419,
      "Ġbegin": 1420,
      "fi": 1421,
      "Ġdra": 1422,
      "ĠDr": 1423,
      "ause": 1424,
      "Ġlog": 1425,
      "Ġplace": 1426,
      "Ġtw": 1427,
      "acks": 1428,
      "Ġad": 1429,
      "tle": 1430,
      "erm": 1431,
      "Ġplay": 1432,
      "hen": 1433,
      "math": 1434,
      "Ġmusic": 1435,
      "Ġwhether": 1436,
      "Ġnote": 1437,
      "Ġwaiting": 1438,
      "Ġeverything": 1439,
      "metic": 1440,
      "ithmetic": 1441,
      "king": 1442,
      "Ġitself": 1443,
      "Ġorig": 1444,
      "Ġstation": 1445,
      "ĠThis": 1446,
      "ings": 1447,
      "load": 1448,
      "Ġsecrets": 1449,
      "Ġwithout": 1450,
      "Ġwhich": 1451,
      "Ġexpression": 1452,
      "Ġkeep": 1453,
      "ĠShadow": 1454,
      "Ġfail": 1455,
      "Ġcrew": 1456,
      "Ġcheck": 1457,
      "Ġho": 1458,
      "Ġlant": 1459,
      "Ġformer": 1460,
      "Ġprovided": 1461,
      "Ġapp": 1462,
      "--------": 1463,
      "Ġreb": 1464,
      "Ġdream": 1465,
      "Ġbecom": 1466,
      "ail": 1467,
      "iece": 1468,
      "Ġheld": 1469,
      "here": 1470,
      "Ġclaims": 1471,
      "Ġthought": 1472,
      "Ġglow": 1473,
      "ces": 1474,
      "Ġspir": 1475,
      "Ġcore": 1476,
      "irror": 1477,
      "Ġrecl": 1478,
      "system": 1479,
      "Ġcar": 1480,
      "Ġ\"\"\"": 1481,
      "Ġbreak": 1482,
      "\"Ċ": 1483,
      "Ġexist": 1484,
      "Ġquest": 1485,
      "It": 1486,
      "Ġother": 1487,
      "Ġmemories": 1488,
      "aken": 1489,
      "ations": 1490,
      "ross": 1491,
      "For": 1492,
      "Ġclockmaker": 1493,
      "_list": 1494,
      "air": 1495,
      "aces": 1496,
      "ne": 1497,
      "Ġtool": 1498,
      "Ġunderst": 1499,
      "erg": 1500,
      "Ġthink": 1501,
      "ĠĠĊĊ": 1502,
      "'''": 1503,
      "ĠElena": 1504,
      "Ġflick": 1505,
      "sing": 1506,
      "Ġsilent": 1507,
      "ia": 1508,
      "(f": 1509,
      "Ġyour": 1510,
      "ition": 1511,
      "teger": 1512,
      "face": 1513,
      "Ġbuilt": 1514,
      "Ġhaun": 1515,
      "ĠFirst": 1516,
      "Ġtext": 1517,
      "Ġassist": 1518,
      "Ġaway": 1519,
      "Ġthick": 1520,
      "Ġmystery": 1521,
      "Ġim": 1522,
      "Ġworkspace": 1523,
      "Ġsignatures": 1524,
      "ĠHis": 1525,
      "ric": 1526,
      "ĠTools": 1527,
      "print": 1528,
      ">,": 1529,
      "ument": 1530,
      "Ġmight": 1531,
      "Ġholds": 1532,
      "-name": 1533,
      "cThe": 1534,
      "-json": 1535,
      "-object": 1536,
      ">}Ċ": 1537,
      "<tools": 1538,
      "ng": 1539,
      "Ġnumber": 1540,
      "Ġstre": 1541,
      "Ġdev": 1542,
      "Ġsource": 1543,
      "Ġwasn": 1544,
      "ze": 1545,
      "Ġbook": 1546,
      "Ġflo": 1547,
      "dom": 1548,
      "ains": 1549,
      "yn": 1550,
      "allow": 1551,
      "Ġsave": 1552,
      "Ġwall": 1553,
      "Ġdanger": 1554,
      "cur": 1555,
      "Ġanother": 1556,
      "main": 1557,
      "rag": 1558,
      "Ġwhile": 1559,
      "Ġfilled": 1560,
      "Ġchange": 1561,
      "ouse": 1562,
      "Ġsw": 1563,
      "aughter": 1564,
      "Ġgre": 1565,
      "Ġsentient": 1566,
      "rif": 1567,
      "Ġpass": 1568,
      ".\"}}": 1569,
      "\"],\"": 1570,
      ".\"}}}}}Ċ": 1571,
      "ms": 1572,
      "pty": 1573,
      "Ġrep": 1574,
      "agg": 1575,
      "She": 1576,
      "ourn": 1577,
      "Ġtrue": 1578,
      "Ġwarns": 1579,
      "irect": 1580,
      "aggie": 1581,
      "Let": 1582,
      "Ġtest": 1583,
      "ĠRe": 1584,
      "Ġfree": 1585,
      "Ġday": 1586,
      "ments": 1587,
      "Ġdifferent": 1588,
      "hat": 1589,
      "tract": 1590,
      "Ġappears": 1591,
      "esc": 1592,
      "lap": 1593,
      "ledge": 1594,
      "Ġheav": 1595,
      "Ġleav": 1596,
      "Ġvan": 1597,
      "valu": 1598,
      "Ġreached": 1599,
      "Ġguard": 1600,
      "(n": 1601,
      "Ġbec": 1602,
      "Ġcome": 1603,
      "Ġeng": 1604,
      "Ġmel": 1605,
      "Ġhow": 1606,
      "Ġcent": 1607,
      ".\"}}Ċ": 1608,
      "Ġcurse": 1609,
      "Ġprote": 1610,
      "ĠWhisper": 1611,
      "Ġhapp": 1612,
      "light": 1613,
      "data": 1614,
      "Ġyears": 1615,
      "Ġcost": 1616,
      "ote": 1617,
      "oke": 1618,
      "Ġbecomes": 1619,
      "arden": 1620,
      "ape": 1621,
      "Ġnam": 1622,
      "Ġsou": 1623,
      "integer": 1624,
      "ual": 1625,
      "igh": 1626,
      "Why": 1627,
      "ls": 1628,
      "idge": 1629,
      "Ġconfronts": 1630,
      "iding": 1631,
      "aptain": 1632,
      "key": 1633,
      "Ġshar": 1634,
      "Ġlooked": 1635,
      "Ġforward": 1636,
      "Ġstar": 1637,
      "Ġchang": 1638,
      "ser": 1639,
      "aster": 1640,
      "Ġinst": 1641,
      "Ġmap": 1642,
      "ĠEchoes": 1643,
      "ĠVey": 1644,
      "ater": 1645,
      ")ĊĊ": 1646,
      "rayal": 1647,
      "usive": 1648,
      "Ġinside": 1649,
      "ask": 1650,
      "akes": 1651,
      "Ġchoice": 1652,
      "\"},": 1653,
      "Ġneeded": 1654,
      "ĠSir": 1655,
      "aint": 1656,
      "ĠTom": 1657,
      "Ġclocks": 1658,
      "ĠMaggie": 1659,
      "Ġsteal": 1660,
      "uto": 1661,
      "Ġburied": 1662,
      "Ġmultiply": 1663,
      "):\\": 1664,
      "Ġmy": 1665,
      "Ġcold": 1666,
      "olen": 1667,
      "ĠCho": 1668,
      "Ġunderstand": 1669,
      "Ġtick": 1670,
      "ors": 1671,
      "orne": 1672,
      "ready": 1673,
      "Ġuncover": 1674,
      "pers": 1675,
      "Ġalready": 1676,
      "bin": 1677,
      "Ġnode": 1678,
      "pered": 1679,
      "Ġsingle": 1680,
      "Ġinter": 1681,
      "vol": 1682,
      "Ġknowledge": 1683,
      "Ġcaught": 1684,
      "Ġref": 1685,
      "cat": 1686,
      "ues": 1687,
      "ĠPython": 1688,
      "Ġfin": 1689,
      "Ġvault": 1690,
      "mph": 1691,
      "Ġauto": 1692,
      "gue": 1693,
      "(self": 1694,
      "Ġhistory": 1695,
      "Ġget": 1696,
      "Ġlear": 1697,
      "pute": 1698,
      "Ġlibr": 1699,
      "Ġcomm": 1700,
      "Ġedge": 1701,
      "Ġsymb": 1702,
      "Ġarrives": 1703,
      "Ġfrag": 1704,
      "Ġatt": 1705,
      "ĠHer": 1706,
      "Ġkingdom": 1707,
      "ypt": 1708,
      "Ġfather": 1709,
      "ĠJack": 1710,
      "ove": 1711,
      "Ġtrapped": 1712,
      "lan": 1713,
      "Ġrul": 1714,
      "Ġsun": 1715,
      "oup": 1716,
      "valuate": 1717,
      "ffe": 1718,
      "Ġmechanical": 1719,
      "ĠOr": 1720,
      "Ġrealiz": 1721,
      ",\\\"": 1722,
      "ution": 1723,
      "Ġengine": 1724,
      "ural": 1725,
      "Ġprotect": 1726,
      "ug": 1727,
      "ages": 1728,
      "Ġ#": 1729,
      "Ġempty": 1730,
      "Ġshif": 1731,
      "Ġsmall": 1732,
      "Ġreclusive": 1733,
      "eturn": 1734,
      "used": 1735,
      "Ġart": 1736,
      "ides": 1737,
      "ival": 1738,
      "pic": 1739,
      "land": 1740,
      "Ġlen": 1741,
      "Ġsurface": 1742,
      "Ġtimep": 1743,
      "Ġalive": 1744,
      "gra": 1745,
      "Ġsaw": 1746,
      "arm": 1747,
      "ely": 1748,
      "Ġforever": 1749,
      "mphony": 1750,
      "_source": 1751,
      "Ġfact": 1752,
      "Ġdist": 1753,
      "Ġsurv": 1754,
      "ded": 1755,
      "Ġhaunted": 1756,
      "yal": 1757,
      "Ġoriginal": 1758,
      "ĠClockmaker": 1759,
      "open": 1760,
      "Ġwhispered": 1761,
      "ite": 1762,
      "ones": 1763,
      "Ġlow": 1764,
      "ffee": 1765,
      "Ġruins": 1766,
      "Ġloop": 1767,
      "Ġquestion": 1768,
      "Ġpur": 1769,
      "aking": 1770,
      "Ġhimself": 1771,
      "Ġcurrent": 1772,
      "Ġdying": 1773,
      "ĠClockwork": 1774,
      "opy": 1775,
      "Ġmoved": 1776,
      "Ġdust": 1777,
      "ĠĠĠĠĠĠĠĠĠĠĠĠĠĠĠ": 1778,
      "Ġfire": 1779,
      "Ġlonger": 1780,
      "Ġused": 1781,
      "ute": 1782,
      "Ġchoose": 1783,
      "ood": 1784,
      "Ġemp": 1785,
      "Ġwalls": 1786,
      "Ġcy": 1787,
      "Ġclosed": 1788,
      "Ġser": 1789,
      "Ġmeant": 1790,
      "Ġlights": 1791,
      "Ġsharp": 1792,
      "Ġexample": 1793,
      "rf": 1794,
      "ĠHollow": 1795,
      "Ġele": 1796,
      "Ġpar": 1797,
      "]Ċ": 1798,
      "ĠRed": 1799,
      "Ġtrying": 1800,
      "rupt": 1801,
      "Ġmer": 1802,
      "Ġlate": 1803,
      "Ġcham": 1804,
      "ired": 1805,
      "ĠWar": 1806,
      "ective": 1807,
      "Ġstolen": 1808,
      "ari": 1809,
      "ĠAl": 1810,
      "Ġhouse": 1811,
      "\\nA": 1812,
      "ush": 1813,
      "Ġdirect": 1814,
      "attered": 1815,
      "Ġsteady": 1816,
      "Ġsac": 1817,
      "ging": 1818,
      "med": 1819,
      "ished": 1820,
      "acing": 1821,
      "Ġoutput": 1822,
      "aved": 1823,
      "ĠNone": 1824,
      "Ġjourn": 1825,
      "Ġgroup": 1826,
      "ned": 1827,
      "Ġlantern": 1828,
      "Ġleg": 1829,
      "iliz": 1830,
      "vest": 1831,
      "ener": 1832,
      "Ġyet": 1833,
      "uri": 1834,
      "iven": 1835,
      "Ġgrow": 1836,
      "for": 1837,
      "verse": 1838,
      "vestig": 1839,
      "Ġmelody": 1840,
      "Ġforced": 1841,
      "Ġends": 1842,
      "els": 1843,
      "\\\"\\": 1844,
      "Ġspace": 1845,
      "He": 1846,
      "Ġstat": 1847,
      "Ġnod": 1848,
      "ĠWhispering": 1849,
      "query": 1850,
      "Ġmade": 1851,
      "Ġdevice": 1852,
      "ane": 1853,
      "rie": 1854,
      "Ġsubtract": 1855,
      "Ġgal": 1856,
      "Ġmoon": 1857,
      "Ġinvestig": 1858,
      "ĠMr": 1859,
      "yra": 1860,
      "Ġcollap": 1861,
      "head": 1862,
      "Ġscent": 1863,
      "Ġblack": 1864,
      "Ġmag": 1865,
      "Ġpulsed": 1866,
      "ĠSer": 1867,
      "ĠCaptain": 1868,
      "Ġboth": 1869,
      "ĠDain": 1870,
      "Ġslow": 1871,
      "ĠTr": 1872,
      "ison": 1873,
      "ank": 1874,
      "Ġisland": 1875,
      "olve": 1876,
      "Ġmod": 1877,
      "Ġris": 1878,
      "But": 1879,
      "pattern": 1880,
      "Ġsn": 1881,
      "log": 1882,
      "appe": 1883,
      "Ġreturns": 1884,
      "ĠSome": 1885,
      "Ġuncovers": 1886,
      "amp": 1887,
      "Ġrogue": 1888,
      "Ġsacrif": 1889,
      "Ġcha": 1890,
      "ĠChoice": 1891,
      "Ġwr": 1892,
      "ĠIf": 1893,
      "Ġpa": 1894,
      "Ġbeginning": 1895,
      "ĠWith": 1896,
      "Ġvoices": 1897,
      "Ġmove": 1898,
      "Ġchild": 1899,
      "Write": 1900,
      "ants": 1901,
      "Ġbat": 1902,
      "how": 1903,
      "Ġind": 1904,
      "Ġdisappe": 1905,
      "Ġchamber": 1906,
      "Ġmeets": 1907,
      "Ġknown": 1908,
      "ĠLady": 1909,
      "Ġesc": 1910,
      "ief": 1911,
      "ives": 1912,
      "que": 1913,
      "aby": 1914,
      "Ġmissing": 1915,
      "ision": 1916,
      "ĠChapter": 1917,
      "Ġcalled": 1918,
      "Ġspirit": 1919,
      "Ġgalax": 1920,
      "Ġmachines": 1921,
      "()Ċ": 1922,
      "ost": 1923,
      "Ġcomple": 1924,
      "Ġmur": 1925,
      "amil": 1926,
      "Ġgalaxy": 1927,
      "Ġmirror": 1928,
      "Ġcalcul": 1929,
      "Ġforest": 1930,
      "._": 1931,
      "oned": 1932,
      "Ġlove": 1933,
      "Ġsus": 1934,
      "Ġtimepiece": 1935,
      "Ġtrembled": 1936,
      "arth": 1937,
      "Ġautomat": 1938,
      "unk": 1939,
      "ĠEve": 1940,
      "Ġpulse": 1941,
      "ĠVex": 1942,
      "Ġfight": 1943,
      "Ġsomeone": 1944,
      "Ġfri": 1945,
      "word": 1946,
      "erson": 1947,
      "Ġright": 1948,
      "Ġlock": 1949,
      "Ġstored": 1950,
      "..": 1951,
      "Ġtal": 1952,
      "ĠJax": 1953,
      "ĠWhen": 1954,
      "Ġdangerous": 1955,
      "search": 1956,
      "Ġeven": 1957,
      "Ġfix": 1958,
      "aps": 1959,
      "Ġheard": 1960,
      "Ġciv": 1961,
      "cept": 1962,
      "udd": 1963,
      "Ġorder": 1964,
      "rror": 1965,
      "Ġseemed": 1966,
      "Rep": 1967,
      "Ġfre": 1968,
      "Ġwhispers": 1969,
      "Ġimport": 1970,
      "Error": 1971,
      "af": 1972,
      "uel": 1973,
      "cal": 1974,
      "Ġleading": 1975,
      "Ġtake": 1976,
      "from": 1977,
      "Ġoffers": 1978,
      "cl": 1979,
      "Ġpresence": 1980,
      "pose": 1981,
      "Ġgreat": 1982,
      "Ġstone": 1983,
      "Ġherself": 1984,
      "Ġhiding": 1985,
      "Ġuses": 1986,
      "Ġcle": 1987,
      "umer": 1988,
      "ommand": 1989,
      "Ġthreat": 1990,
      "tr": 1991,
      "where": 1992,
      "Ġcoffee": 1993,
      "Ġwal": 1994,
      "ground": 1995,
      "ased": 1996,
      "umm": 1997,
      "Ġ]": 1998,
      "Ġgone": 1999,
      "Ġgarden": 2000,
      "Ġi": 2001,
      "iren": 2002,
      "bs": 2003,
      "Ġciviliz": 2004,
      "Ġam": 2005,
      "Ġchest": 2006,
      "hyth": 2007,
      "Ġmain": 2008,
      "asing": 2009,
      "Ġmake": 2010,
      "Ġrelic": 2011,
      "ible": 2012,
      "!/": 2013,
      "Ġsl": 2014,
      "ĠGears": 2015,
      "Ġdaughter": 2016,
      "Ġsec": 2017,
      "rel": 2018,
      "Ġspeaks": 2019,
      "Ġtell": 2020,
      "Ġinvent": 2021,
      "Ġcursed": 2022,
      "ots": 2023,
      "Ġca": 2024,
      "ced": 2025,
      "ĠTime": 2026,
      "},\"": 2027,
      "ges": 2028,
      "ddie": 2029,
      "Ġsymphony": 2030,
      "Ġworkshop": 2031,
      "Ġpurpose": 2032,
      "Ġland": 2033,
      "Ġvari": 2034,
      "Ġrange": 2035,
      "Ġacross": 2036,
      "Ġtries": 2037,
      "aze": 2038,
      "Ġrel": 2039,
      "Ġcoming": 2040,
      "Ġengineer": 2041,
      "Ġstring": 2042,
      "hythm": 2043,
      "ĠThorne": 2044,
      "Ġhope": 2045,
      "ounter": 2046,
      "Ġmetho": 2047,
      "Ġcrypt": 2048,
      "Ġfamil": 2049,
      "Ġhun": 2050,
      "ury": 2051,
      "mer": 2052,
      "_e": 2053,
      "Ġspent": 2054,
      "atcher": 2055,
      "pping": 2056,
      "Ġstand": 2057,
      "Ġpattern": 2058,
      "Ġ|": 2059,
      "Ġdim": 2060,
      "aled": 2061,
      "tched": 2062,
      "#!/": 2063,
      "acy": 2064,
      "Ġfate": 2065,
      "Ġsupp": 2066,
      "kn": 2067,
      "Ġshows": 2068,
      "An": 2069,
      "ĠAn": 2070,
      "Ġflickering": 2071,
      "Ġdi": 2072,
      "ĠĊĊ": 2073,
      "Ġpoint": 2074,
      "Ġbattle": 2075,
      "Ġ->": 2076,
      ".\"},\"": 2077,
      "(\"": 2078,
      "Ġchaos": 2079,
      "Ġty": 2080,
      "Ġhead": 2081,
      "exp": 2082,
      "add": 2083,
      ".'": 2084,
      "Ġunra": 2085,
      "irl": 2086,
      "ility": 2087,
      "Ġcapt": 2088,
      "Ġperson": 2089,
      "ĠBl": 2090,
      "Ġdel": 2091,
      "Ġtight": 2092,
      "ternal": 2093,
      "Ġdeterm": 2094,
      "aining": 2095,
      "ĠLyra": 2096,
      "Ġred": 2097,
      "\\nShe": 2098,
      "ĠClara": 2099,
      "Ġconsci": 2100,
      "acle": 2101,
      ".t": 2102,
      "Ġmon": 2103,
      "Ġstumb": 2104,
      "Ġyoung": 2105,
      "Ġwent": 2106,
      "oon": 2107,
      "Ġpound": 2108,
      "Ġenc": 2109,
      "Ġfriend": 2110,
      "ipher": 2111,
      "Ġasked": 2112,
      "sit": 2113,
      "Ġreg": 2114,
      "Ġrhythm": 2115,
      "value": 2116,
      "Ġhesit": 2117,
      "Ġperform": 2118,
      "Ġmin": 2119,
      "Ġcame": 2120,
      "Ġrust": 2121,
      "Ġter": 2122,
      "cent": 2123,
      "Eli": 2124,
      "Ġsoul": 2125,
      "Ġleader": 2126,
      "Ġrepl": 2127,
      "Ġhear": 2128,
      "Ġquick": 2129,
      "_b": 2130,
      "Ġbare": 2131,
      "Ġexit": 2132,
      "urious": 2133,
      "ĠAr": 2134,
      "*\"}}Ċ": 2135,
      "ĠCluck": 2136,
      "Ġtried": 2137,
      "man": 2138,
      "Ġfad": 2139,
      "Ġrealizes": 2140,
      "ĠEddie": 2141,
      "Ġwrong": 2142,
      "Ġpressed": 2143,
      "List": 2144,
      "Ġran": 2145,
      "Ġaccident": 2146,
      "Ġclass": 2147,
      "Ġtrans": 2148,
      "Ġoper": 2149,
      "ron": 2150,
      "Ġlay": 2151,
      "Ġinform": 2152,
      "ĠSilence": 2153,
      "Ġwatching": 2154,
      "sion": 2155,
      "Ġkill": 2156,
      "_t": 2157,
      "Ġplanet": 2158,
      "ĠWarning": 2159,
      "find": 2160,
      "files": 2161,
      "so": 2162,
      "Ġheavy": 2163,
      "Ġtask": 2164,
      "Ġpol": 2165,
      "adi": 2166,
      "Ġautomaton": 2167,
      "Ġbody": 2168,
      "Ġarray": 2169,
      "Ġechoed": 2170,
      "Ġremember": 2171,
      "cle": 2172,
      ",âĢĿ": 2173,
      "stra": 2174,
      "Ġgod": 2175,
      "Ġlibrary": 2176,
      "Ġsold": 2177,
      "Ġempire": 2178,
      "Ġdecipher": 2179,
      "),": 2180,
      "ousness": 2181,
      "ER": 2182,
      "Ġprotagonist": 2183,
      "Ġsoft": 2184,
      "Ġsentence": 2185,
      "gor": 2186,
      "Ġaband": 2187,
      "atter": 2188,
      "Can": 2189,
      "uring": 2190,
      "Ġtwo": 2191,
      "Ġins": 2192,
      "Ġbread": 2193,
      "Ġgener": 2194,
      "sort": 2195,
      "Ġconsciousness": 2196,
      "__(": 2197,
      "store": 2198,
      "yx": 2199,
      "Ġbound": 2200,
      "iron": 2201,
      "Ġnear": 2202,
      "Ġvers": 2203,
      "env": 2204,
      "asy": 2205,
      "ĠLena": 2206,
      "ky": 2207,
      "Ġforce": 2208,
      "Ġsal": 2209,
      "sage": 2210,
      "Ġarch": 2211,
      "Ġmatch": 2212,
      "ĠRo": 2213,
      "Ġknows": 2214,
      "So": 2215,
      "ĠMay": 2216,
      "Ġside": 2217,
      "Ġalien": 2218,
      "Ġcare": 2219,
      "append": 2220,
      "contents": 2221,
      "Ġcivilization": 2222,
      "ubstring": 2223,
      "ridge": 2224,
      "Ġnamed": 2225,
      "cIt": 2226,
      "Ġdemand": 2227,
      "Ġcorrupt": 2228,
      "arithmetic": 2229,
      "_files": 2230,
      "atched": 2231,
      "Ġloyal": 2232,
      "Ġdesper": 2233,
      "_eval": 2234,
      "_text": 2235,
      "ĠKing": 2236,
      "Ġarm": 2237,
      "miss": 2238,
      "Ġinput": 2239,
      "Ġleaving": 2240,
      "ĠMara": 2241,
      "Ġmany": 2242,
      "ored": 2243,
      "Ġlocal": 2244,
      "Ġappro": 2245,
      "Ġgrand": 2246,
      "Ġstruct": 2247,
      "oid": 2248,
      "uch": 2249,
      "Ġword": 2250,
      "ĠRa": 2251,
      "\")Ċ": 2252,
      "Ġimp": 2253,
      "And": 2254,
      "Ġthose": 2255,
      "ature": 2256,
      "Ġtrust": 2257,
      "Ġnodded": 2258,
      "orian": 2259,
      "Ġfollowed": 2260,
      "calcul": 2261,
      "Who": 2262,
      "Ġclockwork": 2263,
      "_math": 2264,
      "ĠHand": 2265,
      "ĠKaelen": 2266,
      "Ġsteps": 2267,
      "-rel": 2268,
      "Ġx": 2269,
      "Ġsorted": 2270,
      "body": 2271,
      "law": 2272,
      "atural": 2273,
      "Ġgiven": 2274,
      "Ġcase": 2275,
      "Ġleave": 2276,
      "Ġfaint": 2277,
      "ĠGhost": 2278,
      "Ġbarely": 2279,
      "umpy": 2280,
      "fish": 2281,
      "ĠMach": 2282,
      "Return": 2283,
      "Ġhome": 2284,
      "expression": 2285,
      "Ġtim": 2286,
      "atches": 2287,
      "Ġupon": 2288,
      "iled": 2289,
      "Ġled": 2290,
      "Ġdarkness": 2291,
      "Ã©": 2292,
      "abel": 2293,
      "alm": 2294,
      "lyn": 2295,
      "Ġleads": 2296,
      "cket": 2297,
      "Ġhard": 2298,
      "Ġtre": 2299,
      "Ġdeciphers": 2300,
      "ergy": 2301,
      "ear": 2302,
      "Ġarr": 2303,
      "Ġvoid": 2304,
      "umerate": 2305,
      "Ġothers": 2306,
      "IN": 2307,
      "Ġtoward": 2308,
      "Ġabandoned": 2309,
      "ĠNia": 2310,
      "Ġstarts": 2311,
      "Ġ>": 2312,
      "ĠRex": 2313,
      "Ġprec": 2314,
      "aph": 2315,
      "Ġremn": 2316,
      "ĠRook": 2317,
      "We": 2318,
      "rect": 2319,
      "ĠMachine": 2320,
      "Ġthing": 2321,
      "Ġgaze": 2322,
      "Ġsat": 2323,
      "Ġuni": 2324,
      "Ġenergy": 2325,
      "Ġwrite": 2326,
      "Ġpulled": 2327,
      "aric": 2328,
      "Ġdetective": 2329,
      "angu": 2330,
      "unc": 2331,
      "ĠMan": 2332,
      "ĠBet": 2333,
      "ĠNow": 2334,
      "Ġpressing": 2335,
      "Ġcount": 2336,
      "cipe": 2337,
      "Repo": 2338,
      "-relative": 2339,
      "ĠMayor": 2340,
      "Ġscre": 2341,
      "Ġlearns": 2342,
      "Ġcontents": 2343,
      "Ġprice": 2344,
      "Ġfro": 2345,
      "(s": 2346,
      "Ġerror": 2347,
      "ĠNew": 2348,
      "?\\\"": 2349,
      "ina": 2350,
      "HE": 2351,
      "input": 2352,
      "cientist": 2353,
      "Ġham": 2354,
      "Ġdrawn": 2355,
      "Show": 2356,
      "Ġfull": 2357,
      "Ġens": 2358,
      "Ġpersonal": 2359,
      "ractured": 2360,
      "ening": 2361,
      "ĠMem": 2362,
      "Ġtrembling": 2363,
      "Ġgold": 2364,
      "ister": 2365,
      "Ġwea": 2366,
      "Ġcrack": 2367,
      "Ġsings": 2368,
      "ĠLi": 2369,
      "ised": 2370,
      "Ġweapon": 2371,
      "ĠNyx": 2372,
      "lict": 2373,
      "test": 2374,
      "\"The": 2375,
      "')Ċ": 2376,
      "Ġcrumb": 2377,
      "ĠSong": 2378,
      "ĠSaved": 2379,
      "vered": 2380,
      "Ġtem": 2381,
      "gorith": 2382,
      "gram": 2383,
      "ĠTick": 2384,
      "Ġdeath": 2385,
      "othing": 2386,
      "ems": 2387,
      "ON": 2388,
      "ĠAlaric": 2389,
      "Ġactiv": 2390,
      "Ġsymbol": 2391,
      "ĠHar": 2392,
      "ef": 2393,
      "athe": 2394,
      "pir": 2395,
      "riff": 2396,
      "Ġpain": 2397,
      "Ġnob": 2398,
      "Ġfalls": 2399,
      "Ġbegan": 2400,
      "gth": 2401,
      "Ġwhole": 2402,
      "Ġsiren": 2403,
      "Per": 2404,
      "ĠMemory": 2405,
      "Ġexec": 2406,
      "Ġshort": 2407,
      "Ġgraph": 2408,
      "ĠBetrayal": 2409,
      "Ġsim": 2410,
      "Ġglass": 2411,
      "oud": 2412,
      "Ġwatched": 2413,
      "Ġrecipe": 2414,
      "ific": 2415,
      "Ġsacrifices": 2416,
      "create": 2417,
      "ming": 2418,
      "Ġve": 2419,
      "ify": 2420,
      "Ġmechanis": 2421,
      "ai": 2422,
      "ĠNot": 2423,
      "Elias": 2424,
      "Ġtaken": 2425,
      "the": 2426,
      "echo": 2427,
      "dir": 2428,
      "kered": 2429,
      "Ġdeeper": 2430,
      "Ġinformation": 2431,
      "Ġcopy": 2432,
      "rence": 2433,
      "init": 2434,
      "Ġfew": 2435,
      "Ġtech": 2436,
      "let": 2437,
      "Ġnumbers": 2438,
      "class": 2439,
      "arr": 2440,
      "Ġ_": 2441,
      "Ġjournal": 2442,
      "Ġstructure": 2443,
      "Ġrequi": 2444,
      "ickered": 2445,
      "Ġflickered": 2446,
      "ĠEvelyn": 2447,
      "ĠJul": 2448,
      "not": 2449,
      "Ġclaiming": 2450,
      "Ġexplo": 2451,
      "ĠPro": 2452,
      "ipul": 2453,
      "Ġinstead": 2454,
      "Ġwon": 2455,
      "Ġspoke": 2456,
      "Ġdesperate": 2457,
      "Ġbash": 2458,
      "Ġdreams": 2459,
      "Ġopens": 2460,
      "Ġdefault": 2461,
      "No": 2462,
      "ons": 2463,
      "redict": 2464,
      "Ġtrain": 2465,
      "Ġlangu": 2466,
      "Ġmanipul": 2467,
      "Ġwood": 2468,
      "Ġdefined": 2469,
      "Ġcloser": 2470,
      "sive": 2471,
      "Ġvery": 2472,
      "Ġabove": 2473,
      "Ġmetal": 2474,
      "lection": 2475,
      "Ġalone": 2476,
      "----------------": 2477,
      "Ġfragment": 2478,
      "Ġversion": 2479,
      "Ġthough": 2480,
      "Ġticking": 2481,
      "ommander": 2482,
      "AT": 2483,
      ".\"<|": 2484,
      "yond": 2485,
      "Ġbeyond": 2486,
      "bash": 2487,
      "lect": 2488,
      "fess": 2489,
      "uses": 2490,
      "orridge": 2491,
      "Ġmean": 2492,
      "Ġdirectory": 2493,
      "Ġshop": 2494,
      "Ġalgorith": 2495,
      "Ġcorrect": 2496,
      "ift": 2497,
      "Ġment": 2498,
      "ocument": 2499,
      "Ġhor": 2500,
      "orrow": 2501,
      "Ġstay": 2502,
      "ache": 2503,
      "Ġexpect": 2504,
      "arget": 2505,
      "Ġlegend": 2506,
      "phe": 2507,
      "Ġhumanity": 2508,
      "Look": 2509,
      "ching": 2510,
      "run": 2511,
      "Ġremnants": 2512,
      "hea": 2513,
      "Ġexistence": 2514,
      "ilit": 2515,
      "Ġnet": 2516,
      "Rem": 2517,
      "Ġbecause": 2518,
      "cast": 2519,
      "Ġ.": 2520,
      "essive": 2521,
      "Ġmethod": 2522,
      "=$": 2523,
      "Which": 2524,
      "ts": 2525,
      "Ġvanished": 2526,
      "Ġlocked": 2527,
      "cience": 2528,
      "Ġhour": 2529,
      "right": 2530,
      "Ġoutlaw": 2531,
      "off": 2532,
      "Ġgirl": 2533,
      "Ġunkn": 2534,
      "ital": 2535,
      "ĠPer": 2536,
      "_n": 2537,
      "Ġscience": 2538,
      "Ġrunning": 2539,
      "go": 2540,
      "Ġtower": 2541,
      "``": 2542,
      "Ġiter": 2543,
      "Ġfinally": 2544,
      "Ġmagic": 2545,
      "ĠLys": 2546,
      "Ġprison": 2547,
      "ĠWhat": 2548,
      "Ġmission": 2549,
      "Ġerase": 2550,
      "Ġ\"__": 2551,
      "rig": 2552,
      "Ġboots": 2553,
      "Ġmist": 2554,
      "Ġcreate": 2555,
      "ĠUn": 2556,
      "__\":": 2557,
      "ĠBro": 2558,
      "-b": 2559,
      "Ġmark": 2560,
      "Ġstud": 2561,
      "Ġwindow": 2562,
      "Ġburn": 2563,
      "ency": 2564,
      "Ġclear": 2565,
      "keeper": 2566,
      "rank": 2567,
      "Ġmine": 2568,
      "Ġguardian": 2569,
      "Ġalso": 2570,
      "Ġfeel": 2571,
      "_write": 2572,
      "ĠWatcher": 2573,
      "-s": 2574,
      "hing": 2575,
      "umble": 2576,
      "ĠMarc": 2577,
      "Ġunderground": 2578,
      "Ġsli": 2579,
      "Ġwhose": 2580,
      "bo": 2581,
      "erns": 2582,
      "save": 2583,
      "Ġsol": 2584,
      "Ġcontin": 2585,
      "ses": 2586,
      "Ġident": 2587,
      "Ġskyfish": 2588,
      "look": 2589,
      "aned": 2590,
      "Ġmut": 2591,
      "Ġforcing": 2592,
      "bit": 2593,
      "Ġsho": 2594,
      "Some": 2595,
      "':": 2596,
      "LE": 2597,
      "wf": 2598,
      "ords": 2599,
      "anged": 2600,
      "Ġ\\\"$": 2601,
      "Ġenem": 2602,
      "Ġfaces": 2603,
      "ĠQ": 2604,
      "ix": 2605,
      "Ġfur": 2606,
      "sv": 2607,
      "_document": 2608,
      "ĠList": 2609,
      "ĠEx": 2610,
      "ense": 2611,
      "Ġdestroyed": 2612,
      "ner": 2613,
      "ending": 2614,
      "Ġcast": 2615,
      "Ġsafe": 2616,
      "Ġaction": 2617,
      "Ġthread": 2618,
      "oses": 2619,
      "relict": 2620,
      "ugg": 2621,
      "Ġanything": 2622,
      "Ġspec": 2623,
      "Ġinventor": 2624,
      "lookup": 2625,
      "illi": 2626,
      "adio": 2627,
      "Ġseems": 2628,
      "Ġgrew": 2629,
      "Ġsay": 2630,
      "ized": 2631,
      "ompute": 2632,
      "aked": 2633,
      "gether": 2634,
      "oney": 2635,
      "of": 2636,
      "lood": 2637,
      "Ġescape": 2638,
      "__\":Ċ": 2639,
      "Ġswallow": 2640,
      "_path": 2641,
      "volution": 2642,
      "Ġstatic": 2643,
      "ushed": 2644,
      "ĠKai": 2645,
      "Ġcos": 2646,
      "Ġmid": 2647,
      "Ġetched": 2648,
      "))Ċ": 2649,
      "ĠDe": 2650,
      "ertain": 2651,
      "Ġnoble": 2652,
      "Ġfant": 2653,
      "Ġfantasy": 2654,
      "Ġ/": 2655,
      "Ġshallow": 2656,
      "\\\\": 2657,
      "Ġliving": 2658,
      "Ġcosm": 2659,
      "illiant": 2660,
      "Ġstranger": 2661,
      "ĠSky": 2662,
      "/bash": 2663,
      "anc": 2664,
      "Another": 2665,
      "ception": 2666,
      "Ġsteam": 2667,
      "ĠWe": 2668,
      "iego": 2669,
      "ually": 2670,
      "ĠY": 2671,
      "Ġbelieves": 2672,
      "Remind": 2673,
      "Ġlit": 2674,
      "cThis": 2675,
      "ĠNira": 2676,
      "zz": 2677,
      "Ġdone": 2678,
      "oken": 2679,
      "Ġturning": 2680,
      "\\nHe": 2681,
      "Ġrival": 2682,
      "Ġenough": 2683,
      "adcast": 2684,
      "Ġlanguage": 2685,
      "Ġstir": 2686,
      "va": 2687,
      "Ġoffic": 2688,
      "Ġsurvival": 2689,
      "Ġtun": 2690,
      "ib": 2691,
      "Ġcurious": 2692,
      "=\"": 2693,
      "Ġenemy": 2694,
      "long": 2695,
      "Ġbetrayal": 2696,
      "ĠHour": 2697,
      "Ġchapters": 2698,
      "wers": 2699,
      "Ġsecond": 2700,
      "mem": 2701,
      "Ġaccidentally": 2702,
      "Ġdoesn": 2703,
      "gn": 2704,
      "my": 2705,
      "ends": 2706,
      "_p": 2707,
      "Ġhesitated": 2708,
      "ĠRhea": 2709,
      "Ġglowing": 2710,
      "Ġderelict": 2711,
      "Ġcryptic": 2712,
      "Ġprom": 2713,
      "ĠThen": 2714,
      "Ġcoast": 2715,
      "Ġque": 2716,
      "ffic": 2717,
      "mother": 2718,
      "Ġchanged": 2719,
      "Ġmoving": 2720,
      "Ġseeks": 2721,
      "writ": 2722,
      "El": 2723,
      "Ġchance": 2724,
      "Ġhal": 2725,
      "Ġconfess": 2726,
      "Ġur": 2727,
      "ĠMe": 2728,
      "Ġpri": 2729,
      "Ġsqu": 2730,
      "Ġav": 2731,
      "That": 2732,
      "ĠCrown": 2733,
      "Ġleaves": 2734,
      "ĠPr": 2735,
      "Ġwhy": 2736,
      "ĠLant": 2737,
      "Ġtrap": 2738,
      "Ġstories": 2739,
      "adde": 2740,
      "Ġstumbles": 2741,
      "addeus": 2742,
      "ĠIs": 2743,
      "Ġtravel": 2744,
      "Ġvalues": 2745,
      "Ġdetermined": 2746,
      "]\\": 2747,
      "ĠObs": 2748,
      "ĠObsessive": 2749,
      "Ġsin": 2750,
      "Ġgl": 2751,
      "Ġthief": 2752,
      "Ġrow": 2753,
      "Ġsword": 2754,
      "bel": 2755,
      "Ġhappens": 2756,
      "Ġtook": 2757,
      "_re": 2758,
      "Ġhammer": 2759,
      "ĠMarcus": 2760,
      "ĠWh": 2761,
      "Ġfle": 2762,
      "Ġreco": 2763,
      "Ġevaluate": 2764,
      "Ġsystems": 2765,
      "-d": 2766,
      "ited": 2767,
      "Ġscientist": 2768,
      "Ġple": 2769,
      "aves": 2770,
      "leep": 2771,
      ".append": 2772,
      "heck": 2773,
      "Ġgame": 2774,
      "ĠCommander": 2775,
      "otion": 2776,
      "ained": 2777,
      "Ġtwist": 2778,
      "Ġbelieved": 2779,
      "Ġenv": 2780,
      "Ġwra": 2781,
      "Ġtracks": 2782,
      "ĠCode": 2783,
      "Ġallow": 2784,
      "ists": 2785,
      "Ġwanted": 2786,
      "Ġsearching": 2787,
      "Ġkind": 2788,
      "urt": 2789,
      "Ġce": 2790,
      "Ġstreets": 2791,
      "Ġexpl": 2792,
      "Ġdri": 2793,
      "Ġsett": 2794,
      "Ġseeking": 2795,
      "ĠStorm": 2796,
      "Ġfiction": 2797,
      "ĠElian": 2798,
      "uci": 2799,
      "ullaby": 2800,
      "Ġsorrow": 2801,
      "Ġawak": 2802,
      "por": 2803,
      "Ġbecome": 2804,
      "Ġalgorithm": 2805,
      "Ġmayor": 2806,
      "Ġvisits": 2807,
      "ĠInside": 2808,
      "Ġtrack": 2809,
      "\\nM": 2810,
      "Ġnav": 2811,
      "Ġenfor": 2812,
      "Ġstopped": 2813,
      "[i": 2814,
      "Ġ\\\"\\\"": 2815,
      "Ġ{}}Ċ": 2816,
      "Ġdisappear": 2817,
      ".p": 2818,
      "ield": 2819,
      "orted": 2820,
      "Ġnotes": 2821,
      "Ġdistant": 2822,
      "Ġunknown": 2823,
      "ĠVict": 2824,
      "haps": 2825,
      "Ġahead": 2826,
      "beat": 2827,
      "Ġtogether": 2828,
      "Read": 2829,
      "Ġpounding": 2830,
      "Ġvariable": 2831,
      "fessor": 2832,
      "\\nd": 2833,
      "Ġearth": 2834,
      "ĠDiego": 2835,
      "cWhat": 2836,
      "Ġdecay": 2837,
      "Ġgrav": 2838,
      "Ġz": 2839,
      "Nothing": 2840,
      "alse": 2841,
      "Ġfog": 2842,
      "uries": 2843,
      ".\"\"\"": 2844,
      "Kael": 2845,
      "Ġstrugg": 2846,
      "Ġcenturies": 2847,
      "Ġheartbeat": 2848,
      "Ġconfesses": 2849,
      "ĠMirror": 2850,
      "Ġterri": 2851,
      "cer": 2852,
      "ĠThaddeus": 2853,
      "Ġelements": 2854,
      "ĠTruth": 2855,
      "Ġvision": 2856,
      "ĠGreat": 2857,
      "Ġcareful": 2858,
      "Ġrestore": 2859,
      "Ġsaving": 2860,
      "zen": 2861,
      "bor": 2862,
      "apping": 2863,
      "aly": 2864,
      "Ġconsum": 2865,
      "Ġbelong": 2866,
      "ĠSilent": 2867,
      "seen": 2868,
      "Ġhole": 2869,
      "ĠThat": 2870,
      "ĠDet": 2871,
      "ĠAstra": 2872,
      "ĠKane": 2873,
      "cen": 2874,
      "Ġweb": 2875,
      "Ġexper": 2876,
      "Ġmechanism": 2877,
      "Ġsees": 2878,
      "Ġterrible": 2879,
      "Ġlink": 2880,
      "Ġbridge": 2881,
      "_f": 2882,
      "cenary": 2883,
      "Ġworking": 2884,
      "rin": 2885,
      "bidden": 2886,
      "Ġechoes": 2887,
      "Ġprod": 2888,
      "Ġpaper": 2889,
      "Ġrecogn": 2890,
      "ĠSent": 2891,
      "Ġtells": 2892,
      "ifact": 2893,
      "Ġartifact": 2894,
      "Ġradio": 2895,
      "Ġnames": 2896,
      "Ġcap": 2897,
      "ables": 2898,
      "Ġ``": 2899,
      "Ġcollapse": 2900,
      "ĠLysand": 2901,
      "Ġcoastal": 2902,
      "Ġporridge": 2903,
      "Ġreach": 2904,
      "Ġtry": 2905,
      "aver": 2906,
      "col": 2907,
      "ummar": 2908,
      "Ġsure": 2909,
      "Ġuniverse": 2910,
      "Ġtowns": 2911,
      "RE": 2912,
      "Ġmass": 2913,
      "Ġsand": 2914,
      "ĠNe": 2915,
      "Ġready": 2916,
      "Ġcouldn": 2917,
      "Ġcook": 2918,
      "Ġsymbols": 2919,
      "Ġremote": 2920,
      "ager": 2921,
      "Somewhere": 2922,
      "Ġsister": 2923,
      "Ġsys": 2924,
      "ummarize": 2925,
      "Ġfilter": 2926,
      "graced": 2927,
      "ossible": 2928,
      "ma": 2929,
      "Ġnothing": 2930,
      "udge": 2931,
      "awn": 2932,
      "Ġbrilliant": 2933,
      "Ġabs": 2934,
      "Ġfailed": 2935,
      "Ġmost": 2936,
      "Summarize": 2937,
      "Ġgro": 2938,
      "ustom": 2939,
      "Ġsets": 2940,
      "Ġbuild": 2941,
      "Ġscan": 2942,
      "ued": 2943,
      "lob": 2944,
      "ounded": 2945,
      "oub": 2946,
      "Ġduring": 2947,
      "]}}}Ċ": 2948,
      "Ġsize": 2949,
      "Ġfamily": 2950,
      "ula": 2951,
      "Ġign": 2952,
      "left": 2953,
      "ounc": 2954,
      ">I": 2955,
      "Ġbes": 2956,
      "Ġstri": 2957,
      "ĠBumble": 2958,
      "ĠHarlan": 2959,
      "Ġveil": 2960,
      "Ġghostly": 2961,
      "Ġspl": 2962,
      "just": 2963,
      "spect": 2964,
      "Ġhalf": 2965,
      "Ġfrozen": 2966,
      "Ġmeas": 2967,
      "piracy": 2968,
      "rep": 2969,
      "\\nif": 2970,
      "reate": 2971,
      "Ġpreser": 2972,
      "til": 2973,
      "Ġrusted": 2974,
      "Ġsecretly": 2975,
      "Ġisn": 2976,
      "ĠBe": 2977,
      "Ġproject": 2978,
      "Ġbeside": 2979,
      "Ġrespon": 2980,
      "Ġstack": 2981,
      "Ġopened": 2982,
      "Ġfloor": 2983,
      "First": 2984,
      "Ġlarg": 2985,
      "most": 2986,
      "ĠMechan": 2987,
      ".c": 2988,
      "Ġnetwork": 2989,
      "Ġvi": 2990,
      "ĠProfessor": 2991,
      "Ġgang": 2992,
      "Ġsteals": 2993,
      "mission": 2994,
      "sy": 2995,
      "Ġsince": 2996,
      "Ġ\"*\"}}Ċ": 2997,
      "Ġcontaining": 2998,
      "Ġcompos": 2999,
      "ĠMyst": 3000,
      "Ġgreater": 3001,
      "Ġbal": 3002,
      "ogurt": 3003,
      "ĠPudd": 3004,
      "Ġdeal": 3005,
      "Ġbox": 3006,
      "Ġidentity": 3007,
      "ĠShadows": 3008,
      "AR": 3009,
      "ceed": 3010,
      "Find": 3011,
      "ĠForgotten": 3012,
      "ĠPercy": 3013,
      "istent": 3014,
      "ances": 3015,
      "quest": 3016,
      "Ġfurther": 3017,
      "ouncil": 3018,
      "ĠVance": 3019,
      "Ġdig": 3020,
      "ĠMabel": 3021,
      "Ġuns": 3022,
      "ĠFin": 3023,
      "Ġdisgraced": 3024,
      "\"ĊĊ": 3025,
      "Ġmentor": 3026,
      "Ġmurder": 3027,
      "')": 3028,
      "Ġfield": 3029,
      "Ġlanterns": 3030,
      "ST": 3031,
      "Ġsimple": 3032,
      "Ġhint": 3033,
      "Ġshattered": 3034,
      "hip": 3035,
      "Ġjo": 3036,
      "Ġwants": 3037,
      "nswer": 3038,
      "Ġjob": 3039,
      "Ġnavig": 3040,
      "\\ndef": 3041,
      "Ġblue": 3042,
      "elling": 3043,
      "Ġpredict": 3044,
      "Ġdiscover": 3045,
      "Add": 3046,
      "Ġbones": 3047,
      "Ġlive": 3048,
      "Ġvisions": 3049,
      "ination": 3050,
      "Ġendless": 3051,
      "do": 3052,
      "ĠLysandra": 3053,
      "?âĢĿ": 3054,
      "iar": 3055,
      "ilitary": 3056,
      "Ġrequired": 3057,
      "Ġfo": 3058,
      "Ġmuch": 3059,
      "quence": 3060,
      "tra": 3061,
      "Ġmeet": 3062,
      "Ġfloating": 3063,
      "more": 3064,
      "umber": 3065,
      "Ġgrandmother": 3066,
      "ynical": 3067,
      "ye": 3068,
      "ĠMiss": 3069,
      "Ġremembered": 3070,
      "Ġblood": 3071,
      "ule": 3072,
      "Ġremains": 3073,
      "Ġestr": 3074,
      "Ġestranged": 3075,
      "arek": 3076,
      "Ġentire": 3077,
      "cean": 3078,
      "Ġtold": 3079,
      "Ġske": 3080,
      "Ġenviron": 3081,
      "root": 3082,
      "Ġcoat": 3083,
      "ĠMoon": 3084,
      "Ġprogram": 3085,
      "Ġruled": 3086,
      "rid": 3087,
      "ĠNote": 3088,
      "lines": 3089,
      "Ġtrail": 3090,
      "Ġsuspect": 3091,
      "Ġ[[": 3092,
      "mp": 3093,
      "Ġawaken": 3094,
      "inary": 3095,
      "\"]}}}Ċ": 3096,
      ".\"}},": 3097,
      ".\"}},\"": 3098,
      "ellion": 3099,
      "'re": 3100,
      "Ġchooses": 3101,
      "Ġrebel": 3102,
      "fficient": 3103,
      "Ġvict": 3104,
      "Ġlover": 3105,
      "Ġtakes": 3106,
      "Ġsheriff": 3107,
      "iber": 3108,
      ".txt": 3109,
      "Ġmultiple": 3110,
      "Ġcycle": 3111,
      "Ġrecur": 3112,
      "raith": 3113,
      "ĠTal": 3114,
      "Usage": 3115,
      "Ġhollow": 3116,
      "_sort": 3117,
      "Ġago": 3118,
      "Ġanom": 3119,
      "(arr": 3120,
      "Ġfaded": 3121,
      "ĠZara": 3122,
      "Ġshifting": 3123,
      "apes": 3124,
      "Ġph": 3125,
      "night": 3126,
      "Ġvast": 3127,
      "Ġrevolution": 3128,
      "some": 3129,
      "Ġrose": 3130,
      "Yes": 3131,
      "Ġbrother": 3132,
      "Ġ%": 3133,
      "Ġknowing": 3134,
      "ĠBlack": 3135,
      "OR": 3136,
      "ĠĊ": 3137,
      "Ġdiv": 3138,
      "raw": 3139,
      "Ġretired": 3140,
      "Ġarithmetic": 3141,
      "Ġchanges": 3142,
      "Ġtightened": 3143,
      "vant": 3144,
      "Ġrecords": 3145,
      "Ġclut": 3146,
      "Ġentity": 3147,
      "Ġtorn": 3148,
      "ada": 3149,
      "UT": 3150,
      "Ġoption": 3151,
      "-cent": 3152,
      "Ar": 3153,
      "cBut": 3154,
      "Ġincl": 3155,
      "Ġcarried": 3156,
      "-century": 3157,
      "Ġawakens": 3158,
      "Ġwater": 3159,
      "Ġreality": 3160,
      "Ġdeb": 3161,
      "Ġ\"\"\"Ċ": 3162,
      "âĢĻre": 3163,
      "Ġthings": 3164,
      "mith": 3165,
      "acity": 3166,
      ".\"\"\"Ċ": 3167,
      "Ġboy": 3168,
      "arian": 3169,
      "Ġhack": 3170,
      "Ġfax": 3171,
      "Ġhelps": 3172,
      "orath": 3173,
      "ĠStr": 3174,
      "Ġunrave": 3175,
      "Ġaddition": 3176,
      "acksmith": 3177,
      "ĠQue": 3178,
      "Ġalmost": 3179,
      "Ġmor": 3180,
      "Ġcommun": 3181,
      "Ġdiction": 3182,
      "\\nL": 3183,
      "natural": 3184,
      "ĠLantern": 3185,
      "Ġbetter": 3186,
      "En": 3187,
      "olog": 3188,
      "Ġgrudge": 3189,
      "Ġrefuses": 3190,
      "Ġocean": 3191,
      "Ġchill": 3192,
      "ĠPrice": 3193,
      "Ġbegun": 3194,
      "answer": 3195,
      "olde": 3196,
      "Ġuntil": 3197,
      "Ġgot": 3198,
      "bot": 3199,
      "Ġaccess": 3200,
      "iddle": 3201,
      "Ġpages": 3202,
      "Ġbalance": 3203,
      "ĠStar": 3204,
      "ĠDream": 3205,
      "Ġraise": 3206,
      "ĠTHE": 3207,
      "Ġenvironment": 3208,
      "Ġspread": 3209,
      "ĠHidden": 3210,
      "ics": 3211,
      "Ġtable": 3212,
      "Ġbrass": 3213,
      "ĠGra": 3214,
      "Ġgas": 3215,
      ".n": 3216,
      "_m": 3217,
      "vern": 3218,
      "Ġduel": 3219,
      "Ġlullaby": 3220,
      "End": 3221,
      "Ġsuch": 3222,
      "iter": 3223,
      "'ll": 3224,
      "ucien": 3225,
      "ync": 3226,
      "Ġcaptured": 3227,
      "ĠAt": 3228,
      "ĠReturn": 3229,
      "ified": 3230,
      "Ġwalked": 3231,
      "Ġedges": 3232,
      "Ġforbidden": 3233,
      "ighbor": 3234,
      "woman": 3235,
      "Ġlou": 3236,
      "Ġhistorian": 3237,
      "ares": 3238,
      "Ġriver": 3239,
      "Ġlouder": 3240,
      "Ġcrumbling": 3241,
      "Ġpocket": 3242,
      "curity": 3243,
      "ats": 3244,
      "Ġusage": 3245,
      "orts": 3246,
      "Ġclean": 3247,
      "ĠLord": 3248,
      "fs": 3249,
      "ĠIsolde": 3250,
      "Ġfollows": 3251,
      "Ġstreet": 3252,
      "Ġcatch": 3253,
      "Ġsuspic": 3254,
      "Ġmen": 3255,
      "arrow": 3256,
      "Ġbelieve": 3257,
      "erges": 3258,
      "ety": 3259,
      "Ġexh": 3260,
      "Ġtarget": 3261,
      "Ġshim": 3262,
      "Ġsleep": 3263,
      "ullet": 3264,
      "If": 3265,
      "glass": 3266,
      "ecause": 3267,
      "Ġpiece": 3268,
      "Ġunravel": 3269,
      "Ġmatches": 3270,
      "Ġtied": 3271,
      "Ġsouls": 3272,
      "orator": 3273,
      "Ġcat": 3274,
      "Ġdr": 3275,
      "Ġling": 3276,
      "Ġcenter": 3277,
      "command": 3278,
      "ushing": 3279,
      "-de": 3280,
      "uction": 3281,
      "covered": 3282,
      "ĠQueen": 3283,
      "Ġfell": 3284,
      "ĠEarth": 3285,
      "ĠHeist": 3286,
      "Ġshell": 3287,
      "Ġfly": 3288,
      "itation": 3289,
      "Ġprecision": 3290,
      "ping": 3291,
      "allen": 3292,
      "ason": 3293,
      "Ġalong": 3294,
      "Ġscream": 3295,
      "Ġcosmic": 3296,
      "Ġswallowed": 3297,
      "ley": 3298,
      "ife": 3299,
      "Ġagend": 3300,
      "Ġsoldier": 3301,
      "Ġsquare": 3302,
      "Ġattic": 3303,
      "Ġconfid": 3304,
      "empt": 3305,
      "Ġprints": 3306,
      "ĠThere": 3307,
      "Ġfractured": 3308,
      "ung": 3309,
      "cWe": 3310,
      "Ġoracle": 3311,
      ").": 3312,
      "Ġnarrow": 3313,
      "rip": 3314,
      "Ġcontent": 3315,
      "Ġagenda": 3316,
      "Ġlength": 3317,
      "Ġ+=": 3318,
      "andom": 3319,
      "ĠOracle": 3320,
      "Ġvalid": 3321,
      "In": 3322,
      "Ġsealed": 3323,
      "ĠSeraph": 3324,
      "place": 3325,
      "Ġmercenary": 3326,
      "aracter": 3327,
      "ĠLucien": 3328,
      "case": 3329,
      "[j": 3330,
      "Run": 3331,
      "eds": 3332,
      "ishes": 3333,
      "Ġindex": 3334,
      "Ġdoc": 3335,
      "emo": 3336,
      "Ġgrowing": 3337,
      "but": 3338,
      "rees": 3339,
      "len": 3340,
      "Ġgift": 3341,
      "ĠCross": 3342,
      "Ġdesc": 3343,
      "ement": 3344,
      "Ġadm": 3345,
      "using": 3346,
      "ĠMysterious": 3347,
      "Ġintern": 3348,
      "Ġcalm": 3349,
      "Ġwaves": 3350,
      "Ġchallen": 3351,
      "Ġbar": 3352,
      "uit": 3353,
      "Ġdat": 3354,
      "Ġclue": 3355,
      "Ġechoing": 3356,
      "fu": 3357,
      "Ġgive": 3358,
      "Ġlisten": 3359,
      "Ġgods": 3360,
      "Ġunseen": 3361,
      "Ġjourney": 3362,
      "nly": 3363,
      "ĠRaul": 3364,
      "ills": 3365,
      "onstr": 3366,
      "ĠHale": 3367,
      "Ġhigh": 3368,
      "riel": 3369,
      "abriel": 3370,
      "Ġcontains": 3371,
      "Ġdeliber": 3372,
      "spector": 3373,
      "Substring": 3374,
      "ĠWind": 3375,
      "phecy": 3376,
      "onf": 3377,
      "filtr": 3378,
      "Ġinfiltr": 3379,
      "ĠStranger": 3380,
      "olm": 3381,
      "Ġmassive": 3382,
      "alcolm": 3383,
      "Ġimple": 3384,
      "ĠLe": 3385,
      "Ġ]]": 3386,
      "nection": 3387,
      "Ġev": 3388,
      "solve": 3389,
      "bed": 3390,
      "Ġcond": 3391,
      "fix": 3392,
      "_st": 3393,
      "ades": 3394,
      "rency": 3395,
      "with": 3396,
      "imes": 3397,
      "Ġcrow": 3398,
      "Ġoutside": 3399,
      "Ġinvestigates": 3400,
      "itch": 3401,
      "ĠElric": 3402,
      "ended": 3403,
      "Ġpeace": 3404,
      "Ġstared": 3405,
      "Ġmanipulating": 3406,
      "Ġruns": 3407,
      "Ġcracked": 3408,
      "uched": 3409,
      "ities": 3410,
      "gic": 3411,
      "Ġletter": 3412,
      "Ġdifference": 3413,
      "Ġtwisted": 3414,
      "Ġ!": 3415,
      "Ġsecurity": 3416,
      "Ġtragic": 3417,
      "Ġfreed": 3418,
      "time": 3419,
      "zy": 3420,
      "Ġexpected": 3421,
      "Ġavoid": 3422,
      "version": 3423,
      "ĠSomething": 3424,
      "Ġemb": 3425,
      "ral": 3426,
      "ĠFrank": 3427,
      "Ġcorrupted": 3428,
      "ĠJaxon": 3429,
      "))": 3430,
      "Ġheist": 3431,
      "Ġcasting": 3432,
      "Ġentry": 3433,
      "aut": 3434,
      "FS": 3435,
      "usion": 3436,
      "Ġprev": 3437,
      "SON": 3438,
      "Ġdays": 3439,
      "Ġrole": 3440,
      "Ġsnack": 3441,
      "Ġtechn": 3442,
      "ench": 3443,
      "Ġsteamp": 3444,
      "calculator": 3445,
      "Ġsteampunk": 3446,
      "lot": 3447,
      "Ġrequire": 3448,
      "Ġmurm": 3449,
      "oring": 3450,
      "Ġbase": 3451,
      "FI": 3452,
      "Ġcover": 3453,
      "Ġclose": 3454,
      "Ġcharacter": 3455,
      "]:Ċ": 3456,
      "process": 3457,
      "Ġattempt": 3458,
      "Ġnotices": 3459,
      "()\\": 3460,
      "Perhaps": 3461,
      "Ġcour": 3462,
      "Ġ];": 3463,
      "lies": 3464,
      "_search": 3465,
      "Ġplayers": 3466,
      "down": 3467,
      "ĠIron": 3468,
      "App": 3469,
      "Ġinf": 3470,
      "Ġ'__": 3471,
      "ideon": 3472,
      "Ġcomplete": 3473,
      "Ġcounter": 3474,
      "ĠGam": 3475,
      "!<|": 3476,
      "calc": 3477,
      "ton": 3478,
      "Ġide": 3479,
      "ĠMissing": 3480,
      "='": 3481,
      "ĠLo": 3482,
      "Ġground": 3483,
      "Ġerased": 3484,
      "ĠVeyra": 3485,
      "_to": 3486,
      "Ġreturned": 3487,
      "Ġdesign": 3488,
      "ĠJulian": 3489,
      "Ġcontrols": 3490,
      "arn": 3491,
      "uly": 3492,
      "_expr": 3493,
      "something": 3494,
      "uff": 3495,
      "aches": 3496,
      "ĠNex": 3497,
      "Ġcut": 3498,
      "Ġflicker": 3499,
      "Ġcrowd": 3500,
      "_calc": 3501,
      "ora": 3502,
      "Ġtale": 3503,
      "Ġmerge": 3504,
      "ĠGabriel": 3505,
      "When": 3506,
      "Ġinvol": 3507,
      "usr": 3508,
      "Ġdeliberate": 3509,
      "Ġcertain": 3510,
      "enara": 3511,
      "lf": 3512,
      "ĠVire": 3513,
      "Ġregime": 3514,
      "ĠInspector": 3515,
      "Ġpost": 3516,
      "atic": 3517,
      "Ġbub": 3518,
      "Ġtruly": 3519,
      "Ġvanish": 3520,
      "Ġcurrency": 3521,
      "Ġfinish": 3522,
      "ĠLumpy": 3523,
      "Ġelement": 3524,
      "Ġloom": 3525,
      "Ġconfir": 3526,
      "zx": 3527,
      "assian": 3528,
      "rieve": 3529,
      "Create": 3530,
      "asper": 3531,
      "-dead": 3532,
      "St": 3533,
      "agra": 3534,
      ".*": 3535,
      "/bin": 3536,
      "pth": 3537,
      "Ġloss": 3538,
      "Because": 3539,
      "Ġhears": 3540,
      "ĠNova": 3541,
      "Ġeveryone": 3542,
      "cAnd": 3543,
      "sie": 3544,
      "_arithmetic": 3545,
      "play": 3546,
      "Ġfalling": 3547,
      "ected": 3548,
      "Ġsequence": 3549,
      "Ġboard": 3550,
      "ĠElsie": 3551,
      "Ġcreated": 3552,
      "Ġapart": 3553,
      "Ġcustom": 3554,
      "Ġcyber": 3555,
      "onac": 3556,
      "onacci": 3557,
      "__'": 3558,
      "Ġrestored": 3559,
      "ĠFall": 3560,
      "Ġexch": 3561,
      "ancel": 3562,
      "Ġcache": 3563,
      "Ġcorrid": 3564,
      "struction": 3565,
      "uctant": 3566,
      "Ġreluctant": 3567,
      "Give": 3568,
      "ker": 3569,
      "Ġworked": 3570,
      "array": 3571,
      "Ġmeasured": 3572,
      "ches": 3573,
      "filter": 3574,
      "ĠTomas": 3575,
      "Ġdem": 3576,
      "odies": 3577,
      "_compute": 3578,
      "xq": 3579,
      "Ġhorror": 3580,
      "Ġprophecy": 3581,
      "Ġanyone": 3582,
      "ancelot": 3583,
      "Ġknight": 3584,
      "Ġgovern": 3585,
      "irc": 3586,
      "Ġyogurt": 3587,
      "Ġwhispering": 3588,
      "Ġ\\\"\\\"\\\"": 3589,
      "iver": 3590,
      "Ġanswers": 3591,
      "Ġmorning": 3592,
      "raft": 3593,
      "ila": 3594,
      "Ġowner": 3595,
      "hel": 3596,
      ".\"Ċ": 3597,
      "Ġlibrarian": 3598,
      "Ġcorpor": 3599,
      "Ġhoney": 3600,
      "Ġflow": 3601,
      "Ġmis": 3602,
      "Cont": 3603,
      "Ġtides": 3604,
      "fn": 3605,
      "Ġink": 3606,
      "count": 3607,
      "Ġofficer": 3608,
      "ĠRival": 3609,
      "ĠRock": 3610,
      "ament": 3611,
      "Ġhung": 3612,
      "Ġspark": 3613,
      "Arithmetic": 3614,
      "evaluate": 3615,
      "ĠWraith": 3616,
      "Ġtalking": 3617,
      "rain": 3618,
      "Ġstanding": 3619,
      "Ġanomaly": 3620,
      "ĠVe": 3621,
      "Ġracing": 3622,
      "Ġfamiliar": 3623,
      "ondon": 3624,
      "und": 3625,
      "ither": 3626,
      "compute": 3627,
      "pite": 3628,
      "Ġinfiltrates": 3629,
      "Ġbubble": 3630,
      "Ġobs": 3631,
      "ĠThal": 3632,
      "Ġage": 3633,
      "field": 3634,
      "Ġdictionary": 3635,
      "():Ċ": 3636,
      "code": 3637,
      "ĠElenara": 3638,
      "Ġwarnings": 3639,
      "Elara": 3640,
      "Ġrecord": 3641,
      "ĠLondon": 3642,
      "people": 3643,
      "Ġshifted": 3644,
      "])Ċ": 3645,
      "arith": 3646,
      "ĠMarg": 3647,
      "Ġsongs": 3648,
      "ĠSy": 3649,
      "Ġprevent": 3650,
      "ooth": 3651,
      "Ġitems": 3652,
      "calculation": 3653,
      "Ġevent": 3654,
      "ĠTicking": 3655,
      "Ġbaker": 3656,
      "Ġexhaled": 3657,
      "Ġarchive": 3658,
      "Ġterm": 3659,
      "Ġshudd": 3660,
      "Ġtunn": 3661,
      "ĠGideon": 3662,
      "Ġconsole": 3663,
      "ĠEira": 3664,
      "iom": 3665,
      "Append": 3666,
      "ises": 3667,
      "Ġpulsing": 3668,
      "Ġrepair": 3669,
      "Ġexperim": 3670,
      "punk": 3671,
      "Ġbroadcast": 3672,
      "ĠLiam": 3673,
      "ocal": 3674,
      "Ġfort": 3675,
      "Ġsail": 3676,
      "ped": 3677,
      "ignal": 3678,
      "Ġshook": 3679,
      "Ġreverse": 3680,
      "Ġabb": 3681,
      "enumerate": 3682,
      "Ġfragmented": 3683,
      "Ġsoci": 3684,
      "Ġrise": 3685,
      "Ġcookies": 3686,
      "Ġour": 3687,
      "xiom": 3688,
      "Ġtrait": 3689,
      "ĠLancelot": 3690,
      "Ġbind": 3691,
      "Ġrewrit": 3692,
      "Ġfrequ": 3693,
      "Ġnavigate": 3694,
      "state": 3695,
      "Ġescapes": 3696,
      "Ġobser": 3697,
      "ĠCynical": 3698,
      "ĠJSON": 3699,
      "Ġmilitary": 3700,
      "Ġcomes": 3701,
      "like": 3702,
      "Ġperf": 3703,
      "Ġclosing": 3704,
      "Ġproble": 3705,
      "cli": 3706,
      "ĠAll": 3707,
      "Ġcyberpunk": 3708,
      "Ġcorn": 3709,
      "first": 3710,
      "ĠWho": 3711,
      "Ġhero": 3712,
      "Ġpainting": 3713,
      "Ġrace": 3714,
      "Ġformat": 3715,
      "TE": 3716,
      "Ġblock": 3717,
      "formula": 3718,
      "graph": 3719,
      "lied": 3720,
      "Ġolder": 3721,
      "Ġver": 3722,
      "ĠCassian": 3723,
      "etch": 3724,
      "_line": 3725,
      "iant": 3726,
      "Ġproceed": 3727,
      "Ġrepe": 3728,
      "Ġslipped": 3729,
      "Ġwave": 3730,
      "ĠTommy": 3731,
      "Ġfears": 3732,
      "Ġmaybe": 3733,
      "/env": 3734,
      "Ġqueue": 3735,
      "Ġroot": 3736,
      "fo": 3737,
      "Ġblur": 3738,
      "Ġgrave": 3739,
      "ĠSo": 3740,
      "Ġproper": 3741,
      "ĠSignal": 3742,
      "enn": 3743,
      "ases": 3744,
      "ĠGr": 3745,
      "Ġoc": 3746,
      "imit": 3747,
      "ndor": 3748,
      "lyndor": 3749,
      "idow": 3750,
      "Ġrece": 3751,
      "ĠSera": 3752,
      "Ġla": 3753,
      "\":\"*\"}}Ċ": 3754,
      "exit": 3755,
      "Ġslowly": 3756,
      "Ġfab": 3757,
      "Ġhandle": 3758,
      "Ġperfect": 3759,
      "Ġlined": 3760,
      "Ġletters": 3761,
      "_listing": 3762,
      "very": 3763,
      "ames": 3764,
      "_expression": 3765,
      "osed": 3766,
      "Ġfabric": 3767,
      ":',": 3768,
      "Ġconnection": 3769,
      "ĠâĢĵ": 3770,
      "icate": 3771,
      "Ġblueprint": 3772,
      "Ġimplement": 3773,
      "ĠSave": 3774,
      "Ġmoves": 3775,
      "Ġemer": 3776,
      "ĠVeylan": 3777,
      "Ġchasing": 3778,
      "Ġ]];": 3779,
      "Ġstudied": 3780,
      "ormal": 3781,
      "Ġerasing": 3782,
      "ĠWatch": 3783,
      "Ġneural": 3784,
      "ably": 3785,
      "Ġwars": 3786,
      "ior": 3787,
      "Ġplanned": 3788,
      "ĊĊĊ": 3789,
      "Ġyear": 3790,
      "match": 3791,
      "Ġimag": 3792,
      "Ġestate": 3793,
      "Ġunraveling": 3794,
      "Ġpaint": 3795,
      "}\\": 3796,
      "Not": 3797,
      "Ġmax": 3798,
      "Ġstones": 3799,
      "ĠOne": 3800,
      "lete": 3801,
      "Ġdarkened": 3802,
      "Ġraced": 3803,
      "Ġvisited": 3804,
      "ID": 3805,
      "Ġnon": 3806,
      "][": 3807,
      "Ġagrees": 3808,
      "Ġshut": 3809,
      "Ġwide": 3810,
      "Ġcult": 3811,
      "Ġrevealed": 3812,
      "Ġhacker": 3813,
      "Ġ./": 3814,
      "Ġhash": 3815,
      "Ġstrong": 3816,
      "Ġmanager": 3817,
      "dered": 3818,
      "Ġspirits": 3819,
      "Ġruler": 3820,
      "Ġabbey": 3821,
      "oning": 3822,
      "Ġmakes": 3823,
      "-p": 3824,
      "Where": 3825,
      "Ġdep": 3826,
      ".s": 3827,
      "File": 3828,
      "Ġeer": 3829,
      "Ġspoken": 3830,
      "ĠZorath": 3831,
      "Ġinternal": 3832,
      "Ġforces": 3833,
      "ular": 3834,
      "Ġbur": 3835,
      "rival": 3836,
      "ĠArrival": 3837,
      "glob": 3838,
      "ĠMalcolm": 3839,
      "exec": 3840,
      "ily": 3841,
      "Ġcalls": 3842,
      "ĠUsage": 3843,
      "Ġheap": 3844,
      "ĠNoa": 3845,
      "Ġdefines": 3846,
      "Ġblade": 3847,
      "mit": 3848,
      "Ġfinding": 3849,
      "Ġrisk": 3850,
      "ĠJasper": 3851,
      "ĠThorn": 3852,
      "ĠBroken": 3853,
      "items": 3854,
      "ĠSal": 3855,
      "Ġcop": 3856,
      "Ġimpossible": 3857,
      "sted": 3858,
      "nProtagonist": 3859,
      "\\nPremise": 3860,
      "\\nGenre": 3861,
      "Ġwarn": 3862,
      "Ġsigns": 3863,
      "ponent": 3864,
      "Ġrebu": 3865,
      "Ġmagical": 3866,
      "Ġlaw": 3867,
      "Ġgoing": 3868,
      "Ġcause": 3869,
      "Ġheavier": 3870,
      "Ġtraced": 3871,
      "Ġcontinue": 3872,
      ".next": 3873,
      "Ġrandom": 3874,
      "ana": 3875,
      "FILE": 3876,
      "Ġfallen": 3877,
      "Ġsilver": 3878,
      "Ġdespite": 3879,
      "iew": 3880,
      "ilds": 3881,
      "uard": 3882,
      "Ġcreation": 3883,
      "Ġridd": 3884,
      "Ġemerged": 3885,
      "angers": 3886,
      "Ġwell": 3887,
      "cThen": 3888,
      "Ġpaths": 3889,
      "Ġcomplex": 3890,
      "Ġcannot": 3891,
      "Ġnoblewoman": 3892,
      "Contin": 3893,
      "Ġwee": 3894,
      "Ġdepth": 3895,
      "output": 3896,
      "=\"$": 3897,
      "Ex": 3898,
      "Ġpowerful": 3899,
      "Ġfast": 3900,
      "argv": 3901,
      "ĠKaelira": 3902,
      "Ġears": 3903,
      "\\nSetting": 3904,
      "\\nChapters": 3905,
      "Ġpresent": 3906,
      "agers": 3907,
      "Ġfailure": 3908,
      "rying": 3909,
      "Ġfoot": 3910,
      "MP": 3911,
      "Ġfactory": 3912,
      "Ġriddles": 3913,
      "ĠCo": 3914,
      "ATH": 3915,
      "Ġtop": 3916,
      "Ġfair": 3917,
      "Ġstream": 3918,
      "izes": 3919,
      "Ġunderstanding": 3920,
      "ĠOrin": 3921,
      "Ġvariables": 3922,
      "Ġpan": 3923,
      "Ġadjust": 3924,
      "Ġdusty": 3925,
      "Ġsmoke": 3926,
      "Ġsociety": 3927,
      "Ġkept": 3928,
      "Ġvictim": 3929,
      "Qu": 3930,
      "...": 3931,
      "Ġadmits": 3932,
      "peror": 3933,
      "Se": 3934,
      "ĠFl": 3935,
      "_dir": 3936,
      "ĠGambit": 3937,
      "Ġsmooth": 3938,
      "aring": 3939,
      "Ġstirred": 3940,
      "che": 3941,
      "Ġdict": 3942,
      "ĠZy": 3943,
      "Ġtree": 3944,
      "}\")Ċ": 3945,
      "ĠDetective": 3946,
      "Ġsetting": 3947,
      "Ġrespond": 3948,
      "Ġskept": 3949,
      "They": 3950,
      "Ġexact": 3951,
      "Ġbees": 3952,
      "eline": 3953,
      "Ġleaned": 3954,
      "Ġcele": 3955,
      "itational": 3956,
      "rial": 3957,
      "Ġdoing": 3958,
      "asc": 3959,
      "Ġthoughts": 3960,
      "edy": 3961,
      "oded": 3962,
      "ĠCity": 3963,
      "ler": 3964,
      "Tr": 3965,
      "Ġrom": 3966,
      "ĠElyndor": 3967,
      "Ġghosts": 3968,
      "Ġromance": 3969,
      "Ġattack": 3970,
      "Ġaf": 3971,
      "Ġsum": 3972,
      "Ġencoun": 3973,
      "ĠEach": 3974,
      "valid": 3975,
      "Ġreset": 3976,
      "IT": 3977,
      "memory": 3978,
      "ĠAxiom": 3979,
      "elix": 3980,
      "Ġbring": 3981,
      "ĠMorn": 3982,
      "ĠTrue": 3983,
      "rinth": 3984,
      "Ġsuper": 3985,
      "abyrinth": 3986,
      "Ġconst": 3987,
      "Ġtype": 3988,
      "inked": 3989,
      "Ġcarrying": 3990,
      "ĠMarlow": 3991,
      "ship": 3992,
      "(\\": 3993,
      "ieces": 3994,
      "ĠVane": 3995,
      "Ġdemanding": 3996,
      "Ġspeaking": 3997,
      "gers": 3998,
      "ME": 3999,
      "Ġresults": 4000,
      "Ġpromise": 4001,
      "onas": 4002,
      "Ġunit": 4003,
      "Ġbrushing": 4004,
      "Ġdigital": 4005,
      "gged": 4006,
      "Ġpassed": 4007,
      "Ġfloat": 4008,
      "Ġarrived": 4009,
      "mering": 4010,
      "Ġwarned": 4011,
      "Ġoverwrite": 4012,
      "Ġvanishes": 4013,
      "Ġeye": 4014,
      "Ġtrees": 4015,
      "Ġharm": 4016,
      "_in": 4017,
      "athered": 4018,
      "ĠOff": 4019,
      "Ġexplain": 4020,
      "owered": 4021,
      "tom": 4022,
      "=$(": 4023,
      "Ġpounded": 4024,
      "Ġexchange": 4025,
      "reck": 4026,
      "Ġgravitational": 4027,
      "la": 4028,
      "Ġlives": 4029,
      "ĠJada": 4030,
      "Ġworth": 4031,
      "ĠKira": 4032,
      "dden": 4033,
      "Ġsudden": 4034,
      "ately": 4035,
      "alue": 4036,
      "Ġspecific": 4037,
      "Ġthrone": 4038,
      "Ġconsistent": 4039,
      "Ġhired": 4040,
      "Ġasking": 4041,
      "renched": 4042,
      "use": 4043,
      "Ġscanning": 4044,
      "ĠSol": 4045,
      "ĠGuard": 4046,
      "osit": 4047,
      "Ġthrill": 4048,
      "Ġshadowy": 4049,
      "Ġfading": 4050,
      "cessary": 4051,
      "Ġreason": 4052,
      "Ġcurled": 4053,
      "Ġoccur": 4054,
      "Ġpi": 4055,
      "Ġshift": 4056,
      "Ġshape": 4057,
      "Go": 4058,
      "Ġexperiment": 4059,
      "band": 4060,
      "Ġfade": 4061,
      "ox": 4062,
      "ĠCouncil": 4063,
      "ĠSeraphina": 4064,
      "box": 4065,
      "Ġally": 4066,
      "iance": 4067,
      "Ġhadn": 4068,
      "Ġguards": 4069,
      "Ġdetail": 4070,
      "escent": 4071,
      "date": 4072,
      "Ġhappened": 4073,
      "Ġsettled": 4074,
      "âĢĶit": 4075,
      "ĠAm": 4076,
      ".g": 4077,
      "Ġreel": 4078,
      "Ġnatural": 4079,
      "Ġmaster": 4080,
      "Ġlists": 4081,
      "Ġvend": 4082,
      "ĠDawn": 4083,
      "Ġargument": 4084,
      "izon": 4085,
      "Ġerrors": 4086,
      "Ġopera": 4087,
      "])": 4088,
      "Ġthreatens": 4089,
      "Ġsuit": 4090,
      "Ġaccur": 4091,
      "Ġdistance": 4092,
      "Ġlogic": 4093,
      "Ġreclaim": 4094,
      "Ġcollection": 4095,
      "cA": 4096,
      "ude": 4097,
      "ĠUse": 4098,
      "Ġpull": 4099,
      "Ġinvestigate": 4100,
      "var": 4101,
      "Ġequ": 4102,
      "Ġdangers": 4103,
      "Ġcozy": 4104,
      "-ap": 4105,
      "yptic": 4106,
      "ocalyptic": 4107,
      "-apocalyptic": 4108,
      "Ġstrings": 4109,
      "Ġexecute": 4110,
      "Ġrain": 4111,
      "ĠGuardian": 4112,
      "resh": 4113,
      "(data": 4114,
      ".add": 4115,
      "ĠEos": 4116,
      "Ġcomic": 4117,
      "Ġvillagers": 4118,
      "inel": 4119,
      "Ġfaintly": 4120,
      "ĠEng": 4121,
      "Ġheal": 4122,
      "ĠJonas": 4123,
      "substring": 4124,
      "Ġmarket": 4125,
      "Ġfeeling": 4126,
      "readable": 4127,
      "ND": 4128,
      "__\\": 4129,
      "Ġidea": 4130,
      "AL": 4131,
      "Ġdoub": 4132,
      "ĠGhosts": 4133,
      "Ġgroaned": 4134,
      "astel": 4135,
      "Ġlogging": 4136,
      "-drenched": 4137,
      "Ġremained": 4138,
      "ashed": 4139,
      "Ġcalculation": 4140,
      "(\\\"": 4141,
      "ĠStatic": 4142,
      "pple": 4143,
      "Ġbard": 4144,
      "Ġwound": 4145,
      "Ġconspiracy": 4146,
      "lication": 4147,
      "Ġdisappears": 4148,
      "Ġexcept": 4149,
      "wh": 4150,
      "Ġrewrite": 4151,
      "ĠLight": 4152,
      "Ġear": 4153,
      "ilon": 4154,
      "Ġburned": 4155,
      "Ġpale": 4156,
      "__':Ċ": 4157,
      "Ġwife": 4158,
      "ĠDescent": 4159,
      "Ġswe": 4160,
      "Ġencounters": 4161,
      "psilon": 4162,
      "Ġbackward": 4163,
      "ability": 4164,
      "Ġbest": 4165,
      "Ġdemands": 4166,
      "Ġdecides": 4167,
      "}\"": 4168,
      "rowned": 4169,
      "Ġspaces": 4170,
      "Ġepic": 4171,
      "Ġquestions": 4172,
      "Ġbetray": 4173,
      "Ġfr": 4174,
      "Ġapproached": 4175,
      "Ġcreature": 4176,
      "Ġplease": 4177,
      "Ġfragments": 4178,
      "Ġdro": 4179,
      "Ġreson": 4180,
      "Ġmodify": 4181,
      "Ġlies": 4182,
      "Ġ\"-": 4183,
      "ĠFelix": 4184,
      "Ġunf": 4185,
      "ĠMargot": 4186,
      "ĠBook": 4187,
      "ĠFractured": 4188,
      "Ġbeaut": 4189,
      "Ġcompan": 4190,
      "offset": 4191,
      "Ġwarship": 4192,
      "Ġraised": 4193,
      "Ġtools": 4194,
      "Ġsalad": 4195,
      "Ġsplit": 4196,
      "Ġspine": 4197,
      "Ġdecades": 4198,
      "Ġmemo": 4199,
      "umn": 4200,
      "uthless": 4201,
      "Ġstops": 4202,
      "Ġwarm": 4203,
      "Final": 4204,
      "Ġserver": 4205,
      "Ġsandbox": 4206,
      "rol": 4207,
      "Ġfought": 4208,
      "orus": 4209,
      "Ġsurr": 4210,
      "Ġmount": 4211,
      "Ġcoach": 4212,
      "index": 4213,
      "entless": 4214,
      "oding": 4215,
      "ĠDaughter": 4216,
      "Ġemotion": 4217,
      "alade": 4218,
      "ĠFalse": 4219,
      "Ġgrip": 4220,
      "this": 4221,
      "Ġcorporate": 4222,
      "Ġcrou": 4223,
      "Ġremembers": 4224,
      "Ġmansion": 4225,
      "Ġones": 4226,
      "ĠPast": 4227,
      "umbers": 4228,
      "ĠGre": 4229,
      "Ġhumming": 4230,
      "Ġsyn": 4231,
      "stable": 4232,
      "Ġgrows": 4233,
      "Ġlarge": 4234,
      "Then": 4235,
      "ĠLament": 4236,
      "Ġbooks": 4237,
      "ĠReb": 4238,
      "Ġenforcer": 4239,
      "ĠStars": 4240,
      "Ġoil": 4241,
      "ĠCall": 4242,
      "ĠDren": 4243,
      "matic": 4244,
      "ĠJules": 4245,
      "Ġsolve": 4246,
      "Ġconfused": 4247,
      "Ġwest": 4248,
      "hash": 4249,
      "Ġice": 4250,
      "Ġsuspicious": 4251,
      "\\\")\\": 4252,
      "Ġdesert": 4253,
      "Ġpair": 4254,
      "ĠSentinel": 4255,
      "Ġstealing": 4256,
      "Ġproblem": 4257,
      "Ġrele": 4258,
      "Ġfac": 4259,
      "Ġdecode": 4260,
      "world": 4261,
      "Ġbullet": 4262,
      "Ġchecks": 4263,
      "Ġloomed": 4264,
      "ority": 4265,
      "leam": 4266,
      "Ġrealm": 4267,
      "_log": 4268,
      "Ġshuddered": 4269,
      ".argv": 4270,
      "Ġcausing": 4271,
      "Ġfish": 4272,
      "ckoning": 4273,
      "atterns": 4274,
      "Ġsumm": 4275,
      "isher": 4276,
      "Ġune": 4277,
      "gin": 4278,
      "Ġfixed": 4279,
      "Ġmaking": 4280,
      "ĠLily": 4281,
      "tal": 4282,
      "asure": 4283,
      "Ġretelling": 4284,
      "Ã©a": 4285,
      "Ġpolice": 4286,
      "acher": 4287,
      "Ġorigins": 4288,
      "onfig": 4289,
      "Ġnormal": 4290,
      "True": 4291,
      "uple": 4292,
      "une": 4293,
      "ĠSn": 4294,
      "Ġtownspeople": 4295,
      "Ġlegacy": 4296,
      "Ġmal": 4297,
      "board": 4298,
      "]ĊĊ": 4299,
      "}ĊĊ": 4300,
      "elda": 4301,
      "Ġmessages": 4302,
      "orical": 4303,
      "Ġcro": 4304,
      "ĠMechanic": 4305,
      "Ġwestern": 4306,
      "onds": 4307,
      "Ġconsumed": 4308,
      "Ġdestruction": 4309,
      "Ġcontain": 4310,
      "Ġsense": 4311,
      "Ġsteel": 4312,
      "Ġnecessary": 4313,
      "Next": 4314,
      "Ġdie": 4315,
      "imal": 4316,
      "Ġrecap": 4317,
      "Ġgoth": 4318,
      "Ġgothic": 4319,
      "Ġcirc": 4320,
      "Ġcharacters": 4321,
      "Ġpipe": 4322,
      "uo": 4323,
      "Ġshouldn": 4324,
      "Ġstretched": 4325,
      "Ġunm": 4326,
      "vas": 4327,
      "_demo": 4328,
      "Ġfairy": 4329,
      "([": 4330,
      "Ġaccept": 4331,
      "IR": 4332,
      "olk": 4333,
      "raid": 4334,
      "odle": 4335,
      "arser": 4336,
      "Ġdefe": 4337,
      "Ġdisplay": 4338,
      "apsack": 4339,
      "ĠWidow": 4340,
      "ĠVictor": 4341,
      "Ġwakes": 4342,
      "ĠVo": 4343,
      ".get": 4344,
      "Ġevents": 4345,
      "Ġincom": 4346,
      "inter": 4347,
      ">Let": 4348,
      "Ġslight": 4349,
      "Ġgave": 4350,
      "ctor": 4351,
      "mod": 4352,
      "Ġitem": 4353,
      "ĠLÃ©a": 4354,
      "[str": 4355,
      "phs": 4356,
      "default": 4357,
      "ĠRebel": 4358,
      "sen": 4359,
      "ackage": 4360,
      "Ġord": 4361,
      "ĠTheir": 4362,
      "Ġunc": 4363,
      "Ġconfrontation": 4364,
      "Ġhistorical": 4365,
      "Ġnoir": 4366,
      "insert": 4367,
      "Ġrebellion": 4368,
      "ĠVeil": 4369,
      "Number": 4370,
      "Ġgolden": 4371,
      "Ġstronger": 4372,
      "Ġcomposer": 4373,
      "Ġquicksort": 4374,
      "ĠWhit": 4375,
      "Ġcommon": 4376,
      "inger": 4377,
      "Ġpolit": 4378,
      "CH": 4379,
      "emption": 4380,
      "ĠWhitmore": 4381,
      "ĠBlacksmith": 4382,
      "Ġsacrifice": 4383,
      "Continue": 4384,
      "Ġbit": 4385,
      "Ġchosen": 4386,
      "Ġos": 4387,
      "pre": 4388,
      "she": 4389,
      "Ġsubst": 4390,
      "ession": 4391,
      "Ġlosing": 4392,
      "Ġneighbor": 4393,
      "begin": 4394,
      "ington": 4395,
      "Ġteach": 4396,
      "Ġcloud": 4397,
      "Ġsang": 4398,
      "Ġ{Ċ": 4399,
      "rek": 4400,
      "Ġwrites": 4401,
      "-lo": 4402,
      "Evaluate": 4403,
      "thon": 4404,
      "ĠTe": 4405,
      "..<|": 4406,
      "Ġcrouched": 4407,
      "Ġkiller": 4408,
      "-of": 4409,
      "Ġfeet": 4410,
      "Ġparagra": 4411,
      "folk": 4412,
      "rot": 4413,
      "ĠCluckington": 4414,
      "Ġviol": 4415,
      "-bu": 4416,
      "Ġseries": 4417,
      "Ġoften": 4418,
      "_find": 4419,
      "uscript": 4420,
      "Ġpatterns": 4421,
      "Ġmanuscript": 4422,
      "arent": 4423,
      "Ġuncovering": 4424,
      "loom": 4425,
      "ellow": 4426,
      "ĠRho": 4427,
      "python": 4428,
      "Ġmodule": 4429,
      "Ġparagraphs": 4430,
      "Ġrecapping": 4431,
      "by": 4432,
      "Ġinsert": 4433,
      "Ġmeaning": 4434,
      "amb": 4435,
      "Ġbot": 4436,
      "Ġunreadable": 4437,
      "ĠVor": 4438,
      "Ġbreaking": 4439,
      "Ġ-\\": 4440,
      "Ġorbit": 4441,
      "ĠMarla": 4442,
      "Ġfactual": 4443,
      "'''Ċ": 4444,
      "gan": 4445,
      "Ġtone": 4446,
      "oint": 4447,
      "Ġcreates": 4448,
      "rentice": 4449,
      "Ġapprentice": 4450,
      "Ġgood": 4451,
      "Ġperformance": 4452,
      "Ġmot": 4453,
      "Ġ[],": 4454,
      "mered": 4455,
      "Ġcalling": 4456,
      "lu": 4457,
      "-buried": 4458,
      "-age": 4459,
      "Ġfailing": 4460,
      "ĠEpsilon": 4461,
      "Ġsurrounded": 4462,
      "Ġrock": 4463,
      "Ġgleam": 4464,
      "addy": 4465,
      "Ġholding": 4466,
      "Ġexecut": 4467,
      "(node": 4468,
      "Ġremo": 4469,
      "ĠFlame": 4470,
      "ĠCore": 4471,
      "Draft": 4472,
      "Ġoffering": 4473,
      "Ġguide": 4474,
      "Ġactually": 4475,
      "_de": 4476,
      "Ġwriting": 4477,
      "Ġhappen": 4478,
      "Ġconc": 4479,
      "Ġreplacing": 4480,
      "Ġexists": 4481,
      "Ġlon": 4482,
      "vous": 4483,
      "Ġscattered": 4484,
      "Ġchanging": 4485,
      "Only": 4486,
      "Ġfigures": 4487,
      "Ġreading": 4488,
      "Ġturns": 4489,
      "Ġhig": 4490,
      "ĠElira": 4491,
      "utious": 4492,
      "Ġspraw": 4493,
      "Ġcautious": 4494,
      "Ġmed": 4495,
      "Ġprevious": 4496,
      "Ġinterface": 4497,
      "ildren": 4498,
      "Ġadvent": 4499,
      "Ġapproach": 4500,
      "Ġretrieve": 4501,
      "Ġmere": 4502,
      "Ġpolitical": 4503,
      "Ġwreck": 4504,
      "ows": 4505,
      "Ġrecursive": 4506,
      "ĠRoom": 4507,
      "Ġevid": 4508,
      "Ġallows": 4509,
      "Ġtemple": 4510,
      "ĠJarek": 4511,
      "Ġfunc": 4512,
      "ĠHourglass": 4513,
      "Ġma": 4514,
      "Ġlevel": 4515,
      "Ġlived": 4516,
      "plete": 4517,
      "Ġdecaying": 4518,
      "etic": 4519,
      "onstrates": 4520,
      "Ġkeys": 4521,
      "Ġwonder": 4522,
      "Ġchallenges": 4523,
      "orin": 4524,
      "Ġadventure": 4525,
      "Ġmethods": 4526,
      "aug": 4527,
      "Ġweeks": 4528,
      "_g": 4529,
      "Ġcup": 4530,
      "Ġhall": 4531,
      ",\"": 4532,
      "Ġslightly": 4533,
      "elative": 4534,
      "Ġsme": 4535,
      "Ġdecorator": 4536,
      "ension": 4537,
      "rase": 4538,
      "gest": 4539,
      "gent": 4540,
      "aren": 4541,
      "Relative": 4542,
      "Ġended": 4543,
      "Ġbreaks": 4544,
      "Ġ{},": 4545,
      "ĠDis": 4546,
      "Ġ['": 4547,
      "[int": 4548,
      "lib": 4549,
      "ĠHeart": 4550,
      "iny": 4551,
      "usk": 4552,
      "ading": 4553,
      "=True": 4554,
      "ete": 4555,
      "Ġmurmured": 4556,
      "Ġfaster": 4557,
      "Ġsurvive": 4558,
      "Ġaccused": 4559,
      "Ġrebels": 4560,
      "ING": 4561,
      "asteland": 4562,
      "\\nJ": 4563,
      "Ġ!=": 4564,
      "Ġlooking": 4565,
      "Ġstumbled": 4566,
      "##": 4567,
      "heap": 4568,
      "Ġshiver": 4569,
      "ĠWeaver": 4570,
      "_recur": 4571,
      "Hel": 4572,
      "gative": 4573,
      "Ġfragile": 4574,
      "Ġactivates": 4575,
      "Ġjoins": 4576,
      "aphael": 4577,
      "Ġdefiance": 4578,
      "clip": 4579,
      "\\nR": 4580,
      "Ġbrit": 4581,
      "ider": 4582,
      "ucked": 4583,
      "ĠExample": 4584,
      "Ġbrittle": 4585,
      "TER": 4586,
      "Ġdesk": 4587,
      "Ġevidence": 4588,
      "agged": 4589,
      "ĠMa": 4590,
      "ĠZed": 4591,
      "Ġbas": 4592,
      "Ġbehav": 4593,
      "Ġlie": 4594,
      "ĠVorn": 4595,
      "\\nIt": 4596,
      "alueError": 4597,
      "ĠJust": 4598,
      "inition": 4599,
      "Ġisol": 4600,
      "Ġbinary": 4601,
      "Ġboxer": 4602,
      "Ġquickened": 4603,
      "SV": 4604,
      "ta": 4605,
      "Ġrequires": 4606,
      "pol": 4607,
      "Ġspy": 4608,
      "Ġruthless": 4609,
      "Ġjaw": 4610,
      "Ġdrift": 4611,
      "ience": 4612,
      "ĠTown": 4613,
      "!\\": 4614,
      "Ġfiltered": 4615,
      "racture": 4616,
      "Ġdiss": 4617,
      "Ġtransmission": 4618,
      "Ġtouch": 4619,
      "-up": 4620,
      "_name": 4621,
      "Ġmarm": 4622,
      "Ġmarmalade": 4623,
      "ET": 4624,
      "Ġsmile": 4625,
      "selves": 4626,
      "Ġinclud": 4627,
      "Saved": 4628,
      "Ġgiant": 4629,
      "ĠNeon": 4630,
      "Ġsubstit": 4631,
      "ĠSymphony": 4632,
      "base": 4633,
      "hoto": 4634,
      "Ġoutw": 4635,
      "Ġcreating": 4636,
      "Ġcollapsing": 4637,
      "ĠNet": 4638,
      "Ġafraid": 4639,
      "Ġthriller": 4640,
      "Ġseek": 4641,
      "Ġwand": 4642,
      "_time": 4643,
      "Ġlets": 4644,
      "Ġbuilds": 4645,
      "ĠAnswer": 4646,
      "Ġresist": 4647,
      "onor": 4648,
      "ĠNode": 4649,
      "Ġobjects": 4650,
      "Ġplayed": 4651,
      "Ġskin": 4652,
      "asks": 4653,
      "tar": 4654,
      "_v": 4655,
      "\\\"\\\"\\": 4656,
      "Ġreplaced": 4657,
      ":\",": 4658,
      "ES": 4659,
      "Ġlab": 4660,
      "ongue": 4661,
      "akening": 4662,
      "Search": 4663,
      "cing": 4664,
      "poken": 4665,
      "wakening": 4666,
      "Ġprecise": 4667,
      "Lila": 4668,
      "Ġinn": 4669,
      "Ġshimmered": 4670,
      "mence": 4671,
      "Ġlearn": 4672,
      "Ġcompute": 4673,
      "Ġtrick": 4674,
      "aven": 4675,
      "Ġdeadly": 4676,
      "Ġthinks": 4677,
      "Ġphoto": 4678,
      "ĠPut": 4679,
      "ipp": 4680,
      "Ġscore": 4681,
      "tower": 4682,
      "Ġsupernatural": 4683,
      "pen": 4684,
      "ĠCr": 4685,
      "sc": 4686,
      "Ġadditional": 4687,
      "ĠRiven": 4688,
      "Ġlocation": 4689,
      "Ġconfidant": 4690,
      "-f": 4691,
      "enses": 4692,
      "Now": 4693,
      "ĠSiren": 4694,
      "Ġlips": 4695,
      "Ġdiscovered": 4696,
      "Ġunderbel": 4697,
      "Ġunderbelly": 4698,
      "Line": 4699,
      "Ġcrime": 4700,
      "Ġmining": 4701,
      "Ġtyping": 4702,
      "ouble": 4703,
      "ĠAwakening": 4704,
      "Ġwriter": 4705,
      "Ġful": 4706,
      "ĠIts": 4707,
      "ĠTO": 4708,
      "Ġseal": 4709,
      "Ġefficient": 4710,
      "ilot": 4711,
      "Ġtrace": 4712,
      "To": 4713,
      "dict": 4714,
      "ĠSentient": 4715,
      "stamp": 4716,
      "Ġinc": 4717,
      "Ġbehavior": 4718,
      "itual": 4719,
      "Ġritual": 4720,
      "ĠWoman": 4721,
      "Ġpir": 4722,
      "Ġunspoken": 4723,
      "aries": 4724,
      "etta": 4725,
      "Ġvendetta": 4726,
      "Ġnature": 4727,
      "aclass": 4728,
      "ĠVoice": 4729,
      "Ġhorizon": 4730,
      "Ġstruggles": 4731,
      "Ġthemselves": 4732,
      "Ġgrumpy": 4733,
      "Ġcorridors": 4734,
      "Ġwit": 4735,
      "Ġnodes": 4736,
      "\\nElias": 4737,
      "ĠYour": 4738,
      "Ġconstant": 4739,
      "Ġeternal": 4740,
      "ius": 4741,
      "-m": 4742,
      "Ġworn": 4743,
      "Ġseconds": 4744,
      "Ġmalfunction": 4745,
      "elds": 4746,
      "Ġintric": 4747,
      "Ġintricate": 4748,
      "Ġcrash": 4749,
      "Ġdepths": 4750,
      "ĠBeneath": 4751,
      "cThey": 4752,
      "cribe": 4753,
      "Ġspr": 4754,
      "Answer": 4755,
      "ĠZelda": 4756,
      "Ġgen": 4757,
      "Ġrising": 4758,
      "nCharacters": 4759,
      "Ġpub": 4760,
      "Ġunderstood": 4761,
      "icken": 4762,
      "Ġrule": 4763,
      "Ġmusician": 4764,
      "LO": 4765,
      "Ġtownsfolk": 4766,
      "Ġbright": 4767,
      "Ġharmony": 4768,
      "Ġlogs": 4769,
      "ĠFinch": 4770,
      "ĠGame": 4771,
      "top": 4772,
      "eps": 4773,
      "they": 4774,
      "fail": 4775,
      "uce": 4776,
      "\\nAs": 4777,
      "ĠPath": 4778,
      "ĠCon": 4779,
      "ĠCat": 4780,
      "Ġscene": 4781,
      "ĠNox": 4782,
      "riginal": 4783,
      "Ġhus": 4784,
      "Ġdamp": 4785,
      "Ġarms": 4786,
      "Ġhusband": 4787,
      "house": 4788,
      "Ġcentral": 4789,
      "abit": 4790,
      "Ġask": 4791,
      "--------------------------------": 4792,
      "Ġsepar": 4793,
      "ĠKe": 4794,
      "Ġlistening": 4795,
      "uplic": 4796,
      "ret": 4797,
      "_key": 4798,
      "}<|": 4799,
      "Ġdirectly": 4800,
      ">The": 4801,
      "ization": 4802,
      "Ġgravity": 4803,
      "Ġhummed": 4804,
      "ĠTess": 4805,
      "Ġcapital": 4806,
      "Ġclutched": 4807,
      "Ġlater": 4808,
      "ĠCame": 4809,
      "ropol": 4810,
      "ropolis": 4811,
      "Ġhers": 4812,
      "queue": 4813,
      "Ġindust": 4814,
      "ume": 4815,
      "Ġmetropolis": 4816,
      "Ġcreaked": 4817,
      "Ġfib": 4818,
      "ouds": 4819,
      "Ġbecoming": 4820,
      "Ġrebuild": 4821,
      ":-": 4822,
      "Ġbelieving": 4823,
      ".,": 4824,
      "ĠStarlight": 4825,
      "rench": 4826,
      "ĠNoodle": 4827,
      "_recursive": 4828,
      "(c": 4829,
      "Ġnor": 4830,
      "ĠLost": 4831,
      "Ġconfig": 4832,
      "ippet": 4833,
      "ĠVoid": 4834,
      "Is": 4835,
      "Ġjagged": 4836,
      "Ġtaking": 4837,
      "Perform": 4838,
      "Ġincomplete": 4839,
      "unt": 4840,
      "pper": 4841,
      "anced": 4842,
      "Ġoptionally": 4843,
      "Ġdocument": 4844,
      "rance": 4845,
      "Ġiss": 4846,
      "ock": 4847,
      "ĠSea": 4848,
      "Ġamong": 4849,
      "ĠVictorian": 4850,
      "fered": 4851,
      "Ġexpose": 4852,
      "Ġensure": 4853,
      "ĠCamelot": 4854,
      "Ġconn": 4855,
      "Ġmonth": 4856,
      "Ġlaug": 4857,
      "Ġbeast": 4858,
      "Ġfront": 4859,
      "Ġgear": 4860,
      "}'": 4861,
      "ĠSheriff": 4862,
      "osity": 4863,
      "iling": 4864,
      "Ġcommod": 4865,
      "Ġ\\\"__": 4866,
      "Ġinit": 4867,
      "Ġdissol": 4868,
      "ĠFinn": 4869,
      "Ġpython": 4870,
      "Ġcompanion": 4871,
      "Ġpulling": 4872,
      "__\\\":": 4873,
      "gs": 4874,
      "wind": 4875,
      "Ġtests": 4876,
      "Ġdisappearances": 4877,
      "NA": 4878,
      "riest": 4879,
      "_counter": 4880,
      "Ġcomput": 4881,
      "Ġbelow": 4882,
      "\\nD": 4883,
      "ĠDead": 4884,
      "Ġamb": 4885,
      "_com": 4886,
      "ĠMarlowe": 4887,
      "aks": 4888,
      "Ġindustrial": 4889,
      "ĠValueError": 4890,
      "ique": 4891,
      "Ġ@": 4892,
      "ĠCSV": 4893,
      "Ġscreen": 4894,
      "aper": 4895,
      "Ġmob": 4896,
      "Ġven": 4897,
      "Ġkeeper": 4898,
      "Ġmast": 4899,
      "âĢĻve": 4900,
      "Ġcommodity": 4901,
      "link": 4902,
      "Ġoffered": 4903,
      "Ġmelodies": 4904,
      "Ġopt": 4905,
      "Ġcorner": 4906,
      "rib": 4907,
      "ĠBroadcast": 4908,
      "Ġbackground": 4909,
      "program": 4910,
      "Save": 4911,
      "ĠIN": 4912,
      "den": 4913,
      "Ġroyal": 4914,
      "Ġautom": 4915,
      "Ġinte": 4916,
      "Ġstable": 4917,
      ".root": 4918,
      "Ġtotal": 4919,
      "Ġcarved": 4920,
      "Ġwreckage": 4921,
      "Ġchildren": 4922,
      "Ġadjusted": 4923,
      "Ġconv": 4924,
      "book": 4925,
      "inda": 4926,
      "Ġstore": 4927,
      "Ġrobot": 4928,
      "pan": 4929,
      "\\nBut": 4930,
      "Ġwitness": 4931,
      "Ġcaptain": 4932,
      "uriosity": 4933,
      "Ġofficial": 4934,
      "Ġextract": 4935,
      "Ġinstall": 4936,
      "Ġtrig": 4937,
      ".'ĊĊ": 4938,
      "Ġcollect": 4939,
      "Ġfreedom": 4940,
      "ero": 4941,
      "inning": 4942,
      "Use": 4943,
      "uctor": 4944,
      "Ġrewritten": 4945,
      "Open": 4946,
      "Ġincluding": 4947,
      "Ġactivate": 4948,
      "vity": 4949,
      "Ġdivision": 4950,
      "Ġsnacks": 4951,
      "ires": 4952,
      "ences": 4953,
      "Ġstepping": 4954,
      "Ġsurviv": 4955,
      "Ġcaddy": 4956,
      "ĠZorathian": 4957,
      "eg": 4958,
      "Ġchorus": 4959,
      "Ġmultiplication": 4960,
      "ergesort": 4961,
      "]<|": 4962,
      "wise": 4963,
      "current": 4964,
      "Ġmistake": 4965,
      "essel": 4966,
      "Ġawakening": 4967,
      "Ġburning": 4968,
      "Ġvessel": 4969,
      "`.": 4970,
      "\\nMira": 4971,
      "ĠRaphael": 4972,
      "Ġreflection": 4973,
      "Ġreceives": 4974,
      "rences": 4975,
      "asha": 4976,
      "None": 4977,
      "\\nT": 4978,
      "VE": 4979,
      "ided": 4980,
      "Ġhide": 4981,
      "angled": 4982,
      "Ġsimp": 4983,
      "ĠCons": 4984,
      "Ġdisaster": 4985,
      "Ġappeared": 4986,
      "Ġprocesses": 4987,
      "Ġtalk": 4988,
      ".head": 4989,
      "Ġrecall": 4990,
      "__\\\":\\": 4991,
      "Ġtheater": 4992,
      "Ġclung": 4993,
      "Compute": 4994,
      "vice": 4995,
      "Ġ${": 4996,
      "DIR": 4997,
      "aped": 4998,
      "ĠRaj": 4999,
      "Ġtongue": 5000,
      "ĠOld": 5001,
      "Ġmuttered": 5002,
      "estival": 5003,
      "Ã©lie": 5004,
      "ashes": 5005,
      "astro": 5006,
      ".is": 5007,
      "Ġsmiled": 5008,
      "Ġcatastro": 5009,
      "Ġtimeline": 5010,
      "jk": 5011,
      "enced": 5012,
      "ĠEvery": 5013,
      "Ġisolated": 5014,
      "Ġinher": 5015,
      "Ġcarry": 5016,
      "Ġvenge": 5017,
      "jo": 5018,
      "Ġmeeting": 5019,
      "_lookup": 5020,
      ".st": 5021,
      "Ġparrot": 5022,
      "Ġresource": 5023,
      "upt": 5024,
      "Ġtowers": 5025,
      "Ġflee": 5026,
      "ĠAmÃ©lie": 5027,
      "itor": 5028,
      "ĠGe": 5029,
      "Ġnearly": 5030,
      "ĠĠĠĠĠĠĠĠ": 5031,
      "\\nSomewhere": 5032,
      "Ġext": 5033,
      "armaster": 5034,
      "Ġsprawling": 5035,
      "ĠGearmaster": 5036,
      "Ġprefix": 5037,
      "Ġassistant": 5038,
      "Ġsupposed": 5039,
      "Ġcourse": 5040,
      "mart": 5041,
      "ĠGlass": 5042,
      "Ġuseful": 5043,
      "Ġoutwit": 5044,
      "itive": 5045,
      "-lost": 5046,
      "Ġmotion": 5047,
      "Ġreign": 5048,
      "Ġreplied": 5049,
      "Ġpilot": 5050,
      "ĠSomeone": 5051,
      "Ġwrapped": 5052,
      "ĠGravity": 5053,
      "jkstra": 5054,
      "rief": 5055,
      "ĠLoaf": 5056,
      "ĠJade": 5057,
      "Ġspot": 5058,
      "Ġerupt": 5059,
      "Ġexc": 5060,
      "\\nNothing": 5061,
      "(t": 5062,
      "Ġ\"${": 5063,
      "Ġmad": 5064,
      "ĠDerek": 5065,
      "Ġworse": 5066,
      "Ġash": 5067,
      "Ġ<=": 5068,
      "Ġiron": 5069,
      "gu": 5070,
      "ĠBell": 5071,
      "Ġmoments": 5072,
      "resent": 5073,
      "ibonacci": 5074,
      "Ġeerie": 5075,
      "back": 5076,
      "ĠPete": 5077,
      "azz": 5078,
      "Ġexplore": 5079,
      "Ġpush": 5080,
      "Ġmachin": 5081,
      "als": 5082,
      "lish": 5083,
      "chol": 5084,
      "Ġlabyrinth": 5085,
      "ermined": 5086,
      "Ġstillness": 5087,
      "Ġfreeing": 5088,
      "Ġredemption": 5089,
      "Ġtofu": 5090,
      "ĠCoffee": 5091,
      "Ġoperations": 5092,
      "Ġdied": 5093,
      "ivot": 5094,
      "ĠSolara": 5095,
      "ĠAny": 5096,
      "ĠSpar": 5097,
      "Ġcolumn": 5098,
      "ribute": 5099,
      "Ġ&": 5100,
      "semb": 5101,
      "listair": 5102,
      "Ġreads": 5103,
      "Ġusual": 5104,
      "ĠInk": 5105,
      "Ġskeptical": 5106,
      "Ġtiny": 5107,
      "Ġ--": 5108,
      "Ġunto": 5109,
      "IL": 5110,
      "Ġposs": 5111,
      "Ġonto": 5112,
      "Ġprep": 5113,
      "Ġuncertain": 5114,
      "Ġbus": 5115,
      "uthor": 5116,
      "argain": 5117,
      "Ġslipping": 5118,
      "ĠMaster": 5119,
      "Ġterminal": 5120,
      "Ġdate": 5121,
      "Ġmeans": 5122,
      "order": 5123,
      "Ġneon": 5124,
      "Ġpip": 5125,
      "Ġcuriosity": 5126,
      "Ġid": 5127,
      "olem": 5128,
      "ĠReckoning": 5129,
      "ĠArch": 5130,
      "DE": 5131,
      "Ġloaf": 5132,
      "Ġblueprints": 5133,
      "Ġreact": 5134,
      "Enumerate": 5135,
      "Ġattempts": 5136,
      "Ġthreads": 5137,
      "memo": 5138,
      "Ġchief": 5139,
      "illusion": 5140,
      "Ġwhir": 5141,
      "ĠChoir": 5142,
      "Ġjazz": 5143,
      "web": 5144,
      "ĠWord": 5145,
      "ĠConspiracy": 5146,
      "ĠLet": 5147,
      "words": 5148,
      "Process": 5149,
      "Ġbetrays": 5150,
      "Form": 5151,
      "medi": 5152,
      "=\\\"": 5153,
      "[:": 5154,
      "Ġwalks": 5155,
      "Ġthree": 5156,
      "Ġmovement": 5157,
      "Ġvibr": 5158,
      ".\"}<|": 5159,
      "eping": 5160,
      "Ġremain": 5161,
      "Ġuntouched": 5162,
      "Ġsabot": 5163,
      "ĠPar": 5164,
      "Ġ[]Ċ": 5165,
      "Ġpu": 5166,
      "Ġminds": 5167,
      "Ġmachinery": 5168,
      "AP": 5169,
      "Ġsaf": 5170,
      "Ġraw": 5171,
      "Ġtreasure": 5172,
      "ffect": 5173,
      "Ġfully": 5174,
      "egis": 5175,
      ".parent": 5176,
      "Ġbinds": 5177,
      "ĠLirael": 5178,
      "Ġqueen": 5179,
      "Ġraces": 5180,
      "Ġforge": 5181,
      "Ġpract": 5182,
      "Ġcalculate": 5183,
      "Ġunstable": 5184,
      "`,": 5185,
      "cNo": 5186,
      "ĠTasha": 5187,
      "Ġdrama": 5188,
      "traction": 5189,
      "Ġcomplexity": 5190,
      "Ġpipefail": 5191,
      "Ġreck": 5192,
      "aged": 5193,
      "Ġinner": 5194,
      "Ġmathe": 5195,
      "Ġtracing": 5196,
      "ĠLinda": 5197,
      "Ġsupply": 5198,
      "Ġquot": 5199,
      "Ġemperor": 5200,
      "comb": 5201,
      "oura": 5202,
      "Ġclocktower": 5203,
      "Ġterrif": 5204,
      "error": 5205,
      "Ġstab": 5206,
      "_by": 5207,
      "Ġhints": 5208,
      "Python": 5209,
      "Ġwatches": 5210,
      "Ġreckless": 5211,
      "Ġforget": 5212,
      "Ġappear": 5213,
      "${": 5214,
      "etime": 5215,
      "(graph": 5216,
      "artment": 5217,
      "Ġcomedy": 5218,
      "ĠPudding": 5219,
      "erry": 5220,
      "Ġtunnels": 5221,
      "Ġmathemat": 5222,
      "Solve": 5223,
      "loye": 5224,
      "Ġconfirm": 5225,
      "Ġbased": 5226,
      "Ġcontrolled": 5227,
      "Ġmathematical": 5228,
      "_with": 5229,
      "no": 5230,
      "level": 5231,
      "Ġdelete": 5232,
      "Ġwrapper": 5233,
      "Ġworkplace": 5234,
      "Ġopening": 5235,
      "Full": 5236,
      "Ġrows": 5237,
      "vate": 5238,
      "itting": 5239,
      "Ġcarefully": 5240,
      "kely": 5241,
      "alle": 5242,
      "Ġshowdown": 5243,
      "cholar": 5244,
      "Ġmath": 5245,
      "Ġtimepieces": 5246,
      "Ġfrequency": 5247,
      "Ġsample": 5248,
      "Node": 5249,
      "inates": 5250,
      "raction": 5251,
      "size": 5252,
      "ourage": 5253,
      "Ġcell": 5254,
      "view": 5255,
      "icked": 5256,
      "Ġcot": 5257,
      ".ch": 5258,
      "grep": 5259,
      "ĠSalad": 5260,
      "?ĊĊ": 5261,
      "Ġinv": 5262,
      "ĠMer": 5263,
      "Ġrelentless": 5264,
      "lice": 5265,
      "Ġcomponent": 5266,
      "Ġfroze": 5267,
      "Ġspreads": 5268,
      "_node": 5269,
      "Ġmotives": 5270,
      "Ġreplace": 5271,
      "ĠAfter": 5272,
      "Ġstatus": 5273,
      "emp": 5274,
      "-powered": 5275,
      "Ġthro": 5276,
      "amed": 5277,
      "struct": 5278,
      "othes": 5279,
      "ĠAlistair": 5280,
      "Ġrum": 5281,
      "_value": 5282,
      "rove": 5283,
      "while": 5284,
      "liance": 5285,
      "Ġtraveler": 5286,
      "Ġnoise": 5287,
      "Ġcsv": 5288,
      "Ġgovernment": 5289,
      "Ġgrep": 5290,
      "Ġdraw": 5291,
      "sts": 5292,
      "Ġvent": 5293,
      ">This": 5294,
      "ĠTarn": 5295,
      "Ġarre": 5296,
      "ĠIT": 5297,
      "Ġrol": 5298,
      "ĠIS": 5299,
      "Ġunnatural": 5300,
      "(p": 5301,
      "ĠFibonacci": 5302,
      "cmd": 5303,
      "Ġviolent": 5304,
      "iness": 5305,
      "))\\": 5306,
      "_string": 5307,
      "Ġchain": 5308,
      "Ġsaloon": 5309,
      "Ġwins": 5310,
      "Ġreflect": 5311,
      "Ġstra": 5312,
      "uro": 5313,
      "Ġgenerator": 5314,
      "Ġhinting": 5315,
      "Ġpause": 5316,
      "\\nKael": 5317,
      "Ġentirely": 5318,
      "EO": 5319,
      "Ġsubtraction": 5320,
      "OU": 5321,
      "ĠDuel": 5322,
      "Ġunable": 5323,
      "ĠKick": 5324,
      "Ġfailures": 5325,
      "ĠBo": 5326,
      "Body": 5327,
      "iced": 5328,
      "Ġprove": 5329,
      "Ġban": 5330,
      "Ġplant": 5331,
      "Ġintro": 5332,
      "\\\",": 5333,
      "_set": 5334,
      "ousand": 5335,
      "Ġswir": 5336,
      "rc": 5337,
      "ĠDetermined": 5338,
      "Ġpaints": 5339,
      "_memory": 5340,
      "Ġmirrors": 5341,
      "Ġarchives": 5342,
      "_count": 5343,
      "Ġtouched": 5344,
      "Ġthousand": 5345,
      "Ġwaited": 5346,
      "ĠRebellion": 5347,
      "Ġdp": 5348,
      "idnight": 5349,
      "âĢľ": 5350,
      "Ġanymore": 5351,
      "iph": 5352,
      "ird": 5353,
      "Ġlifted": 5354,
      "ubble": 5355,
      "ically": 5356,
      "Ġimagined": 5357,
      "Ġpat": 5358,
      "Ġremind": 5359,
      "icker": 5360,
      "ĠYoung": 5361,
      "Ġrisks": 5362,
      "ĠPriest": 5363,
      "Ġpublic": 5364,
      "come": 5365,
      "Ġpalm": 5366,
      "ĠOut": 5367,
      "Ġcrumbs": 5368,
      "Ġsig": 5369,
      "Ġmidnight": 5370,
      "Ġpushed": 5371,
      "Ġcand": 5372,
      "rave": 5373,
      "ĠGolem": 5374,
      "ials": 5375,
      "lit": 5376,
      "Ġmar": 5377,
      ".right": 5378,
      "inct": 5379,
      "Ġautomata": 5380,
      "ĠMor": 5381,
      "Ġexternal": 5382,
      "Ġresourceful": 5383,
      "mma": 5384,
      "ilemma": 5385,
      "ĠDilemma": 5386,
      "Ġshare": 5387,
      "ĠBre": 5388,
      "Ġinstance": 5389,
      "Ġstage": 5390,
      "Ġalle": 5391,
      "Ġtimes": 5392,
      "Ġunp": 5393,
      "Ġchar": 5394,
      "_dict": 5395,
      "ilo": 5396,
      "]}": 5397,
      "-w": 5398,
      "Ġmat": 5399,
      "onies": 5400,
      "Ġruined": 5401,
      "Ġfollowing": 5402,
      "ĠLead": 5403,
      "Ġsports": 5404,
      "Ġsending": 5405,
      "ĠThalor": 5406,
      "Ġrequest": 5407,
      "chem": 5408,
      "yard": 5409,
      "Ġrealized": 5410,
      "repr": 5411,
      "Ġglimp": 5412,
      "euo": 5413,
      ".\\\"\\\"\\\"\\": 5414,
      "Ġplays": 5415,
      "Ġgraveyard": 5416,
      "Ġflying": 5417,
      "Ġcompartment": 5418,
      "ssed": 5419,
      "Ġsco": 5420,
      "ivers": 5421,
      "parse": 5422,
      "ĠHunt": 5423,
      "Ġcreaking": 5424,
      "call": 5425,
      "Ġbad": 5426,
      "Ġzone": 5427,
      "_query": 5428,
      "(sys": 5429,
      "result": 5430,
      "Ġkilled": 5431,
      "Ġensures": 5432,
      "Ġribs": 5433,
      "Ġtense": 5434,
      "Ġcommands": 5435,
      "zed": 5436,
      "Ġwid": 5437,
      "Ġsurged": 5438,
      "Ġgathered": 5439,
      "Ġcapacity": 5440,
      "Ġdesol": 5441,
      "rigue": 5442,
      "Ġintrigue": 5443,
      "Ġfortress": 5444,
      "Ġstaring": 5445,
      "lord": 5446,
      "Ġpivot": 5447,
      "cers": 5448,
      "Exec": 5449,
      "Ġsubstitution": 5450,
      "join": 5451,
      "otic": 5452,
      "Ġtelling": 5453,
      "Ġ>&": 5454,
      "ĠBargain": 5455,
      "Ġragged": 5456,
      "ielding": 5457,
      "ĠGreg": 5458,
      "acon": 5459,
      "Ġbeacon": 5460,
      "Ġskills": 5461,
      "Ġcreator": 5462,
      "\".": 5463,
      "Ġsorting": 5464,
      "Ġ||": 5465,
      "Ġlittle": 5466,
      "*.": 5467,
      ".items": 5468,
      "Ġgets": 5469,
      "Ġchicken": 5470,
      "Ġeither": 5471,
      "Ġpian": 5472,
      "Ġproperly": 5473,
      "Ġ\"\\": 5474,
      ".left": 5475,
      "Ġstarting": 5476,
      "Ġdesolate": 5477,
      "argrove": 5478,
      "ĠHargrove": 5479,
      "Ġcrackled": 5480,
      "Eleanor": 5481,
      "ĠDust": 5482,
      "Ġimportant": 5483,
      "ĠWor": 5484,
      "Ġsug": 5485,
      "ĠPATH": 5486,
      "essie": 5487,
      "enc": 5488,
      "Ġabsence": 5489,
      "ĠPuddle": 5490,
      "Ġcouncil": 5491,
      "[@": 5492,
      "Ġgleaming": 5493,
      "Ġfacility": 5494,
      "Ġcollapsed": 5495,
      "Ġcow": 5496,
      "Ġfold": 5497,
      "Ġcapture": 5498,
      "Ġunpredict": 5499,
      "Ġdestroys": 5500,
      "Ġthroat": 5501,
      "Ġpay": 5502,
      "\\nThey": 5503,
      "Ġduplic": 5504,
      "Ġpuzz": 5505,
      "Ġelite": 5506,
      "Ġwaking": 5507,
      "Ġflame": 5508,
      "Ġhost": 5509,
      "Ġinflu": 5510,
      "()`": 5511,
      "ĠGarden": 5512,
      "ĠHow": 5513,
      "Ġequal": 5514,
      "Ġgather": 5515,
      "Ġpassion": 5516,
      "ormant": 5517,
      "iff": 5518,
      "ĠWarden": 5519,
      "ĠHarrow": 5520,
      "Ã©mence": 5521,
      "Ġinvolved": 5522,
      "ĠMad": 5523,
      "\":\"-": 5524,
      "âĢ¦": 5525,
      "Ġtune": 5526,
      "cHe": 5527,
      "Ġintercept": 5528,
      "Ġdisgu": 5529,
      "Ġlose": 5530,
      "limit": 5531,
      "Ġboss": 5532,
      "da": 5533,
      "ourke": 5534,
      "Ġresponse": 5535,
      "Ġgoal": 5536,
      "Ġhesitates": 5537,
      "Ġmerely": 5538,
      "Ġrepairing": 5539,
      "Ġthin": 5540,
      "Ġgreet": 5541,
      "-se": 5542,
      "mut": 5543,
      "met": 5544,
      "Ġgives": 5545,
      "ĠSpark": 5546,
      "ĠMark": 5547,
      "ĠMidnight": 5548,
      "Ġcruel": 5549,
      "Ġscra": 5550,
      "Ġframe": 5551,
      "loop": 5552,
      "stead": 5553,
      "Ġconsider": 5554,
      "ĠClÃ©mence": 5555,
      "ĠHoney": 5556,
      "iving": 5557,
      "_json": 5558,
      "Ġalley": 5559,
      "ĠWrite": 5560,
      "Ġ$#": 5561,
      "ĠFog": 5562,
      "ĠFrench": 5563,
      "ubb": 5564,
      "outh": 5565,
      "Ġairship": 5566,
      "Ġfeels": 5567,
      "Ġexactly": 5568,
      "Ġlaughter": 5569,
      "phrase": 5570,
      "cWho": 5571,
      "lin": 5572,
      "_logger": 5573,
      "vation": 5574,
      "utal": 5575,
      "Ġbrutal": 5576,
      "ology": 5577,
      "Ġsuc": 5578,
      ".d": 5579,
      "_data": 5580,
      "Ġwooden": 5581,
      "orial": 5582,
      "Ġner": 5583,
      "Ġskater": 5584,
      "Ġwild": 5585,
      "ever": 5586,
      "Ġincre": 5587,
      "Ġdevices": 5588,
      "Ġparser": 5589,
      "Ġbig": 5590,
      "ĠCur": 5591,
      "ĠWicker": 5592,
      "Ġpartner": 5593,
      "Ġfrowned": 5594,
      "Ġsilenced": 5595,
      "Ġcaptures": 5596,
      "Ġ\\\"\\\"\\\"\\": 5597,
      "Ġstandoff": 5598,
      "Start": 5599,
      "osing": 5600,
      "Ġhearts": 5601,
      "Ġhovered": 5602,
      "ĠShadowed": 5603,
      "apped": 5604,
      "Ġcosmos": 5605,
      "Ġimplementation": 5606,
      "(left": 5607,
      "Ġpure": 5608,
      "ules": 5609,
      "Ġaccurate": 5610,
      "(row": 5611,
      "Ġdormant": 5612,
      "Ġunlike": 5613,
      "Ġcrun": 5614,
      "Ġledger": 5615,
      "Ġrecursion": 5616,
      "Ġproto": 5617,
      "Ġprotecting": 5618,
      "Ġmovements": 5619,
      ".value": 5620,
      "item": 5621,
      "(path": 5622,
      "Ġbroke": 5623,
      "ring": 5624,
      "ccer": 5625,
      "Ġsoccer": 5626,
      "Ġ**": 5627,
      "pass": 5628,
      "ĠTide": 5629,
      "Ġhonor": 5630,
      ".time": 5631,
      "Ġenumerate": 5632,
      "zip": 5633,
      "Ġdoctor": 5634,
      "Ġcatastrophe": 5635,
      "Ġrang": 5636,
      "Lira": 5637,
      "Ġwary": 5638,
      "Ġtasks": 5639,
      "Ġconfidence": 5640,
      "Ġreli": 5641,
      "Ġprob": 5642,
      "track": 5643,
      "_a": 5644,
      "Ġless": 5645,
      "Ġblacksmith": 5646,
      "ilize": 5647,
      "Ġtit": 5648,
      "Ġdawn": 5649,
      "Ġenforcers": 5650,
      "Ġtension": 5651,
      "Ġpal": 5652,
      "mbol": 5653,
      "Ġwalk": 5654,
      "Ġburden": 5655,
      "Ġodd": 5656,
      "Ġdoubt": 5657,
      "aning": 5658,
      "Ġsched": 5659,
      ")`": 5660,
      "Ġfasc": 5661,
      "Ġloyalty": 5662,
      "-st": 5663,
      "Ġtucked": 5664,
      "Ġble": 5665,
      "ĠTerry": 5666,
      "ĠInstead": 5667,
      "collap": 5668,
      "ĠCor": 5669,
      "Ġcatchphrase": 5670,
      "parison": 5671,
      "Ġheavens": 5672,
      "ambda": 5673,
      "node": 5674,
      "ĠDict": 5675,
      "cio": 5676,
      "Ġstarted": 5677,
      "yncio": 5678,
      "Ġmouth": 5679,
      "ĠTra": 5680,
      "Ġwasteland": 5681,
      "Ġdebts": 5682,
      "Be": 5683,
      "Ġhumans": 5684,
      "])\\": 5685,
      "fib": 5686,
      "ĠEngine": 5687,
      "Ġbatch": 5688,
      "Ġticked": 5689,
      "Ġinvolving": 5690,
      "ids": 5691,
      "irm": 5692,
      "Ġfeared": 5693,
      "Ġguides": 5694,
      "Ġpassage": 5695,
      "ĠCase": 5696,
      "Ġunderworld": 5697,
      "Ġoperation": 5698,
      "Ġsoon": 5699,
      ">Another": 5700,
      "isdom": 5701,
      "ĠBessie": 5702,
      "(key": 5703,
      "topic": 5704,
      "Ġrink": 5705,
      "Ġtraps": 5706,
      "sorted": 5707,
      "Ġregular": 5708,
      "imum": 5709,
      "(a": 5710,
      "_command": 5711,
      "ĠSomewhere": 5712,
      "Ġrecognizes": 5713,
      "Ġdrink": 5714,
      "Time": 5715,
      "Ġhop": 5716,
      "Ġpossible": 5717,
      "ĠTho": 5718,
      "NT": 5719,
      "ites": 5720,
      "Ġunsure": 5721,
      "Ġmutable": 5722,
      "Ġdam": 5723,
      "Ġprop": 5724,
      "-collap": 5725,
      "town": 5726,
      "\\nimport": 5727,
      "Ġemail": 5728,
      "Ġrare": 5729,
      "Ġscholar": 5730,
      "Ġargs": 5731,
      "Ġstole": 5732,
      "Ġlingered": 5733,
      "Ġinfluence": 5734,
      "Ġtopic": 5735,
      "Ġsparking": 5736,
      "Ġmountains": 5737,
      "Ġpreserve": 5738,
      "Ġwatcher": 5739,
      "hand": 5740,
      "ynam": 5741,
      "inated": 5742,
      "reet": 5743,
      "Ġvillain": 5744,
      "Ġsolution": 5745,
      "Ġload": 5746,
      "hens": 5747,
      "Ġfighting": 5748,
      "ster": 5749,
      "max": 5750,
      "Ġcommunic": 5751,
      "reek": 5752,
      "Ġorbiting": 5753,
      "Ġsabotage": 5754,
      "ĠCreek": 5755,
      "ĠWatchmaker": 5756,
      "under": 5757,
      "ĠCorrupt": 5758,
      "Ġrob": 5759,
      "Ġdoorway": 5760,
      "sync": 5761,
      "orage": 5762,
      "AS": 5763,
      ".children": 5764,
      "wargs": 5765,
      "copy": 5766,
      "Ġhours": 5767,
      "\":{": 5768,
      "utions": 5769,
      "Ġstruck": 5770,
      "Ġsupport": 5771,
      "Ġgenius": 5772,
      "du": 5773,
      "Ġfier": 5774,
      "Ġemploye": 5775,
      "tering": 5776,
      "Ġhit": 5777,
      "ĠVorne": 5778,
      "Ġshared": 5779,
      "-collapse": 5780,
      "Ġmiddle": 5781,
      "ĠMilo": 5782,
      "Ġattacks": 5783,
      "Ġyellow": 5784,
      "ressed": 5785,
      "'''ĊĊ": 5786,
      "Ġpaperclip": 5787,
      "Ġphys": 5788,
      "Ġimage": 5789,
      "Ġterrified": 5790,
      "Ġtheft": 5791,
      "ek": 5792,
      "else": 5793,
      "itect": 5794,
      "ĠMumb": 5795,
      "Ġhourglass": 5796,
      "/n": 5797,
      "\\nS": 5798,
      "Ġsubprocess": 5799,
      "Ġmaps": 5800,
      "Ġshot": 5801,
      "Ġreprogram": 5802,
      "rior": 5803,
      "Ġkne": 5804,
      "Ġobservant": 5805,
      "ĠOffer": 5806,
      "Ġissues": 5807,
      "question": 5808,
      "Ġtil": 5809,
      "uration": 5810,
      "Ġintercepts": 5811,
      "Ġcreatures": 5812,
      "_sum": 5813,
      "Ġmonths": 5814,
      "Ġfisher": 5815,
      "Quote": 5816,
      "Ġmethodical": 5817,
      "Ġwarrior": 5818,
      "stial": 5819,
      "Ġcommander": 5820,
      "ĠShip": 5821,
      "ucker": 5822,
      "Ġpreserved": 5823,
      "Ġtempor": 5824,
      "Ġpackage": 5825,
      "Ġpaused": 5826,
      "Ġpredicts": 5827,
      "ĠEm": 5828,
      "con": 5829,
      "Ġurging": 5830,
      "cNot": 5831,
      "Ġwoods": 5832,
      "Ġscaven": 5833,
      "terms": 5834,
      "Ġcourage": 5835,
      "Ġbeauty": 5836,
      "emon": 5837,
      "Ġhometown": 5838,
      "ĠJorin": 5839,
      "ĠRun": 5840,
      "Ġfray": 5841,
      "Ġprivate": 5842,
      "Ġmix": 5843,
      "Ġawk": 5844,
      "ĠCom": 5845,
      "Ġsalt": 5846,
      "Ġtalent": 5847,
      "dout": 5848,
      "Ġlarger": 5849,
      "Ġkeeping": 5850,
      "Ġcrossed": 5851,
      "Ġnervous": 5852,
      "Ġlistened": 5853,
      "Ġtracking": 5854,
      "THE": 5855,
      "na": 5856,
      "Ġcrimes": 5857,
      "Ġallies": 5858,
      "ĠWhile": 5859,
      "cIf": 5860,
      "Ġcounts": 5861,
      "Ġstate": 5862,
      "Ġspiral": 5863,
      "ĠGearsinger": 5864,
      "Ġcelestial": 5865,
      "ising": 5866,
      "ĠCurious": 5867,
      "Ġclub": 5868,
      "Ġfury": 5869,
      "Ġshatter": 5870,
      ":.": 5871,
      "_x": 5872,
      "hered": 5873,
      "Ġdefinition": 5874,
      "Ġparts": 5875,
      "Ġdrif": 5876,
      "Ġconnected": 5877,
      "Ġdrifting": 5878,
      "'],": 5879,
      "Ġtechnology": 5880,
      "Ġfortune": 5881,
      "Ġthickened": 5882,
      "Ġparch": 5883,
      "Ġparchment": 5884,
      "'Ċ": 5885,
      "Ġsche": 5886,
      "Ġdisappeared": 5887,
      "Ġclever": 5888,
      "_em": 5889,
      "Ġnum": 5890,
      "PUT": 5891,
      "ference": 5892,
      "?\"": 5893,
      "Ġcompre": 5894,
      "Ġdetermine": 5895,
      "'ve": 5896,
      "reb": 5897,
      "irt": 5898,
      "ĠWhispers": 5899,
      "Elena": 5900,
      "ĠDra": 5901,
      "Ġdom": 5902,
      "Ġlim": 5903,
      "Ġknelt": 5904,
      "unker": 5905,
      "eding": 5906,
      "Ġdism": 5907,
      "igy": 5908,
      "Ġclues": 5909,
      "Ġprodigy": 5910,
      "check": 5911,
      "AC": 5912,
      "Ġgrown": 5913,
      "Ġforg": 5914,
      "Ġcompleted": 5915,
      "Ġtalks": 5916,
      "ĠVi": 5917,
      "ĠForge": 5918,
      "Ġbunker": 5919,
      "antom": 5920,
      "ĠTren": 5921,
      "Ġcool": 5922,
      ".'Ċ": 5923,
      "Ġembed": 5924,
      "ruption": 5925,
      "]:\\": 5926,
      "well": 5927,
      "Ġunivers": 5928,
      "Ġfalse": 5929,
      "Ġorgan": 5930,
      "uches": 5931,
      "Ġextra": 5932,
      "Ġjar": 5933,
      "Ġconvin": 5934,
      "upp": 5935,
      "Ġhowled": 5936,
      "Ġspeed": 5937,
      "Ġstruggling": 5938,
      "uis": 5939,
      "Ġpossib": 5940,
      "rebus": 5941,
      "Ġactivated": 5942,
      "ining": 5943,
      "inding": 5944,
      "Ġinvestigator": 5945,
      "Ġgrid": 5946,
      "ieval": 5947,
      "Ġhigher": 5948,
      "Ġmedieval": 5949,
      "Ġglob": 5950,
      "estro": 5951,
      "itted": 5952,
      "ĠHigh": 5953,
      "Ġthreading": 5954,
      "Ġbrushed": 5955,
      "logging": 5956,
      "ician": 5957,
      "Ġimmedi": 5958,
      "tage": 5959,
      "_fact": 5960,
      "Ġtruths": 5961,
      "(*": 5962,
      "arer": 5963,
      "Ġbow": 5964,
      "ĠNina": 5965,
      "ĠGod": 5966,
      "_FILE": 5967,
      "gins": 5968,
      "Ġbattlefield": 5969,
      ".exit": 5970,
      "ym": 5971,
      "dev": 5972,
      "ĠBegins": 5973,
      ".insert": 5974,
      "MD": 5975,
      "Ġappend": 5976,
      "_l": 5977,
      "otions": 5978,
      "Ġemotions": 5979,
      "chemist": 5980,
      "Ġcanvas": 5981,
      "keep": 5982,
      "Cl": 5983,
      "Ġresists": 5984,
      "Ġensuring": 5985,
      "vert": 5986,
      "ĠTower": 5987,
      "ĠInvent": 5988,
      "Class": 5989,
      "Ġlower": 5990,
      "Ġweights": 5991,
      "ĠVirel": 5992,
      "RL": 5993,
      "}:": 5994,
      "ĠLiora": 5995,
      "Ġconsume": 5996,
      "Ġstreams": 5997,
      "Ġmaint": 5998,
      "Ġignored": 5999,
      "():\\": 6000,
      "Ġcolors": 6001,
      "Ġlearning": 6002,
      "orig": 6003,
      "Ġnotice": 6004,
      "plit": 6005,
      "ico": 6006,
      "Ġknapsack": 6007,
      "Ġsimply": 6008,
      "Ġyellowed": 6009,
      "Ġcookie": 6010,
      "aits": 6011,
      "_info": 6012,
      "_store": 6013,
      "kes": 6014,
      "ĠFire": 6015,
      "Ġclouds": 6016,
      "Ġdisappearance": 6017,
      "Ġcrunching": 6018,
      "Ġstorage": 6019,
      "ponents": 6020,
      "Ġprocessing": 6021,
      "Ġpirate": 6022,
      "Ġvow": 6023,
      "Ġmask": 6024,
      "enerator": 6025,
      "Ġresting": 6026,
      "ĠPaper": 6027,
      "Ġcelebr": 6028,
      "Ġrecognized": 6029,
      "fact": 6030,
      "Ġfestival": 6031,
      "Ġasyncio": 6032,
      "Ġkeeps": 6033,
      "_DIR": 6034,
      "Ġheir": 6035,
      "Ġprogramming": 6036,
      "Ġexception": 6037,
      "Ġrepresent": 6038,
      "Ġtrigger": 6039,
      "Ġuniversity": 6040,
      "Ġtunnel": 6041,
      "fer": 6042,
      "Ġtrad": 6043,
      "ishing": 6044,
      "Ġcertainty": 6045,
      "\\nElara": 6046,
      "Ġdeaths": 6047,
      "Ġhush": 6048,
      "entry": 6049,
      "Ġmonarch": 6050,
      "Ġlinked": 6051,
      "Ġdataclass": 6052,
      "ĠKeeper": 6053,
      "Ġlone": 6054,
      "Ġstag": 6055,
      "_kn": 6056,
      "Ġcross": 6057,
      "ĠRh": 6058,
      "Ġmeg": 6059,
      "icy": 6060,
      "Ġglan": 6061,
      "gered": 6062,
      "Ġundo": 6063,
      "ortest": 6064,
      "ĠTrans": 6065,
      "Ġxargs": 6066,
      "Ġfisherman": 6067,
      "Ġunless": 6068,
      "irection": 6069,
      "Ġmechanisms": 6070,
      "cWhy": 6071,
      "eyes": 6072,
      "Ġoffer": 6073,
      "Ġcrit": 6074,
      "arming": 6075,
      "eless": 6076,
      "Ġexisting": 6077,
      "anishing": 6078,
      "Ġcandle": 6079,
      "ĠVanishing": 6080,
      "Ġcurling": 6081,
      "Ġrules": 6082,
      "Ġcomprehens": 6083,
      "io": 6084,
      "_cache": 6085,
      "ingly": 6086,
      "Ġdyst": 6087,
      "Ġeating": 6088,
      "opian": 6089,
      "Ġdystopian": 6090,
      "Ġexplosion": 6091,
      "\"\"\"": 6092,
      "Ġgenerations": 6093,
      "Original": 6094,
      "Ġrede": 6095,
      "âĢ¯": 6096,
      "(d": 6097,
      "ĠAND": 6098,
      "ĠQu": 6099,
      "-in": 6100,
      "Ġredeem": 6101,
      "Ġnested": 6102,
      "ĠDraven": 6103,
      "ijkstra": 6104,
      "Ġut": 6105,
      "Ġfacing": 6106,
      "adox": 6107,
      "_code": 6108,
      "âĢĻd": 6109,
      "ĠTofu": 6110,
      "encies": 6111,
      ".find": 6112,
      "ubborn": 6113,
      "day": 6114,
      "Ġsne": 6115,
      "Ġfeeds": 6116,
      "Ġhushed": 6117,
      "Ġcoord": 6118,
      "ĠWithout": 6119,
      "ological": 6120,
      "ĠIce": 6121,
      "cBecause": 6122,
      "ĠAegis": 6123,
      "ips": 6124,
      "Ġrhythmic": 6125,
      "Ġcatching": 6126,
      "Ġcalculator": 6127,
      "Ġdefied": 6128,
      "Ġremaining": 6129,
      "Ġcorruption": 6130,
      "uing": 6131,
      "ugging": 6132,
      "ĠMaestro": 6133,
      "Ġinj": 6134,
      "Ġcontinued": 6135,
      "Ġactions": 6136,
      "ĠEmp": 6137,
      "Ġsuitcase": 6138,
      "hy": 6139,
      "Ġdrag": 6140,
      "Ġtesting": 6141,
      "Ġreborn": 6142,
      ".name": 6143,
      "ĠTrain": 6144,
      "Ġenters": 6145,
      "Ġcodebase": 6146,
      "Ġdriven": 6147,
      "ump": 6148,
      "Ġdeque": 6149,
      "Ġcli": 6150,
      "_ex": 6151,
      "Ġsnippet": 6152,
      "Ġconductor": 6153,
      "Ġeas": 6154,
      "Ġheapq": 6155,
      "ĠArchive": 6156,
      "igold": 6157,
      "Ġquestioning": 6158,
      "Ġclim": 6159,
      "Ġbrought": 6160,
      "ynamic": 6161,
      "Ġawoke": 6162,
      "ppled": 6163,
      "kwargs": 6164,
      "Ġclothes": 6165,
      ".\\\"\\": 6166,
      "keepers": 6167,
      "Ġlingers": 6168,
      "hood": 6169,
      "Ġruling": 6170,
      "velo": 6171,
      "-h": 6172,
      "\\nclass": 6173,
      "Ġstrike": 6174,
      "Ġjustice": 6175,
      "Ġpurs": 6176,
      "Ġgras": 6177,
      "Ġsought": 6178,
      "Ġarrested": 6179,
      "times": 6180,
      "Ġrev": 6181,
      "Ġteams": 6182,
      "Ġhammering": 6183,
      "Execute": 6184,
      "')\\": 6185,
      "mas": 6186,
      "inging": 6187,
      "Ġsear": 6188,
      "Ġcottage": 6189,
      "Ġcob": 6190,
      "Ġdistorted": 6191,
      "ention": 6192,
      "ĠTides": 6193,
      "elines": 6194,
      "Ġgrab": 6195,
      "Ġbrow": 6196,
      "Ġparent": 6197,
      "Ġes": 6198,
      "Ġvia": 6199,
      "Ġchaotic": 6200,
      "Ġsuspicion": 6201,
      "rat": 6202,
      "Ġdue": 6203,
      "Ġroared": 6204,
      "Ġunique": 6205,
      "-t": 6206,
      "ĠBun": 6207,
      "Ġsinger": 6208,
      "done": 6209,
      "icul": 6210,
      "âĢĶbut": 6211,
      "Ġsight": 6212,
      "Ġmysteriously": 6213,
      "ĠCrow": 6214,
      "Ġsurpr": 6215,
      "Ġartific": 6216,
      "ĠMadame": 6217,
      "Ġtransmit": 6218,
      "Ġtimestamp": 6219,
      ".]<|": 6220,
      "oven": 6221,
      "Ġplaying": 6222,
      "Ġspect": 6223,
      "Ġplanning": 6224,
      "Ġnegative": 6225,
      "Ġshout": 6226,
      "pected": 6227,
      "Ġinsists": 6228,
      "_P": 6229,
      "Ġprotects": 6230,
      "ived": 6231,
      "Ġblinked": 6232,
      "Ġskelet": 6233,
      "Ġbackup": 6234,
      "AN": 6235,
      "wait": 6236,
      "Ġjournalist": 6237,
      "ĠWas": 6238,
      "Ġremove": 6239,
      "Ġdelicate": 6240,
      "Ġport": 6241,
      "Ġitertools": 6242,
      "Ġplaced": 6243,
      "Ġhunger": 6244,
      "lled": 6245,
      "Ġlimit": 6246,
      "Ġentrance": 6247,
      "Ġ:": 6248,
      "Ġsmelled": 6249,
      "Ġwounded": 6250,
      "OUT": 6251,
      "Ġproduct": 6252,
      "ĠOnly": 6253,
      "orter": 6254,
      "Ġcourt": 6255,
      "unned": 6256,
      "Ġloops": 6257,
      "ĠReyes": 6258,
      "loaded": 6259,
      "ann": 6260,
      ",Ċ": 6261,
      "Ġmarked": 6262,
      "={": 6263,
      "Ġresh": 6264,
      "ultiply": 6265,
      "May": 6266,
      "Ġmanor": 6267,
      "Ġblurred": 6268,
      "ently": 6269,
      "eredith": 6270,
      "unged": 6271,
      "Ġasks": 6272,
      "Ġusually": 6273,
      "Ġgoss": 6274,
      "Ġshowing": 6275,
      "Ġgossip": 6276,
      "ĠBullet": 6277,
      "Ġignore": 6278,
      "pid": 6279,
      "ĠDreams": 6280,
      "Ġinvention": 6281,
      "wered": 6282,
      "Ġdetected": 6283,
      "Ġcivilizations": 6284,
      "Ġexplores": 6285,
      "Ġdrifted": 6286,
      "ternity": 6287,
      "Ġknock": 6288,
      "gress": 6289,
      "aving": 6290,
      "oleum": 6291,
      "cD": 6292,
      "_numbers": 6293,
      "Ġexecuted": 6294,
      "ĠEngineer": 6295,
      "new": 6296,
      "ales": 6297,
      ".de": 6298,
      "min": 6299,
      "wal": 6300,
      "Ġtreat": 6301,
      "uits": 6302,
      "Ġfresh": 6303,
      "ĠLana": 6304,
      "ĠTucker": 6305,
      "irth": 6306,
      "Ġshimmering": 6307,
      "enna": 6308,
      "Ġdates": 6309,
      "Ġcolony": 6310,
      "Ġang": 6311,
      "Ġyield": 6312,
      "Ġreturning": 6313,
      "Ġstunned": 6314,
      "rix": 6315,
      "Ġchildhood": 6316,
      "Ġmergesort": 6317,
      "Ġinteger": 6318,
      "ĠOffice": 6319,
      "Ġllist": 6320,
      "Ġdeeply": 6321,
      "Ġsung": 6322,
      "_y": 6323,
      "Ġlayers": 6324,
      "Ġevening": 6325,
      "Ġbodies": 6326,
      "Mira": 6327,
      "eq": 6328,
      "Ġtears": 6329,
      "loved": 6330,
      "istic": 6331,
      "icist": 6332,
      "Ġlaws": 6333,
      "]]": 6334,
      "fall": 6335,
      "Ġinformant": 6336,
      "Ġdance": 6337,
      "Ġconfusion": 6338,
      "Ġgovernor": 6339,
      "ED": 6340,
      "inc": 6341,
      "ĠSet": 6342,
      "osp": 6343,
      "Ġscreamed": 6344,
      "ints": 6345,
      "rength": 6346,
      "ĠJourn": 6347,
      "Ġordinary": 6348,
      "cThat": 6349,
      "Ġrig": 6350,
      "usoleum": 6351,
      "Ġzip": 6352,
      "(r": 6353,
      "ype": 6354,
      "utes": 6355,
      "weight": 6356,
      "ĠCH": 6357,
      "Ġtam": 6358,
      "iculous": 6359,
      "Ġbrink": 6360,
      "mid": 6361,
      "itions": 6362,
      "ender": 6363,
      "Ġann": 6364,
      "Ġsufficient": 6365,
      "Ġbridgekeeper": 6366,
      "vath": 6367,
      "_str": 6368,
      "ĠRourke": 6369,
      "queens": 6370,
      "\"{": 6371,
      "Ġsoot": 6372,
      "Ġcondition": 6373,
      "Ġinherits": 6374,
      "'m": 6375,
      "Ġcracks": 6376,
      "vide": 6377,
      "Ġperhaps": 6378,
      "Ġfirm": 6379,
      "quis": 6380,
      "âĢĻll": 6381,
      "Ġsighed": 6382,
      "url": 6383,
      "Ġrot": 6384,
      "Ġnp": 6385,
      "Ġscrol": 6386,
      "Ġtowering": 6387,
      "Ġdesigned": 6388,
      "apacity": 6389,
      "Ġbusiness": 6390,
      "inst": 6391,
      "Ġborn": 6392,
      "Ġbecame": 6393,
      "Ġquickly": 6394,
      "Ġ\"#!/": 6395,
      "Ġloves": 6396,
      "Ne": 6397,
      "Ġstrength": 6398,
      "ĠReturns": 6399,
      "Ġcontext": 6400,
      "-smart": 6401,
      "Ġlonely": 6402,
      "Ġstabilize": 6403,
      "Ġhelped": 6404,
      "now": 6405,
      "ĠSolen": 6406,
      "IG": 6407,
      "aphis": 6408,
      "[root": 6409,
      "func": 6410,
      "Ġfearing": 6411,
      "Ġtemporary": 6412,
      "Th": 6413,
      "Ġcolder": 6414,
      "paring": 6415,
      "Enter": 6416,
      "Ġunion": 6417,
      "Ġguiding": 6418,
      "Ġdemonstrates": 6419,
      "lications": 6420,
      "ĠEr": 6421,
      "ĠLuis": 6422,
      "Ġrumors": 6423,
      "MO": 6424,
      "Shell": 6425,
      "Ġmage": 6426,
      "ĠEmb": 6427,
      "Ġnarrowed": 6428,
      "âĢĻm": 6429,
      "Ġlooks": 6430,
      "ĠTransmission": 6431,
      "_check": 6432,
      "Ġsurge": 6433,
      "Ġorigin": 6434,
      "Ġtattered": 6435,
      "Ġpartial": 6436,
      "Ġshaking": 6437,
      "Ġcoordinates": 6438,
      "Ġredu": 6439,
      "iphon": 6440,
      "Ġpos": 6441,
      "Ġplants": 6442,
      "Ġtall": 6443,
      "bench": 6444,
      ".rank": 6445,
      "Ġpot": 6446,
      "Ġgeneration": 6447,
      "ĠCurator": 6448,
      "istoc": 6449,
      "criptor": 6450,
      "Ġaristoc": 6451,
      "afe": 6452,
      "ĠPh": 6453,
      "Ġskeletal": 6454,
      "ĠPorridge": 6455,
      "Ġdrawing": 6456,
      "procket": 6457,
      "Ġweren": 6458,
      "}')Ċ": 6459,
      "Ġtones": 6460,
      "Ġdeception": 6461,
      "ĠPhantom": 6462,
      "adia": 6463,
      "Ġquite": 6464,
      "Ġtremor": 6465,
      "Ġcolor": 6466,
      "Ġpaintings": 6467,
      "Ġbench": 6468,
      "Ġuncle": 6469,
      "Ġaristocrat": 6470,
      "Ġguarded": 6471,
      "Ġpromises": 6472,
      "bro": 6473,
      "Ġcontra": 6474,
      "ĠSeraphis": 6475,
      "shell": 6476,
      "cial": 6477,
      "(x": 6478,
      "Ġadj": 6479,
      "/null": 6480,
      "ilities": 6481,
      "ĠFate": 6482,
      "apot": 6483,
      "Ġ{'": 6484,
      "ĠWhisker": 6485,
      "Ġfoc": 6486,
      "Ġhits": 6487,
      "target": 6488,
      "Ġshowed": 6489,
      "Ġdismiss": 6490,
      "Ġpathlib": 6491,
      "Ġspinning": 6492,
      "Ġstraight": 6493,
      "Ġtilted": 6494,
      "Ġ</": 6495,
      "chie": 6496,
      "Ġinternally": 6497,
      "FO": 6498,
      "Ġswirling": 6499,
      "Ġdimmed": 6500,
      "Ġcollections": 6501,
      "Ġembedded": 6502,
      "Ġmother": 6503,
      "ĠAshes": 6504,
      "walk": 6505,
      "ism": 6506,
      "Ġdut": 6507,
      "Ġdestroying": 6508,
      "Ġduty": 6509,
      "venv": 6510,
      "essage": 6511,
      "Ġouts": 6512,
      "Ġplot": 6513,
      "SH": 6514,
      "room": 6515,
      "Ġprobably": 6516,
      "Ġhunched": 6517,
      "tens": 6518,
      "afael": 6519,
      ".log": 6520,
      "Ġloses": 6521,
      "Ġflash": 6522,
      "ythion": 6523,
      "ĠErythion": 6524,
      "Ġmale": 6525,
      "ifted": 6526,
      "ĠJo": 6527,
      "ookie": 6528,
      "Ġregret": 6529,
      "ĠCookie": 6530,
      "lower": 6531,
      "Ġpointing": 6532,
      "Ġwindows": 6533,
      "\\nfrom": 6534,
      "Ġgasped": 6535,
      "Ġpanel": 6536,
      "Ġquir": 6537,
      "Ġbacktrack": 6538,
      "].": 6539,
      "Ġstrand": 6540,
      "Formula": 6541,
      "ĠHoneycomb": 6542,
      "Ġrisking": 6543,
      "ĠSnack": 6544,
      "hello": 6545,
      "Ġventures": 6546,
      "ĠSprocket": 6547,
      "ĠMeredith": 6548,
      "ĠNico": 6549,
      "Ġresistance": 6550,
      "_len": 6551,
      "Ġcorridor": 6552,
      "ĠEye": 6553,
      "Ġtide": 6554,
      "Ġsomehow": 6555,
      "Ġunset": 6556,
      "ĠBard": 6557,
      "Ġsomewhere": 6558,
      "Ġsummon": 6559,
      "Ġpreviously": 6560,
      "Ġcrashes": 6561,
      "Ġemerges": 6562,
      "Ġrecognize": 6563,
      "Ġsession": 6564,
      "_csv": 6565,
      "Ġsettling": 6566,
      "Ġhissed": 6567,
      "Ġinvestigation": 6568,
      "ĠShattered": 6569,
      "Ġnobleman": 6570,
      "ĠEn": 6571,
      "Report": 6572,
      "Ġquirky": 6573,
      "Ġguilt": 6574,
      "Ġcaused": 6575,
      "Ġsof": 6576,
      "Ġcoded": 6577,
      "ĠClocks": 6578,
      "ĠMoonlight": 6579,
      "Ġresets": 6580,
      "Ġbak": 6581,
      "Ġq": 6582,
      "ĠEnd": 6583,
      "_and": 6584,
      "Ġstubborn": 6585,
      "Ġhungry": 6586,
      "Ġcities": 6587,
      "Ġlookup": 6588,
      "Ġtested": 6589,
      "Ġstaggered": 6590,
      "Ġskate": 6591,
      "urch": 6592,
      "ĠRafael": 6593,
      "Ġfunctools": 6594,
      "hest": 6595,
      "Ġuncovered": 6596,
      "icking": 6597,
      "neighbor": 6598,
      "Ġseparate": 6599,
      "expected": 6600,
      "Ġbakery": 6601,
      "Ġstatement": 6602,
      "Ġstandard": 6603,
      "ĠTale": 6604,
      "Ġcommunicate": 6605,
      "ĠPID": 6606,
      ")s": 6607,
      "what": 6608,
      "Your": 6609,
      "Ġworkbench": 6610,
      "tw": 6611,
      "Ġmuse": 6612,
      "Ġhull": 6613,
      "bled": 6614,
      "Ġcasc": 6615,
      "Ġencoding": 6616,
      "ĠCop": 6617,
      "Ġcases": 6618,
      "-for": 6619,
      "_man": 6620,
      "Ġneeds": 6621,
      "Ġinstr": 6622,
      "ĠFracture": 6623,
      "Ġsuff": 6624,
      "Ġmerged": 6625,
      "Ġstrict": 6626,
      "piece": 6627,
      "Ġhealth": 6628,
      "Ġsend": 6629,
      "Ġresil": 6630,
      "Ġhabit": 6631,
      "Ġreaches": 6632,
      "ĠNothing": 6633,
      "Ġspun": 6634,
      "Ġpray": 6635,
      "ĠLeader": 6636,
      "ĠHowever": 6637,
      "ik": 6638,
      ".csv": 6639,
      "Ġpursued": 6640,
      "Ġawait": 6641,
      "Ġtyr": 6642,
      "âĢĶa": 6643,
      "})": 6644,
      "Ġspecial": 6645,
      "Ġenig": 6646,
      "umsy": 6647,
      "Ġprovide": 6648,
      "Ġclumsy": 6649,
      "Ġfleet": 6650,
      "ĠRhys": 6651,
      "lr": 6652,
      "original": 6653,
      "ĠErebus": 6654,
      "Ġending": 6655,
      "Com": 6656,
      "wall": 6657,
      "Ġdecision": 6658,
      "Ġattribute": 6659,
      "Ġentries": 6660,
      "ĠOn": 6661,
      "Ġclutching": 6662,
      "ĠMumblr": 6663,
      "uist": 6664,
      "sec": 6665,
      "ĠTicks": 6666,
      ".__": 6667,
      "ĠNadia": 6668,
      "Ġserve": 6669,
      "Ġiterator": 6670,
      "local": 6671,
      "strings": 6672,
      "lder": 6673,
      "ĠZyr": 6674,
      "Ġwoven": 6675,
      "Ġhive": 6676,
      "Ġdefine": 6677,
      "avor": 6678,
      "Ġpainted": 6679,
      "Ġsoften": 6680,
      "Name": 6681,
      "Ġbelongs": 6682,
      "Ġ{\\": 6683,
      "Ġalleys": 6684,
      "ĠInventive": 6685,
      "Ġassess": 6686,
      "Ġduelist": 6687,
      "Ġweaving": 6688,
      "versal": 6689,
      "Ġcauses": 6690,
      "mark": 6691,
      "Ġletting": 6692,
      "ĠThief": 6693,
      "Ġtouches": 6694,
      "Ġmodern": 6695,
      "ĠSecrets": 6696,
      "Ġrealize": 6697,
      "-forgotten": 6698,
      "ilas": 6699,
      "Ġyourself": 6700,
      "_output": 6701,
      "ameter": 6702,
      "Ġanswered": 6703,
      "Ġfootst": 6704,
      "ĠQuill": 6705,
      "Ġfields": 6706,
      "Ġbent": 6707,
      "Ġjobs": 6708,
      "ĠSilly": 6709,
      "['": 6710,
      "Ġsends": 6711,
      "istle": 6712,
      "'''\\": 6713,
      "ĠLanterns": 6714,
      "pes": 6715,
      "ĠHart": 6716,
      "Ġgreen": 6717,
      "(value": 6718,
      "Ġwisdom": 6719,
      "Ġdescended": 6720,
      "Ġexisted": 6721,
      "cles": 6722,
      "Ġtuple": 6723,
      "aily": 6724,
      "Query": 6725,
      "RO": 6726,
      "Ġflour": 6727,
      "Ġuploaded": 6728,
      "}}}}Ċ": 6729,
      "],\"": 6730,
      "\":[],\"": 6731,
      "\":{}}}}Ċ": 6732,
      "ĠEmber": 6733,
      "ĠBall": 6734,
      "Ġglimpses": 6735,
      "Ġcentury": 6736,
      "itched": 6737,
      ")\",": 6738,
      "Ġalliance": 6739,
      "Hello": 6740,
      "Ġimmediately": 6741,
      "()ĊĊ": 6742,
      "Ġtrie": 6743,
      "iful": 6744,
      "andy": 6745,
      "Ġasync": 6746,
      "Ġwiz": 6747,
      "ĠEnglish": 6748,
      "Ġcalculating": 6749,
      "APTER": 6750,
      "Ġfarm": 6751,
      "Ġcutting": 6752,
      "Ġzero": 6753,
      "(func": 6754,
      "Ġticks": 6755,
      "Ġchurch": 6756,
      "Ġsoftly": 6757,
      "enched": 6758,
      "Ġunmake": 6759,
      "LOG": 6760,
      "Ġservant": 6761,
      "Ġprovides": 6762,
      "ĠMarigold": 6763,
      "Ġglobal": 6764,
      "Ġgri": 6765,
      "Ġshown": 6766,
      "ĠUnion": 6767,
      "ĠEternity": 6768,
      "())Ċ": 6769,
      "Ġsometimes": 6770,
      "ĠHarm": 6771,
      "Ġouter": 6772,
      "Ġchime": 6773,
      "Ġdimly": 6774,
      "gree": 6775,
      "Ġfilename": 6776,
      "Ġperformer": 6777,
      "Ġeerily": 6778,
      "Ġbreathe": 6779,
      "Ġbeautiful": 6780,
      "Ġware": 6781,
      "Ġbloom": 6782,
      "Ġ'{": 6783,
      "Ġflin": 6784,
      "umeric": 6785,
      "uffin": 6786,
      "Ġwarehouse": 6787,
      "Ġapartment": 6788,
      "ĠDusty": 6789,
      "Ġfights": 6790,
      "Ġgrabbed": 6791,
      "Ġcomb": 6792,
      "bern": 6793,
      "\\nfi": 6794,
      "ĠFax": 6795,
      "Ġorders": 6796,
      "ĠPriestess": 6797,
      "bernetic": 6798,
      "Ġreven": 6799,
      "Ġrevenge": 6800,
      "sembles": 6801,
      "Ġ$(": 6802,
      "Ġseeds": 6803,
      "ĠFile": 6804,
      "arnaby": 6805,
      "Ġrather": 6806,
      "versed": 6807,
      "Ġreminder": 6808,
      "ĠYogurt": 6809,
      "quisitive": 6810,
      "ovement": 6811,
      "Ġlinks": 6812,
      "Ġmourn": 6813,
      "Ġpreserving": 6814,
      "Ġpanic": 6815,
      "Ġwaits": 6816,
      "Ġbrave": 6817,
      "ĠĠĠĠĊ": 6818,
      "Ġcharming": 6819,
      "Ġruin": 6820,
      "Ġindices": 6821,
      "Ġrecorded": 6822,
      "ĠVision": 6823,
      "Ġshock": 6824,
      "reshold": 6825,
      "Ġvengeance": 6826,
      "urope": 6827,
      "Ġdart": 6828,
      "script": 6829,
      "Ġglint": 6830,
      "ĠZylo": 6831,
      "Ġways": 6832,
      "ĠKey": 6833,
      "Ġhaving": 6834,
      "cessing": 6835,
      "Ġguy": 6836,
      "Ġcomparison": 6837,
      ".com": 6838,
      "ĠChild": 6839,
      "Ġmegacity": 6840,
      "Ġdrown": 6841,
      "ĠEurope": 6842,
      "Ġurgent": 6843,
      "IC": 6844,
      "_exec": 6845,
      "Ġcynical": 6846,
      "ĠUsing": 6847,
      "missions": 6848,
      "corator": 6849,
      "ĠMin": 6850,
      "ĠDFS": 6851,
      "Ġerupted": 6852,
      "(text": 6853,
      "csv": 6854,
      "\\nN": 6855,
      "Ġneither": 6856,
      "Ġquotes": 6857,
      "utf": 6858,
      "ulate": 6859,
      "alys": 6860,
      "Ġdefenses": 6861,
      "derr": 6862,
      "Ġrocks": 6863,
      "Ġtimekeepers": 6864,
      "Ġtear": 6865,
      "ellig": 6866,
      "Ġcolonies": 6867,
      "Ġelect": 6868,
      "\\nLila": 6869,
      "Check": 6870,
      "Ġclenched": 6871,
      "Ġpolished": 6872,
      "ĠRiddle": 6873,
      "Ġrely": 6874,
      "Ġmurmur": 6875,
      "illusioned": 6876,
      "ĠBallad": 6877,
      "Ġcircuits": 6878,
      "Ġpractice": 6879,
      "Ġaltar": 6880,
      "_copy": 6881,
      "Ġview": 6882,
      "rigued": 6883,
      "Ġsettle": 6884,
      "PU": 6885,
      "Ġshel": 6886,
      "Ġresolve": 6887,
      "Ġwizard": 6888,
      "sure": 6889,
      "Ġdropped": 6890,
      "iers": 6891,
      "ĠRes": 6892,
      "Ġblocked": 6893,
      "Ġtar": 6894,
      "ergus": 6895,
      "Ġforged": 6896,
      "Ġstores": 6897,
      "isual": 6898,
      "Ġplans": 6899,
      "Ġswim": 6900,
      "Ġscramb": 6901,
      "gy": 6902,
      "iction": 6903,
      "Ġoverth": 6904,
      "ils": 6905,
      "Ġbreathing": 6906,
      "\\nAnd": 6907,
      "Ġtimid": 6908,
      "ĠWordless": 6909,
      "Ġcomprehension": 6910,
      "ĠStart": 6911,
      "txt": 6912,
      "IS": 6913,
      "unch": 6914,
      "ĠCow": 6915,
      "Ġchallenge": 6916,
      "Ġtechnician": 6917,
      "chen": 6918,
      "kill": 6919,
      "Ġaccurately": 6920,
      "fort": 6921,
      "source": 6922,
      "ĠTrie": 6923,
      "_on": 6924,
      "Ġmusicians": 6925,
      "Ġdefy": 6926,
      "Ġfails": 6927,
      "Ġunease": 6928,
      "ĠDo": 6929,
      "cially": 6930,
      "Ġcareer": 6931,
      "CHAPTER": 6932,
      "Ġperforms": 6933,
      "Ġenigmatic": 6934,
      "ĠSkyfish": 6935,
      "iper": 6936,
      "tled": 6937,
      "Ġtast": 6938,
      "Ġlegendary": 6939,
      "emonstrates": 6940,
      "Ġwheel": 6941,
      "Ġinterpre": 6942,
      "Ġsettles": 6943,
      "Ġconcert": 6944,
      "Ġbst": 6945,
      "Ġresonant": 6946,
      "\\nE": 6947,
      "Help": 6948,
      "Ġfists": 6949,
      "ĠCreate": 6950,
      "Ġmatter": 6951,
      "bound": 6952,
      "ishop": 6953,
      "Ġhills": 6954,
      "uable": 6955,
      "ĠBridge": 6956,
      "Ġvaluable": 6957,
      "ailable": 6958,
      "Ġpriority": 6959,
      "Ġunravels": 6960,
      "alph": 6961,
      "etrieve": 6962,
      ".MD": 6963,
      "Ġseas": 6964,
      "Ġsoundless": 6965,
      "printf": 6966,
      "uples": 6967,
      "Ġvisit": 6968,
      "ĠShow": 6969,
      "pecially": 6970,
      "Ġconfirmed": 6971,
      "ĠBunsy": 6972,
      "Ġunle": 6973,
      "Ġgifted": 6974,
      "ĠCoun": 6975,
      "ĠBarnaby": 6976,
      "Ġshoulder": 6977,
      "_stats": 6978,
      "ository": 6979,
      "ĠEmperor": 6980,
      "iso": 6981,
      "ĠGrant": 6982,
      "ĠJoe": 6983,
      "Ġreport": 6984,
      "ĠThomas": 6985,
      "Ġdfs": 6986,
      "Ġflag": 6987,
      "Ġfrayed": 6988,
      "ĠDusk": 6989,
      ".set": 6990,
      "urbed": 6991,
      "Ġdiscovery": 6992,
      "US": 6993,
      "ĠOF": 6994,
      "Ġparameter": 6995,
      "Dr": 6996,
      "Ġpop": 6997,
      "Ġstake": 6998,
      "---": 6999,
      "anging": 7000,
      "Ġdarker": 7001,
      "Ġcharg": 7002,
      "ibly": 7003,
      "ĠHere": 7004,
      "Ġsurvivors": 7005,
      "Ġrepository": 7006,
      "ĠCounty": 7007,
      "Ġinclude": 7008,
      "ĠLeak": 7009,
      "Ġoccurrences": 7010,
      "Ġthinking": 7011,
      "wra": 7012,
      "Ġec": 7013,
      "-%": 7014,
      "Ġweathered": 7015,
      "Ġdiary": 7016,
      "alysis": 7017,
      "ithered": 7018,
      "leaner": 7019,
      ".pop": 7020,
      "Ġbroadcasts": 7021,
      "Ġensues": 7022,
      "ĠLullaby": 7023,
      "Ġanimal": 7024,
      "ĠStreet": 7025,
      "Ġpassing": 7026,
      "(sample": 7027,
      "Ġautomatons": 7028,
      "Ġmyth": 7029,
      "Ġdisc": 7030,
      "Ġcryst": 7031,
      "adium": 7032,
      "odes": 7033,
      "Ġsolutions": 7034,
      "Ġknees": 7035,
      "=None": 7036,
      "Ġbasement": 7037,
      "Ġvisible": 7038,
      "Ġsays": 7039,
      "Ġrobotic": 7040,
      "atory": 7041,
      "Que": 7042,
      "Ġsle": 7043,
      "ĠBishop": 7044,
      "Ġ{}": 7045,
      "Ġpoet": 7046,
      ".run": 7047,
      "Ġpuzzle": 7048,
      "[x": 7049,
      "Ġparadox": 7050,
      "Ġcorners": 7051,
      "Ġdragon": 7052,
      "matics": 7053,
      "Ġpleading": 7054,
      "Ġschematics": 7055,
      "Ġess": 7056,
      "Ġfal": 7057,
      "Ġbrief": 7058,
      "Ġfurrow": 7059,
      "Ġunpredictably": 7060,
      "Ġchains": 7061,
      "ĠFore": 7062,
      "Ġsever": 7063,
      "Ġrelease": 7064,
      "Ġfracture": 7065,
      ">Perhaps": 7066,
      "Ġstadium": 7067,
      "Ġquant": 7068,
      "inished": 7069,
      "Ġwalking": 7070,
      "Ġprodu": 7071,
      "mon": 7072,
      "Ġhermit": 7073,
      "Ġstilled": 7074,
      "ARG": 7075,
      "')ĊĊ": 7076,
      "orrin": 7077,
      "Ġdynamic": 7078,
      "Ġfeeding": 7079,
      "ĠWren": 7080,
      "Ġapproaches": 7081,
      "Ġchurn": 7082,
      "htt": 7083,
      "ĠVienna": 7084,
      "lambda": 7085,
      "Ġine": 7086,
      "iform": 7087,
      "Ġdisk": 7088,
      "ĠRec": 7089,
      "Ġbuilding": 7090,
      "Ġnest": 7091,
      "Ġresc": 7092,
      "Ġunittest": 7093,
      "Ġthese": 7094,
      "'],Ċ": 7095,
      "Ġopp": 7096,
      "Ġautomatically": 7097,
      "Ġaver": 7098,
      "stro": 7099,
      "Ġexecution": 7100,
      ").Ċ": 7101,
      "Ġpassen": 7102,
      "Ġtwisting": 7103,
      "Ġsed": 7104,
      "Ġdanced": 7105,
      "ĠRafe": 7106,
      "Ġartist": 7107,
      "mes": 7108,
      "Ġwarlord": 7109,
      "Ġdirection": 7110,
      "-sh": 7111,
      "ĠLore": 7112,
      "atus": 7113,
      "tmp": 7114,
      "EN": 7115,
      "Ġdrowned": 7116,
      "Ġheight": 7117,
      "Ġflared": 7118,
      "Ġrepeated": 7119,
      "Ġaching": 7120,
      "Ġlaughed": 7121,
      "Ġorche": 7122,
      "rows": 7123,
      "Ġorchestr": 7124,
      "irectory": 7125,
      "allel": 7126,
      "Ġdepends": 7127,
      "Retrieve": 7128,
      "asic": 7129,
      "Ġreshape": 7130,
      "/value": 7131,
      "Ġsigh": 7132,
      "Ġdevelo": 7133,
      "Ġdisrupt": 7134,
      "Ġaddress": 7135,
      "Ġperformed": 7136,
      "\\nV": 7137,
      "Ġpieces": 7138,
      "ounted": 7139,
      "Ġallowing": 7140,
      "Ġthreshold": 7141,
      "Ġpreparing": 7142,
      "Ġmemoization": 7143,
      "Ins": 7144,
      "ION": 7145,
      "ĠWitch": 7146,
      "Ġargparse": 7147,
      "Ġadds": 7148,
      "Ġsen": 7149,
      "Ġwings": 7150,
      "ulsion": 7151,
      "Ġ`-": 7152,
      "stry": 7153,
      "Ġcontinues": 7154,
      "Ġthunder": 7155,
      "Ġuniform": 7156,
      "putation": 7157,
      "_run": 7158,
      "Ġrelative": 7159,
      "HO": 7160,
      "mosp": 7161,
      "Ġglowed": 7162,
      "Ġpoints": 7163,
      "Ġsync": 7164,
      "slot": 7165,
      "Ġweak": 7166,
      "Ġshadowed": 7167,
      "Ġlogger": 7168,
      "Ġguided": 7169,
      "Ġhaunting": 7170,
      "_array": 7171,
      "Ġcompare": 7172,
      "Ġmode": 7173,
      "Ġcoll": 7174,
      "Ġatmosp": 7175,
      "Ġdistances": 7176,
      "Maybe": 7177,
      "Ġdusk": 7178,
      "Ġtea": 7179,
      "Ġ&&": 7180,
      "ork": 7181,
      "istak": 7182,
      "Ġunmistak": 7183,
      "(right": 7184,
      "_per": 7185,
      "ĠSp": 7186,
      "\\necho": 7187,
      "Ġshortest": 7188,
      "Ġdatetime": 7189,
      "ĠEX": 7190,
      "ĠCheck": 7191,
      "Ġcreak": 7192,
      "Ġprogress": 7193,
      "ĠVeyna": 7194,
      "ĠBlackth": 7195,
      "Ġrolled": 7196,
      "Ġlying": 7197,
      "Ġtransl": 7198,
      "eker": 7199,
      "Ġwield": 7200,
      "Ġpow": 7201,
      "Ġlikely": 7202,
      "Ġintegers": 7203,
      "-seeker": 7204,
      "Ġcruci": 7205,
      "Ġintact": 7206,
      "Ġcrucial": 7207,
      "Ġera": 7208,
      "fession": 7209,
      "\")": 7210,
      "'.": 7211,
      "ĠCEO": 7212,
      "Ġdisguised": 7213,
      "Ġtail": 7214,
      "Ġtape": 7215,
      "Ġball": 7216,
      "Ġdir": 7217,
      "job": 7218,
      "Ġdesperation": 7219,
      "ĠForest": 7220,
      "ĠZion": 7221,
      "ĠWhy": 7222,
      "Ġgun": 7223,
      "merge": 7224,
      "bang": 7225,
      "ĠMore": 7226,
      "Ġriddle": 7227,
      "_decorator": 7228,
      "Ġskeptic": 7229,
      "ĠUnseen": 7230,
      "Ġunleashed": 7231,
      "girl": 7232,
      "Ġcure": 7233,
      "Ġexplains": 7234,
      "Echo": 7235,
      "ynn": 7236,
      "Ġshowgirl": 7237,
      "alloway": 7238,
      "Ġtangled": 7239,
      "extend": 7240,
      "Ġassign": 7241,
      "ĠMercenary": 7242,
      "rocessing": 7243,
      "ĠTalia": 7244,
      "Ġunexpected": 7245,
      "Ġ((": 7246,
      "Ġmeetings": 7247,
      "Ġdefeat": 7248,
      "icksort": 7249,
      "Ġatmosphere": 7250,
      "Ġaffect": 7251,
      "Ġquietly": 7252,
      "\\\"\\\"": 7253,
      "Ġsorrowful": 7254,
      "Ġsolved": 7255,
      "ĠSeraphine": 7256,
      "Ġleather": 7257,
      "licing": 7258,
      "Ġpropulsion": 7259,
      "Ġsubstring": 7260,
      "Ġsliding": 7261,
      "Ġarchitect": 7262,
      "Ġslumber": 7263,
      "fits": 7264,
      "oured": 7265,
      "ĠLang": 7266,
      "ĠMont": 7267,
      "Ġsaying": 7268,
      "ĠST": 7269,
      "EC": 7270,
      "ĠYet": 7271,
      "unches": 7272,
      ")\"}}Ċ": 7273,
      "_env": 7274,
      "ĠBud": 7275,
      "ĠPact": 7276,
      "Ġdefeated": 7277,
      "imple": 7278,
      "Ġmusical": 7279,
      "Ġwip": 7280,
      "umns": 7281,
      "Ġsym": 7282,
      "Ġband": 7283,
      "ĠStand": 7284,
      "asked": 7285,
      "Ġstair": 7286,
      "unning": 7287,
      "Ġmetall": 7288,
      "Ġhearing": 7289,
      "Ġbuildings": 7290,
      "Ġencry": 7291,
      "ĠOutlaw": 7292,
      "Ġknack": 7293,
      "ĠLetter": 7294,
      ".write": 7295,
      "_col": 7296,
      "Ġoverhe": 7297,
      "ĠYears": 7298,
      "Ġoptim": 7299,
      "zing": 7300,
      "ĠSun": 7301,
      "Ġbigger": 7302,
      "MOTE": 7303,
      "Ġhilt": 7304,
      "era": 7305,
      "New": 7306,
      "Ġgust": 7307,
      "Ġlunged": 7308,
      "ĠOrion": 7309,
      "ĠKid": 7310,
      "Ġ//": 7311,
      "instance": 7312,
      "ented": 7313,
      "ays": 7314,
      "Ġconsumes": 7315,
      "[T": 7316,
      "_un": 7317,
      "ĠCO": 7318,
      "=(": 7319,
      "Ġthreatening": 7320,
      "Ġsens": 7321,
      "Ġgate": 7322,
      "fection": 7323,
      "Ġchees": 7324,
      "Ġmechanic": 7325,
      "values": 7326,
      "Ġfloorboard": 7327,
      "Ġespecially": 7328,
      "Ġtapestry": 7329,
      "Alice": 7330,
      "Ġdread": 7331,
      "ifying": 7332,
      "Ġjam": 7333,
      "Ġsaves": 7334,
      "num": 7335,
      "Ġinh": 7336,
      "Ġlaunches": 7337,
      "Ġactive": 7338,
      "Ġsupplies": 7339,
      "Ġburst": 7340,
      "Ġbitter": 7341,
      "apple": 7342,
      "_words": 7343,
      "Ġmaze": 7344,
      "ĠWindkeeper": 7345,
      "Ġresponding": 7346,
      "Ġavailable": 7347,
      "Ġgrasp": 7348,
      "Ġimplications": 7349,
      "Ġcommunity": 7350,
      "Ġchip": 7351,
      "Ġreadable": 7352,
      "Ġmausoleum": 7353,
      "Ġmetallic": 7354,
      "Ġreally": 7355,
      "Ġtopological": 7356,
      "Ġblank": 7357,
      "Ġearly": 7358,
      "usage": 7359,
      "Ġentangled": 7360,
      "Ġunraveled": 7361,
      "ĠNora": 7362,
      ".copy": 7363,
      "Ġsails": 7364,
      "Fetch": 7365,
      "ĠBFS": 7366,
      "âĢĶor": 7367,
      "_generator": 7368,
      "prod": 7369,
      "ĠEarthmother": 7370,
      "Pr": 7371,
      "Ġcal": 7372,
      "Ġhair": 7373,
      "Ġhandling": 7374,
      "Ġcron": 7375,
      "ĠConfession": 7376,
      "Ġconvinced": 7377,
      "itchen": 7378,
      "Ġkitchen": 7379,
      "\\nThen": 7380,
      "Ġdefaultdict": 7381,
      "Ġmanipulated": 7382,
      "ĠAlways": 7383,
      "ĠTeam": 7384,
      "Ġsick": 7385,
      ".b": 7386,
      "Multiply": 7387,
      "Ġendlessly": 7388,
      "ĠMiso": 7389,
      "Ġinnoc": 7390,
      "ĠTrail": 7391,
      "Ġordered": 7392,
      "Path": 7393,
      "Ġsenses": 7394,
      "Ġpowered": 7395,
      "Ġgenerate": 7396,
      "eral": 7397,
      "essed": 7398,
      "Ġtrouble": 7399,
      "MA": 7400,
      "Ġplaces": 7401,
      "Ġassass": 7402,
      "Ġstayed": 7403,
      "Ġpuffin": 7404,
      "ĠForm": 7405,
      "Ġyours": 7406,
      "centric": 7407,
      "ĠGrave": 7408,
      "Sh": 7409,
      "Ġshaped": 7410,
      "Ġfill": 7411,
      "ĠCalm": 7412,
      "ĠSyl": 7413,
      "Ġprayer": 7414,
      "Ġpried": 7415,
      "Ġoldest": 7416,
      "ĠWorks": 7417,
      "Ġ[]\\": 7418,
      "Ġsmaller": 7419,
      "Ġmodified": 7420,
      "port": 7421,
      "rew": 7422,
      "ĠPuddles": 7423,
      "Ġhalls": 7424,
      "Ġgut": 7425,
      "anches": 7426,
      "Ġprepares": 7427,
      "Before": 7428,
      ".he": 7429,
      "ulti": 7430,
      "Ġsells": 7431,
      "Ġdescend": 7432,
      "Ġreeled": 7433,
      "rome": 7434,
      "urd": 7435,
      "Ġabsor": 7436,
      "_val": 7437,
      "lease": 7438,
      "Ġclaimed": 7439,
      "aware": 7440,
      "Ġdemo": 7441,
      "ĠGrand": 7442,
      "Ġproof": 7443,
      "Ġvalley": 7444,
      "\")ĊĊ": 7445,
      "ĠTree": 7446,
      "cival": 7447,
      "Ġblamed": 7448,
      "ĠPercival": 7449,
      "Ġeccentric": 7450,
      "ike": 7451,
      "Ġgloved": 7452,
      "Ġclash": 7453,
      "ĠGraves": 7454,
      "Ġeasier": 7455,
      "Ġdaily": 7456,
      "ĠĠĠĠĠĠĠĠĠĠĠĠĠĠĠĠĠĠĠ": 7457,
      "ĠLabyrinth": 7458,
      "Ġpartic": 7459,
      "example": 7460,
      "Ġgrinding": 7461,
      "ĠZep": 7462,
      "covery": 7463,
      "_o": 7464,
      "gency": 7465,
      ".data": 7466,
      "_th": 7467,
      "temp": 7468,
      "Ġhailed": 7469,
      "backup": 7470,
      "Ġfired": 7471,
      "Ġgreedy": 7472,
      "((": 7473,
      "Ġdemanded": 7474,
      "Ġelder": 7475,
      "ĠAsh": 7476,
      "Ġpointers": 7477,
      "Ġresearch": 7478,
      "Ġalter": 7479,
      "Ġfoggy": 7480,
      "Un": 7481,
      "Ġseveral": 7482,
      "Ġrespect": 7483,
      "Ġcheese": 7484,
      "ĠRef": 7485,
      "Ġrefused": 7486,
      "_online": 7487,
      "oldier": 7488,
      "Ġsharing": 7489,
      "[@]}": 7490,
      "Ġdisillusioned": 7491,
      "izing": 7492,
      "Ġshr": 7493,
      "Ġsharply": 7494,
      "Ġplea": 7495,
      "REMOTE": 7496,
      "rawled": 7497,
      "Ġunlock": 7498,
      "Ġverify": 7499,
      "Ġmastered": 7500,
      "Ġcraft": 7501,
      "Ġcycles": 7502,
      "Ġfright": 7503,
      "Ġconfidante": 7504,
      "brary": 7505,
      "hus": 7506,
      "husi": 7507,
      "Ġwhistle": 7508,
      "Ġhaunts": 7509,
      "mail": 7510,
      "Ġexposed": 7511,
      "Ġprintf": 7512,
      "Ġnotebook": 7513,
      "Ġlures": 7514,
      "As": 7515,
      "Ġsummoned": 7516,
      "async": 7517,
      "\\nF": 7518,
      "Ġshoulders": 7519,
      "Oh": 7520,
      "rer": 7521,
      "Ġinsistent": 7522,
      "Ġconsuming": 7523,
      "Ġpowers": 7524,
      "ĠFox": 7525,
      "Ġhur": 7526,
      ":\\\\": 7527,
      "licit": 7528,
      "Ġwarmth": 7529,
      "ĠVorik": 7530,
      "VAR": 7531,
      "Ġrestoring": 7532,
      "ĠYork": 7533,
      "Ġwidened": 7534,
      "hyr": 7535,
      "Ġunaware": 7536,
      "Ġgroaning": 7537,
      "Ġrigid": 7538,
      "ball": 7539,
      "Ġbranches": 7540,
      "Ġwandered": 7541,
      "wl": 7542,
      "ĠJav": 7543,
      "_process": 7544,
      "part": 7545,
      "ĠDaren": 7546,
      "Ġterror": 7547,
      "ĠMoonlit": 7548,
      "ĠZephyr": 7549,
      ".start": 7550,
      "ripple": 7551,
      "Ġanalysis": 7552,
      "velation": 7553,
      "ĠRevelation": 7554,
      "Ġawakened": 7555,
      "sub": 7556,
      "Ġhighest": 7557,
      "Ġsurprised": 7558,
      "Ġrefe": 7559,
      "ivid": 7560,
      "izer": 7561,
      "Ġbottom": 7562,
      "ĠHad": 7563,
      "Ġwondered": 7564,
      "Ġdissolved": 7565,
      "amps": 7566,
      "_web": 7567,
      "geant": 7568,
      "Ġsuccess": 7569,
      "_lines": 7570,
      "astic": 7571,
      "nder": 7572,
      "indrome": 7573,
      "Ġurgency": 7574,
      "Ġinitial": 7575,
      "Bot": 7576,
      "Ġposit": 7577,
      "Ġtopple": 7578,
      "Ġconvers": 7579,
      "Ġdirectories": 7580,
      "Ġswallows": 7581,
      "ĠDiscovery": 7582,
      "Ġsleeping": 7583,
      "ĠRest": 7584,
      "Ġresol": 7585,
      "Ġarrays": 7586,
      "Ġtemp": 7587,
      "Ġvanishing": 7588,
      "Ġalgorithms": 7589,
      "Ġsenator": 7590,
      "ctu": 7591,
      "Ġnights": 7592,
      ".âĢĿĊ": 7593,
      "Ġvictory": 7594,
      "Ġgray": 7595,
      "Ġdescends": 7596,
      ".table": 7597,
      "Ġnestled": 7598,
      "Ġbegs": 7599,
      "Ġdocstring": 7600,
      "ĠĠĠĠĠ": 7601,
      "Ġabsurd": 7602,
      "ĠWorkshop": 7603,
      "peak": 7604,
      "Ġ('": 7605,
      "Ġloud": 7606,
      "Ġperfection": 7607,
      "ĠLibrary": 7608,
      ".per": 7609,
      ">\"Ċ": 7610,
      "elier": 7611,
      "ĠDes": 7612,
      "AG": 7613,
      "ĠFlap": 7614,
      "-old": 7615,
      "Ġsynt": 7616,
      "Ġweeps": 7617,
      "Ġsafety": 7618,
      "ĠMoreau": 7619,
      ".json": 7620,
      "Ġoverhead": 7621,
      "Ġelif": 7622,
      "Ġgardener": 7623,
      ":%": 7624,
      "mo": 7625,
      "Ġobsessed": 7626,
      "Ġfascinated": 7627,
      "antic": 7628,
      "ĠMorgan": 7629,
      "mutable": 7630,
      "Ġanswering": 7631,
      "Ġceiling": 7632,
      "Ġspecified": 7633,
      "ĠWatchwoman": 7634,
      "))ĊĊ": 7635,
      "ĠMovement": 7636,
      "Ġsmell": 7637,
      "ĠSister": 7638,
      "ĠConf": 7639,
      "Ġfinished": 7640,
      "Ġ>>": 7641,
      "Ġstruggle": 7642,
      "dated": 7643,
      "elled": 7644,
      "Ġrich": 7645,
      "Ġflames": 7646,
      "Ġcascade": 7647,
      "Ġcig": 7648,
      "Ġdece": 7649,
      "ĠCPU": 7650,
      "Ġcalculations": 7651,
      "\\nH": 7652,
      "Ġanger": 7653,
      "Ġaverage": 7654,
      "src": 7655,
      "Ġcomfort": 7656,
      "ĠCleaner": 7657,
      "Ġsignature": 7658,
      "Ġnearby": 7659,
      "Ġht": 7660,
      "aded": 7661,
      "ĠClue": 7662,
      "Ġstays": 7663,
      "kb": 7664,
      "inn": 7665,
      "Ġfuel": 7666,
      "Ġgiving": 7667,
      "Ġpaid": 7668,
      ".read": 7669,
      "ĠHalloway": 7670,
      "Ġ---------------------------------": 7671,
      "Ġshelves": 7672,
      "argument": 7673,
      "Ġresonated": 7674,
      "Ġbene": 7675,
      "Ġstom": 7676,
      "ĠRevolution": 7677,
      "__.": 7678,
      "Ġfibonacci": 7679,
      "cShe": 7680,
      "//": 7681,
      "Ġdu": 7682,
      "ĠWall": 7683,
      "Ġanomal": 7684,
      "Ġgest": 7685,
      "Ġleaf": 7686,
      "ĠNyxara": 7687,
      "ĠInt": 7688,
      "erging": 7689,
      "),Ċ": 7690,
      "-time": 7691,
      "oker": 7692,
      "ribut": 7693,
      "Ġprize": 7694,
      "Dict": 7695,
      "ĠSingers": 7696,
      "Ġgrace": 7697,
      "Ġsongbook": 7698,
      "Ġconse": 7699,
      "Ġteet": 7700,
      "Ġbrush": 7701,
      "Ġsoftened": 7702,
      "wound": 7703,
      "ĠAgent": 7704,
      "leanup": 7705,
      "Ġpermissions": 7706,
      "Ġren": 7707,
      "Ġlady": 7708,
      "Ġconcl": 7709,
      "jar": 7710,
      "Ġuf": 7711,
      "ĠGear": 7712,
      "environ": 7713,
      "Ġrepeat": 7714,
      "Ġtomb": 7715,
      "ĠEMP": 7716,
      "external": 7717,
      "Ġscanned": 7718,
      "Ġpy": 7719,
      "ĠNight": 7720,
      "aret": 7721,
      "obi": 7722,
      "ĠRandy": 7723,
      "Ġcybernetic": 7724,
      "Ġsymbolic": 7725,
      "Ġscores": 7726,
      "Re": 7727,
      "ux": 7728,
      "Ġmater": 7729,
      "ĠZorathians": 7730,
      "Ġcommunication": 7731,
      "ĠFormer": 7732,
      "-te": 7733,
      "Ġsorts": 7734,
      "Ġoverwork": 7735,
      "Ġoverworked": 7736,
      "By": 7737,
      "Commander": 7738,
      "Ġtend": 7739,
      "Ġatelier": 7740,
      "Ġcard": 7741,
      "aping": 7742,
      "Ġtypes": 7743,
      "inate": 7744,
      "Ġcigaret": 7745,
      "Ġsuspects": 7746,
      "Ġexplicit": 7747,
      "broken": 7748,
      "Ġsprings": 7749,
      "[mid": 7750,
      "Ġbrighter": 7751,
      "({": 7752,
      "Ġantic": 7753,
      "Ġraven": 7754,
      "Ġgrief": 7755,
      "vet": 7756,
      "Ġskates": 7757,
      "dog": 7758,
      "ĠDNA": 7759,
      "Ġcollector": 7760,
      "Ġmapping": 7761,
      "Ġgym": 7762,
      "Ġcollapses": 7763,
      "Ġfrightened": 7764,
      "Iter": 7765,
      "ĠMechanism": 7766,
      "only": 7767,
      "(i": 7768,
      "Ġreputation": 7769,
      "Ġfootprint": 7770,
      "Ġtroub": 7771,
      "Ġbud": 7772,
      "ĠTock": 7773,
      "Ġbag": 7774,
      "Ġhot": 7775,
      "ctic": 7776,
      "Ġgue": 7777,
      "ĠGardener": 7778,
      "=lambda": 7779,
      "Ġfli": 7780,
      "Ġnews": 7781,
      "ĠArctic": 7782,
      "pet": 7783,
      "Ġmil": 7784,
      "Ġcrystall": 7785,
      "ĠSergeant": 7786,
      "Ġmaintain": 7787,
      "\\nO": 7788,
      "Ġrid": 7789,
      "Ġadding": 7790,
      "Ġfactorial": 7791,
      "-day": 7792,
      "Ġmend": 7793,
      "Ġdestination": 7794,
      "Ġbasic": 7795,
      "rust": 7796,
      "Ġwond": 7797,
      "_ch": 7798,
      "Ġanticip": 7799,
      "ĠCole": 7800,
      "Ġunch": 7801,
      "Ġsailor": 7802,
      "Ġwonders": 7803,
      "Ġmystical": 7804,
      "Any": 7805,
      "Ġcrystalline": 7806,
      "Ġwake": 7807,
      "ĠMilitary": 7808,
      "Ġprior": 7809,
      "Ġmaker": 7810,
      "owledge": 7811,
      "_knowledge": 7812,
      "arken": 7813,
      "Ġbool": 7814,
      "Ġreader": 7815,
      "Ġreaching": 7816,
      "Ġconfiguration": 7817,
      "Ġposition": 7818,
      "Ġfavor": 7819,
      "chime": 7820,
      "Ġpiano": 7821,
      "symbol": 7822,
      "Ġtradition": 7823,
      "ĠZyrr": 7824,
      "fetch": 7825,
      "ĠInquisitive": 7826,
      "Ġfeather": 7827,
      "Ġpreacher": 7828,
      "ĠSnackBot": 7829,
      "inking": 7830,
      "Ġtrade": 7831,
      "ĠGirl": 7832,
      "Ġintrigued": 7833,
      "Ġ...": 7834,
      "isions": 7835,
      "bb": 7836,
      "_base": 7837,
      "ĠNightw": 7838,
      "Ġfootsteps": 7839,
      "Ġgreeted": 7840,
      ".environ": 7841,
      "_user": 7842,
      "Ġmanage": 7843,
      "_sub": 7844,
      ".m": 7845,
      "Ġslid": 7846,
      "ifies": 7847,
      "Ġdiscre": 7848,
      "Ġnovel": 7849,
      "TARG": 7850,
      "wave": 7851,
      "Ġfellow": 7852,
      "Ġwounds": 7853,
      "Ġremoves": 7854,
      "Ġwitnesses": 7855,
      "ĠNightwraith": 7856,
      "Ġdraft": 7857,
      "Ġauthor": 7858,
      "\":\"#!/": 7859,
      "reverse": 7860,
      "iting": 7861,
      "Ġbrain": 7862,
      "ĠRep": 7863,
      "Ġhelping": 7864,
      "Ġgaslight": 7865,
      "Ġmountain": 7866,
      "yielding": 7867,
      "Ġbeat": 7868,
      "Sorted": 7869,
      "_memo": 7870,
      "`.<|": 7871,
      "Ġgaining": 7872,
      "assert": 7873,
      "ĠKorrin": 7874,
      "ĠTalos": 7875,
      "Ġglanced": 7876,
      ")}": 7877,
      "_input": 7878,
      "\\nCharacters": 7879,
      "Ġrulers": 7880,
      "Ġheat": 7881,
      "Ġhelpful": 7882,
      "Ġdipped": 7883,
      "ĠWasn": 7884,
      "Up": 7885,
      "_valid": 7886,
      "Ġfinger": 7887,
      "Ġdele": 7888,
      "ĠCripple": 7889,
      "ĠTin": 7890,
      "ĠPoint": 7891,
      "Ġunknow": 7892,
      "Ġgasps": 7893,
      "Ġwavered": 7894,
      "Ġmention": 7895,
      "Ġoverthrow": 7896,
      "action": 7897,
      "Ġbed": 7898,
      "Ġripple": 7899,
      "Ġintrospect": 7900,
      "Ġill": 7901,
      "Ġclone": 7902,
      "Ġcompet": 7903,
      "Ġdetermination": 7904,
      "Ġcritical": 7905,
      "Ġclient": 7906,
      "_python": 7907,
      "Ġtri": 7908,
      "elcome": 7909,
      "Ġfloorboards": 7910,
      "ential": 7911,
      "Ġadjac": 7912,
      "Ġmournful": 7913,
      "life": 7914,
      "Ġunyielding": 7915,
      "irtual": 7916,
      "storm": 7917,
      "Ġstdout": 7918,
      "ĠGloop": 7919,
      "group": 7920,
      "Ġartificial": 7921,
      "Ġstomach": 7922,
      "Ġtroubled": 7923,
      "last": 7924,
      "ĠAva": 7925,
      "ĠZyra": 7926,
      "ĠBlue": 7927,
      "Ġmaximum": 7928,
      "Ġdissolving": 7929,
      "Ġbypass": 7930,
      "ĠRel": 7931,
      "Ġcrim": 7932,
      "Ġcorrectly": 7933,
      "Ġcomponents": 7934,
      "ansion": 7935,
      "wz": 7936,
      "Ġminer": 7937,
      "Ġcellar": 7938,
      "_empty": 7939,
      "Ġexposing": 7940,
      ")\\\\": 7941,
      "Ġintrospective": 7942,
      "_argument": 7943,
      "ĠRE": 7944,
      "Ġfreely": 7945,
      "']": 7946,
      "Ġpage": 7947,
      "ĠTupp": 7948,
      "ĠTuppence": 7949,
      "quicksort": 7950,
      "Ġmoonlight": 7951,
      "Ġliteral": 7952,
      "Ġspaceship": 7953,
      "ouded": 7954,
      "Ġpoor": 7955,
      "Ġlinguist": 7956,
      "Ġvengeful": 7957,
      "Ext": 7958,
      "cely": 7959,
      "gex": 7960,
      "Ġfiercely": 7961,
      "_index": 7962,
      "Ġdeck": 7963,
      "Ġmanages": 7964,
      "Ġoccurs": 7965,
      "_many": 7966,
      "mple": 7967,
      "Ġcigarette": 7968,
      "ĠType": 7969,
      "Ġfolded": 7970,
      "strous": 7971,
      "Ġmurdered": 7972,
      "Ġmonstrous": 7973,
      "Ġtransmitter": 7974,
      "Ġsiphon": 7975,
      "Ġgent": 7976,
      "Ġsyntax": 7977,
      "Ġaltern": 7978,
      "Ġsounds": 7979,
      "Ġlearned": 7980,
      "Ġembers": 7981,
      "Ġawe": 7982,
      "yle": 7983,
      "\\nK": 7984,
      "Ġislands": 7985,
      "Ġwhirring": 7986,
      "mm": 7987,
      "Ġcrate": 7988,
      "-bound": 7989,
      "Ġmeasure": 7990,
      ".heapp": 7991,
      "-re": 7992,
      "Ġrsync": 7993,
      "Ġadded": 7994,
      "Ġfurrowed": 7995,
      "husiastic": 7996,
      "Do": 7997,
      "Ġexpand": 7998,
      "Ġchose": 7999,
      "kv": 8000,
      "Ġnoticed": 8001,
      "ĠRose": 8002,
      "Ġencoded": 8003,
      "ĠEmpire": 8004,
      "*,": 8005,
      "Ġprocessed": 8006,
      "ĠDeadman": 8007,
      "Ġwhirred": 8008,
      "Ġintellig": 8009,
      "Ġmobster": 8010,
      "Ġsuggest": 8011,
      "Ġintelligence": 8012,
      "(b": 8013,
      "Ġdial": 8014,
      "ĠBash": 8015,
      "oubt": 8016,
      "ĠGregor": 8017,
      "Ġbudget": 8018,
      "rescent": 8019,
      "Ġpianist": 8020,
      "Ġdefiant": 8021,
      "capacity": 8022,
      "ĠSto": 8023,
      "Ġotherwise": 8024,
      "Ġmischie": 8025,
      "Ġmischievous": 8026,
      "Ġexpecting": 8027,
      "Ġsan": 8028,
      "ĠFergus": 8029,
      "Ġrealization": 8030,
      "actic": 8031,
      "Ġquantum": 8032,
      "Ġaccord": 8033,
      "Ġrevolutionary": 8034,
      "Ġcircuit": 8035,
      "Ġedged": 8036,
      "ĠTarken": 8037,
      "Ġexits": 8038,
      "Ġpairs": 8039,
      "ĠCrumb": 8040,
      "Ġreflecting": 8041,
      "With": 8042,
      "uc": 8043,
      "ĠCan": 8044,
      "Ġsalads": 8045,
      "vil": 8046,
      "Ġajar": 8047,
      "ĠTH": 8048,
      "Ġshore": 8049,
      "rest": 8050,
      "idx": 8051,
      "Ġidx": 8052,
      ")]Ċ": 8053,
      "mean": 8054,
      "Ġdescribe": 8055,
      "==": 8056,
      "(item": 8057,
      "writer": 8058,
      "Ġalchemist": 8059,
      "Ġremoved": 8060,
      "Ġcogs": 8061,
      "Ġcontainer": 8062,
      "scape": 8063,
      "ĠUnwound": 8064,
      "ĠPe": 8065,
      "Ġconflict": 8066,
      "Ġsuddenly": 8067,
      "Ġsor": 8068,
      ".\")Ċ": 8069,
      "ruit": 8070,
      "Ġemotional": 8071,
      "[-": 8072,
      "Ġdrifter": 8073,
      "ITH": 8074,
      "Ġduplicates": 8075,
      "Ġliqu": 8076,
      "Ġlanded": 8077,
      "Silas": 8078,
      "vada": 8079,
      "Ġbuzz": 8080,
      "Ġfixing": 8081,
      "ĠNevada": 8082,
      "Ġfaxes": 8083,
      "Ġsearches": 8084,
      "sum": 8085,
      "Ġchecking": 8086,
      "(num": 8087,
      "Ġessence": 8088,
      "Ġstopping": 8089,
      "Ġanomalies": 8090,
      "Ġpytest": 8091,
      "dat": 8092,
      "Ġhappy": 8093,
      "[ch": 8094,
      "Ġsins": 8095,
      "ismatic": 8096,
      "Ġreas": 8097,
      "'S": 8098,
      "Ġevol": 8099,
      "likely": 8100,
      "Ġdescriptor": 8101,
      "Ġdismisses": 8102,
      "Ġintertw": 8103,
      "Ġintertwined": 8104,
      "ĠScientist": 8105,
      "pion": 8106,
      "urora": 8107,
      "Ġmaterial": 8108,
      "Eve": 8109,
      "Ġbrings": 8110,
      "_visual": 8111,
      "message": 8112,
      "Ġinternet": 8113,
      "info": 8114,
      "Ġanvil": 8115,
      "uster": 8116,
      "ĠRebirth": 8117,
      "Ġlongest": 8118,
      "Ġfra": 8119,
      "ĠMap": 8120,
      "Ġshouted": 8121,
      "Ġhandles": 8122,
      "ĠURL": 8123,
      "definition": 8124,
      "Ġarrive": 8125,
      "Ġstreetwise": 8126,
      "RI": 8127,
      "Ġslam": 8128,
      "OT": 8129,
      "Please": 8130,
      "seq": 8131,
      "clips": 8132,
      "Ġplanting": 8133,
      "LD": 8134,
      "Ġtuples": 8135,
      "ptions": 8136,
      "Ġforming": 8137,
      ":\\\",": 8138,
      "Ġchecked": 8139,
      "export": 8140,
      "Ġsalvation": 8141,
      "ĠTomorrow": 8142,
      ".join": 8143,
      "itespace": 8144,
      "Ġbru": 8145,
      "Ġhaunt": 8146,
      "Ġache": 8147,
      "Ġgoes": 8148,
      "enny": 8149,
      "Ġtyrann": 8150,
      "_args": 8151,
      "ields": 8152,
      "negative": 8153,
      "volent": 8154,
      "Ġworthy": 8155,
      "lt": 8156,
      "umbering": 8157,
      "ĠMaris": 8158,
      "Ġmuseum": 8159,
      "Ġflinch": 8160,
      "rift": 8161,
      "Ġcave": 8162,
      "Ġ'$": 8163,
      "formed": 8164,
      "Ġliquid": 8165,
      "Ġpred": 8166,
      "Ġpret": 8167,
      "Ġenter": 8168,
      "ertie": 8169,
      "ĠRelentless": 8170,
      ".r": 8171,
      "?Ċ": 8172,
      "Ġhover": 8173,
      "ifier": 8174,
      "Ġunlikely": 8175,
      "Ġdetect": 8176,
      "Ġden": 8177,
      "ĠGina": 8178,
      "ĠMarina": 8179,
      "CE": 8180,
      "Ġcany": 8181,
      "Ġvows": 8182
    },
    "merges": [
      [
        "h",
        "e"
      ],
      [
        "Ġ",
        "t"
      ],
      [
        "i",
        "n"
      ],
      [
        "Ġ",
        "a"
      ],
      [
        "s",
        "t"
      ],
      [
        "r",
        "e"
      ],
      [
        "e",
        "n"
      ],
      [
        "Ġt",
        "he"
      ],
      [
        "e",
        "r"
      ],
      [
        "o",
        "n"
      ],
      [
        "a",
        "r"
      ],
      [
        "Ġ",
        "s"
      ],
      [
        "Ġ",
        "w"
      ],
      [
        "i",
        "m"
      ],
      [
        "Ġ",
        "c"
      ],
      [
        "Ġ",
        "Ġ"
      ],
      [
        "Ġ",
        "f"
      ],
      [
        "a",
        "t"
      ],
      [
        "o",
        "r"
      ],
      [
        "i",
        "t"
      ],
      [
        "Ġ",
        "b"
      ],
      [
        "a",
        "n"
      ],
      [
        "<",
        "|"
      ],
      [
        "|",
        ">"
      ],
      [
        "a",
        "l"
      ],
      [
        "in",
        "g"
      ],
      [
        "\"",
        ":"
      ],
      [
        "e",
        "d"
      ],
      [
        "o",
        "l"
      ],
      [
        "e",
        "s"
      ],
      [
        "i",
        "s"
      ],
      [
        "Ġ",
        "\""
      ],
      [
        "Ġ",
        "o"
      ],
      [
        "Ġ",
        "m"
      ],
      [
        "Ġ",
        "h"
      ],
      [
        "a",
        "s"
      ],
      [
        "Ġt",
        "o"
      ],
      [
        "t",
        "o"
      ],
      [
        "o",
        "u"
      ],
      [
        "Ġ",
        "d"
      ],
      [
        "T",
        "he"
      ],
      [
        "n",
        "d"
      ],
      [
        "to",
        "ol"
      ],
      [
        "l",
        "e"
      ],
      [
        "ar",
        "t"
      ],
      [
        "Ġ",
        "p"
      ],
      [
        "en",
        "d"
      ],
      [
        "Ġo",
        "f"
      ],
      [
        "Ġ",
        "in"
      ],
      [
        "i",
        "on"
      ],
      [
        "st",
        "art"
      ],
      [
        "Ġ",
        "The"
      ],
      [
        "s",
        "e"
      ],
      [
        "_",
        "end"
      ],
      [
        "Ġ",
        "n"
      ],
      [
        "_",
        "start"
      ],
      [
        "r",
        "o"
      ],
      [
        "Ġ",
        "l"
      ],
      [
        "m",
        "e"
      ],
      [
        "en",
        "t"
      ],
      [
        "|>",
        "Ċ"
      ],
      [
        "c",
        "t"
      ],
      [
        "Ġ",
        "he"
      ],
      [
        "{",
        "\""
      ],
      [
        "Ġa",
        "nd"
      ],
      [
        "a",
        "d"
      ],
      [
        "i",
        "st"
      ],
      [
        "al",
        "l"
      ],
      [
        "u",
        "t"
      ],
      [
        "Ġ",
        "re"
      ],
      [
        "i",
        "c"
      ],
      [
        "u",
        "s"
      ],
      [
        "i",
        "l"
      ],
      [
        "Ġt",
        "h"
      ],
      [
        ">",
        "Ċ"
      ],
      [
        "Ġ",
        "st"
      ],
      [
        "re",
        "s"
      ],
      [
        "<",
        "/"
      ],
      [
        "\"",
        ","
      ],
      [
        "a",
        "c"
      ],
      [
        "u",
        "n"
      ],
      [
        "a",
        "me"
      ],
      [
        "it",
        "h"
      ],
      [
        "o",
        "w"
      ],
      [
        "an",
        "t"
      ],
      [
        "Ġ",
        "e"
      ],
      [
        ".",
        "Ċ"
      ],
      [
        "_",
        "c"
      ],
      [
        "Ġb",
        "e"
      ],
      [
        "p",
        "t"
      ],
      [
        "v",
        "e"
      ],
      [
        "i",
        "d"
      ],
      [
        "_c",
        "all"
      ],
      [
        "o",
        "t"
      ],
      [
        "Ġw",
        "ith"
      ],
      [
        "Ġ",
        "is"
      ],
      [
        "Ġ",
        "it"
      ],
      [
        "Ġ",
        "g"
      ],
      [
        "ĠĠ",
        "ĠĠ"
      ],
      [
        "as",
        "s"
      ],
      [
        "r",
        "a"
      ],
      [
        "u",
        "m"
      ],
      [
        "r",
        "i"
      ],
      [
        "<",
        "tool"
      ],
      [
        "p",
        "on"
      ],
      [
        "Ġ",
        "S"
      ],
      [
        "Ġ",
        "A"
      ],
      [
        ">",
        "<|"
      ],
      [
        "h",
        "o"
      ],
      [
        "e",
        "t"
      ],
      [
        "er",
        "s"
      ],
      [
        "pon",
        "se"
      ],
      [
        "us",
        "er"
      ],
      [
        "_",
        "res"
      ],
      [
        "_res",
        "ponse"
      ],
      [
        "u",
        "r"
      ],
      [
        "\\",
        "u"
      ],
      [
        "e",
        "l"
      ],
      [
        "ist",
        "ant"
      ],
      [
        "i",
        "g"
      ],
      [
        "p",
        "e"
      ],
      [
        "ass",
        "istant"
      ],
      [
        "ĠĠ",
        "Ġ"
      ],
      [
        "Ġ",
        "{\""
      ],
      [
        "Ġhe",
        "r"
      ],
      [
        "}",
        "}"
      ],
      [
        "'",
        "s"
      ],
      [
        "t",
        "h"
      ],
      [
        "Ġf",
        "or"
      ],
      [
        "Ġ",
        "\\"
      ],
      [
        "i",
        "r"
      ],
      [
        "o",
        "m"
      ],
      [
        "c",
        "e"
      ],
      [
        "n",
        "ame"
      ],
      [
        "Ġ",
        "v"
      ],
      [
        "c",
        "h"
      ],
      [
        "Ġ",
        "E"
      ],
      [
        "Ġw",
        "as"
      ],
      [
        "Ġ",
        "on"
      ],
      [
        "a",
        "g"
      ],
      [
        "Ġd",
        "e"
      ],
      [
        "Ġth",
        "at"
      ],
      [
        "ct",
        "ion"
      ],
      [
        "ent",
        "s"
      ],
      [
        "u",
        "l"
      ],
      [
        "Ġc",
        "h"
      ],
      [
        "l",
        "o"
      ],
      [
        "m",
        "d"
      ],
      [
        "i",
        "le"
      ],
      [
        ".",
        "md"
      ],
      [
        "i",
        "f"
      ],
      [
        "h",
        "t"
      ],
      [
        "ar",
        "g"
      ],
      [
        "re",
        "d"
      ],
      [
        "\"",
        "}}"
      ],
      [
        "Ġb",
        "y"
      ],
      [
        "Ġ",
        "H"
      ],
      [
        "at",
        "h"
      ],
      [
        "Ġb",
        "ut"
      ],
      [
        "\\",
        "n"
      ],
      [
        "v",
        "er"
      ],
      [
        "Ġ",
        "I"
      ],
      [
        "um",
        "ents"
      ],
      [
        "un",
        "ction"
      ],
      [
        "an",
        "d"
      ],
      [
        "Ġ",
        "L"
      ],
      [
        "Ġs",
        "e"
      ],
      [
        "\":",
        "\""
      ],
      [
        "Ġ",
        "C"
      ],
      [
        "k",
        "e"
      ],
      [
        "l",
        "y"
      ],
      [
        "Ġh",
        "is"
      ],
      [
        "Ġh",
        "ad"
      ],
      [
        "l",
        "d"
      ],
      [
        "Ġ",
        "M"
      ],
      [
        "in",
        "e"
      ],
      [
        "Ġn",
        "ot"
      ],
      [
        "q",
        "u"
      ],
      [
        "l",
        "i"
      ],
      [
        ".",
        "<|"
      ],
      [
        "arg",
        "uments"
      ],
      [
        "c",
        "k"
      ],
      [
        "in",
        "d"
      ],
      [
        "o",
        "d"
      ],
      [
        "Ġs",
        "h"
      ],
      [
        "o",
        "re"
      ],
      [
        "a",
        "pt"
      ],
      [
        "t",
        "y"
      ],
      [
        "e",
        "m"
      ],
      [
        "a",
        "in"
      ],
      [
        "a",
        "y"
      ],
      [
        ":",
        "Ċ"
      ],
      [
        "â",
        "Ģ"
      ],
      [
        "in",
        "k"
      ],
      [
        "ty",
        "pe"
      ],
      [
        "a",
        "st"
      ],
      [
        "Ġs",
        "he"
      ],
      [
        "Ġw",
        "or"
      ],
      [
        "Ġ",
        "T"
      ],
      [
        "Ġa",
        "s"
      ],
      [
        "ig",
        "ht"
      ],
      [
        "Ġn",
        "e"
      ],
      [
        "a",
        "m"
      ],
      [
        "Ġa",
        "n"
      ],
      [
        "Ġ",
        "r"
      ],
      [
        "u",
        "st"
      ],
      [
        "Ġc",
        "on"
      ],
      [
        "ic",
        "e"
      ],
      [
        "p",
        "er"
      ],
      [
        "Ġl",
        "o"
      ],
      [
        "c",
        "ri"
      ],
      [
        "\"}}",
        "Ċ"
      ],
      [
        "cri",
        "pt"
      ],
      [
        "C",
        "h"
      ],
      [
        "es",
        "s"
      ],
      [
        "il",
        "l"
      ],
      [
        "im",
        "e"
      ],
      [
        "Ġ",
        "y"
      ],
      [
        "w",
        "n"
      ],
      [
        "Ġw",
        "h"
      ],
      [
        "th",
        "ink"
      ],
      [
        "Ġw",
        "ho"
      ],
      [
        ".",
        "\\"
      ],
      [
        "t",
        "er"
      ],
      [
        "f",
        "ile"
      ],
      [
        "Ġ",
        "le"
      ],
      [
        "ĠS",
        "he"
      ],
      [
        "at",
        "e"
      ],
      [
        "a",
        "k"
      ],
      [
        "ur",
        "n"
      ],
      [
        "t",
        "e"
      ],
      [
        "at",
        "ion"
      ],
      [
        "ĠH",
        "e"
      ],
      [
        "ĠĠĠĠ",
        "ĠĠĠ"
      ],
      [
        "ac",
        "k"
      ],
      [
        "Ġ",
        "k"
      ],
      [
        "he",
        "r"
      ],
      [
        "Ġs",
        "a"
      ],
      [
        "Ġw",
        "he"
      ],
      [
        "Ġ",
        "-"
      ],
      [
        "ro",
        "m"
      ],
      [
        "g",
        "e"
      ],
      [
        "p",
        "p"
      ],
      [
        "o",
        "me"
      ],
      [
        "Ġe",
        "x"
      ],
      [
        "Ġw",
        "e"
      ],
      [
        "Ġ",
        "B"
      ],
      [
        "Ġt",
        "r"
      ],
      [
        "Ġ",
        "or"
      ],
      [
        "d",
        "es"
      ],
      [
        "e",
        "ct"
      ],
      [
        "cript",
        "ion"
      ],
      [
        "ou",
        "t"
      ],
      [
        "f",
        "unction"
      ],
      [
        "des",
        "cription"
      ],
      [
        "Ġa",
        "l"
      ],
      [
        "\",",
        "\""
      ],
      [
        "Ġ",
        "un"
      ],
      [
        "Ġ",
        "W"
      ],
      [
        "Ġa",
        "r"
      ],
      [
        "it",
        "y"
      ],
      [
        "Ġt",
        "ime"
      ],
      [
        "ou",
        "nd"
      ],
      [
        "ou",
        "ld"
      ],
      [
        "apt",
        "er"
      ],
      [
        "Ċ",
        "Ċ"
      ],
      [
        "Ġ",
        "R"
      ],
      [
        "ar",
        "a"
      ],
      [
        "Ġ",
        "F"
      ],
      [
        "Ġ",
        "u"
      ],
      [
        "ol",
        "d"
      ],
      [
        "Ġ",
        "="
      ],
      [
        "Ġ",
        "N"
      ],
      [
        "i",
        "es"
      ],
      [
        "ac",
        "h"
      ],
      [
        "t",
        "es"
      ],
      [
        "ag",
        "e"
      ],
      [
        "Ġf",
        "rom"
      ],
      [
        "Ġy",
        "ou"
      ],
      [
        "Ġm",
        "e"
      ],
      [
        "Ġ",
        "if"
      ],
      [
        "Ġ",
        "j"
      ],
      [
        "Ġby",
        "tes"
      ],
      [
        "ar",
        "s"
      ],
      [
        "Y",
        "ou"
      ],
      [
        "Ġ",
        "D"
      ],
      [
        "lo",
        "ck"
      ],
      [
        "u",
        "e"
      ],
      [
        "e",
        "x"
      ],
      [
        "Ġit",
        "s"
      ],
      [
        "on",
        "g"
      ],
      [
        "o",
        "p"
      ],
      [
        "ar",
        "d"
      ],
      [
        "Ġh",
        "im"
      ],
      [
        "or",
        "y"
      ],
      [
        "ac",
        "e"
      ],
      [
        "Ġp",
        "ro"
      ],
      [
        "Ġl",
        "i"
      ],
      [
        "Ġc",
        "om"
      ],
      [
        "a",
        "b"
      ],
      [
        "st",
        "r"
      ],
      [
        "en",
        "ce"
      ],
      [
        "Ġ",
        "K"
      ],
      [
        "o",
        "k"
      ],
      [
        "j",
        "ect"
      ],
      [
        "ou",
        "g"
      ],
      [
        "Ġo",
        "ut"
      ],
      [
        "y",
        "st"
      ],
      [
        "i",
        "p"
      ],
      [
        "Ġre",
        "t"
      ],
      [
        "on",
        "e"
      ],
      [
        "i",
        "ve"
      ],
      [
        "a",
        "p"
      ],
      [
        "u",
        "re"
      ],
      [
        "Ġ",
        "V"
      ],
      [
        "p",
        "ath"
      ],
      [
        "Ġd",
        "o"
      ],
      [
        "v",
        "ed"
      ],
      [
        "th",
        "ing"
      ],
      [
        "Ġa",
        "t"
      ],
      [
        "o",
        "b"
      ],
      [
        "r",
        "it"
      ],
      [
        "Ġ",
        "("
      ],
      [
        "c",
        "re"
      ],
      [
        "Ġk",
        "n"
      ],
      [
        "e",
        "p"
      ],
      [
        "ĠE",
        "li"
      ],
      [
        "l",
        "ine"
      ],
      [
        "Ġv",
        "o"
      ],
      [
        "or",
        "t"
      ],
      [
        "ou",
        "s"
      ],
      [
        "Ġd",
        "is"
      ],
      [
        ".",
        "\","
      ],
      [
        "_",
        "_"
      ],
      [
        "Ġs",
        "p"
      ],
      [
        "Ġf",
        "unction"
      ],
      [
        "o",
        "s"
      ],
      [
        "Ġh",
        "a"
      ],
      [
        "c",
        "o"
      ],
      [
        "i",
        "e"
      ],
      [
        "he",
        "d"
      ],
      [
        "re",
        "n"
      ],
      [
        "i",
        "ra"
      ],
      [
        "id",
        "e"
      ],
      [
        "l",
        "ow"
      ],
      [
        "Ġret",
        "urn"
      ],
      [
        "?",
        "<|"
      ],
      [
        "ul",
        "t"
      ],
      [
        "Ġwhe",
        "re"
      ],
      [
        "qu",
        "i"
      ],
      [
        "in",
        "t"
      ],
      [
        "-",
        "-"
      ],
      [
        "Ġin",
        "to"
      ],
      [
        "Ġ",
        "P"
      ],
      [
        "ic",
        "k"
      ],
      [
        "_",
        "file"
      ],
      [
        "Ġs",
        "ome"
      ],
      [
        "re",
        "ad"
      ],
      [
        "an",
        "g"
      ],
      [
        "c",
        "i"
      ],
      [
        "c",
        "ho"
      ],
      [
        "Ġ",
        "G"
      ],
      [
        "l",
        "ed"
      ],
      [
        "Ġon",
        "e"
      ],
      [
        "id",
        "d"
      ],
      [
        "Ġa",
        "re"
      ],
      [
        "in",
        "al"
      ],
      [
        "Ġ",
        "<"
      ],
      [
        "\":",
        "{\""
      ],
      [
        "Ġth",
        "is"
      ],
      [
        "a",
        "el"
      ],
      [
        "oug",
        "h"
      ],
      [
        "<",
        "think"
      ],
      [
        "str",
        "ing"
      ],
      [
        "Ġst",
        "r"
      ],
      [
        "Ġc",
        "l"
      ],
      [
        "Ġf",
        "ile"
      ],
      [
        "Ġf",
        "ind"
      ],
      [
        "Ġc",
        "lock"
      ],
      [
        ")",
        "Ċ"
      ],
      [
        "cre",
        "t"
      ],
      [
        "Ġvo",
        "ice"
      ],
      [
        "t",
        "ing"
      ],
      [
        "i",
        "v"
      ],
      [
        "t",
        "en"
      ],
      [
        "Ġp",
        "l"
      ],
      [
        "\\",
        "\""
      ],
      [
        "ou",
        "r"
      ],
      [
        "se",
        "l"
      ],
      [
        "}",
        "Ċ"
      ],
      [
        ".Ċ",
        "Ċ"
      ],
      [
        "Ġa",
        "b"
      ],
      [
        "i",
        "z"
      ],
      [
        "Ġm",
        "ore"
      ],
      [
        "ĠEli",
        "as"
      ],
      [
        "Ch",
        "apter"
      ],
      [
        "ob",
        "ject"
      ],
      [
        "Ġ",
        "en"
      ],
      [
        "W",
        "h"
      ],
      [
        "Ġa",
        "g"
      ],
      [
        "Ġw",
        "ar"
      ],
      [
        "âĢ",
        "Ļ"
      ],
      [
        "d",
        "s"
      ],
      [
        ">Ċ",
        "Ċ"
      ],
      [
        "p",
        "y"
      ],
      [
        "p",
        "ro"
      ],
      [
        "Ġ",
        "ro"
      ],
      [
        "idd",
        "en"
      ],
      [
        "ig",
        "n"
      ],
      [
        "Ġbe",
        "en"
      ],
      [
        "is",
        "e"
      ],
      [
        "or",
        "m"
      ],
      [
        "\"}}",
        ","
      ],
      [
        "on",
        "t"
      ],
      [
        "re",
        "m"
      ],
      [
        "Ġth",
        "r"
      ],
      [
        "Ġ\\",
        "\""
      ],
      [
        "Ġ",
        "'"
      ],
      [
        "Ġc",
        "an"
      ],
      [
        "ir",
        "st"
      ],
      [
        "p",
        "ar"
      ],
      [
        "sel",
        "f"
      ],
      [
        "Ġthe",
        "n"
      ],
      [
        "Ġ",
        "us"
      ],
      [
        "t",
        "ers"
      ],
      [
        "Ġ",
        "["
      ],
      [
        "v",
        "ers"
      ],
      [
        "Ġbe",
        "g"
      ],
      [
        "Ġwor",
        "ld"
      ],
      [
        "ĠK",
        "ael"
      ],
      [
        "Ġli",
        "ke"
      ],
      [
        "Ġon",
        "ly"
      ],
      [
        "n",
        "ing"
      ],
      [
        "Ġc",
        "o"
      ],
      [
        "Ġm",
        "ust"
      ],
      [
        "in",
        "s"
      ],
      [
        "Ġ",
        "J"
      ],
      [
        "Ġp",
        "r"
      ],
      [
        "Ġst",
        "e"
      ],
      [
        "d",
        "d"
      ],
      [
        "er",
        "y"
      ],
      [
        "Ġto",
        "wn"
      ],
      [
        "Ġ",
        "qu"
      ],
      [
        "um",
        "b"
      ],
      [
        "Ġkn",
        "ow"
      ],
      [
        "Ġsome",
        "thing"
      ],
      [
        "x",
        "t"
      ],
      [
        "Ġcon",
        "t"
      ],
      [
        "ut",
        "h"
      ],
      [
        "Ġs",
        "u"
      ],
      [
        "od",
        "e"
      ],
      [
        "Ġre",
        "ve"
      ],
      [
        "Ġp",
        "ast"
      ],
      [
        "qui",
        "red"
      ],
      [
        "Ġn",
        "o"
      ],
      [
        "Ġthr",
        "ough"
      ],
      [
        "ĠE",
        "l"
      ],
      [
        "ĠI",
        "n"
      ],
      [
        "Ġm",
        "an"
      ],
      [
        "h",
        "is"
      ],
      [
        "ĠI",
        "t"
      ],
      [
        "Ġs",
        "il"
      ],
      [
        "Ġc",
        "all"
      ],
      [
        "res",
        "s"
      ],
      [
        "Ġreve",
        "al"
      ],
      [
        "]",
        ","
      ],
      [
        "Ġh",
        "idden"
      ],
      [
        "an",
        "ge"
      ],
      [
        "Ġn",
        "ow"
      ],
      [
        ")",
        ":"
      ],
      [
        "p",
        "ut"
      ],
      [
        "Ġ",
        "ke"
      ],
      [
        "Ġwh",
        "at"
      ],
      [
        "ame",
        "ters"
      ],
      [
        "pro",
        "per"
      ],
      [
        "Ġm",
        "em"
      ],
      [
        "Ġde",
        "f"
      ],
      [
        "i",
        "re"
      ],
      [
        "t",
        "ies"
      ],
      [
        "Ġse",
        "cret"
      ],
      [
        ".",
        "py"
      ],
      [
        "e",
        "st"
      ],
      [
        "re",
        "quired"
      ],
      [
        "co",
        "vers"
      ],
      [
        "Ġha",
        "ve"
      ],
      [
        "par",
        "ameters"
      ],
      [
        "proper",
        "ties"
      ],
      [
        "Ġb",
        "re"
      ],
      [
        "Ġs",
        "k"
      ],
      [
        "Ġthe",
        "m"
      ],
      [
        "Ġwor",
        "k"
      ],
      [
        "Ġc",
        "ould"
      ],
      [
        "ad",
        "ow"
      ],
      [
        "a",
        "v"
      ],
      [
        "t",
        "ag"
      ],
      [
        "Ġre",
        "s"
      ],
      [
        "Ġag",
        "ain"
      ],
      [
        "Ġh",
        "and"
      ],
      [
        "Ġc",
        "r"
      ],
      [
        "Ġj",
        "ust"
      ],
      [
        "on",
        "ist"
      ],
      [
        "tag",
        "onist"
      ],
      [
        "v",
        "al"
      ],
      [
        "out",
        "line"
      ],
      [
        "pp",
        "ed"
      ],
      [
        "p",
        "le"
      ],
      [
        "Ġt",
        "ra"
      ],
      [
        "Ġthe",
        "ir"
      ],
      [
        "Ġde",
        "c"
      ],
      [
        "Ġm",
        "o"
      ],
      [
        "Ġc",
        "re"
      ],
      [
        "a",
        "u"
      ],
      [
        "p",
        "r"
      ],
      [
        "Ġ",
        "O"
      ],
      [
        "ara",
        "ct"
      ],
      [
[...]
