{
  "version": "1.0",
  "truncation": null,
  "padding": null,
  "added_tokens": [
    {
      "id": 8183,
      "content": "<|endoftext|>",
      "single_word": false,
      "lstrip": false,
      "rstrip": false,
      "normalized": false,
      "special": true
    },
    {
      "id": 8184,
      "content": "<|im_start|>",
      "single_word": false,
      "lstrip": false,
      "rstrip": false,
      "normalized": false,
      "special": true
    },
    {
      "id": 8185,
      "content": "<|im_end|>",
      "single_word": false,
      "lstrip": false,
      "rstrip": false,
      "normalized": false,
      "special": true
    },
    {
      "id": 8186,
      "content": "<think>",
      "single_word": false,
      "lstrip": false,
      "rstrip": false,
      "normalized": false,
      "special": true
    },
    {
      "id": 8187,
      "content": "</think>",
      "single_word": false,
      "lstrip": false,
      "rstrip": false,
      "normalized": false,
      "special": true
    },
    {
      "id": 8188,
      "content": "<tool_call>",
      "single_word": false,
      "lstrip": false,
      "rstrip": false,
      "normalized": false,
      "special": true
    },
    {
      "id": 8189,
      "content": "</tool_call>",
      "single_word": false,
      "lstrip": false,
      "rstrip": false,
      "normalized": false,
      "special": true
    },
    {
      "id": 8190,
      "content": "<tool_response>",
      "single_word": false,
      "lstrip": false,
      "rstrip": false,
      "normalized": false,
      "special": true
    },
    {
      "id": 8191,
      "content": "</tool_response>",
      "single_word": false,
      "lstrip": false,
      "rstrip": false,
      "normalized": false,
      "special": true
    }
  ],
  "normalizer": null,
  "pre_tokenizer": {
    "type": "Sequence",
    "pretokenizers": [
      {
        "type": "Split",
        "pattern": {
          "Regex": "(?i:'s|'t|'re|'ve|'m|'ll|'d)|[^\\r\\n\\p{L}\\p{N}]?\\p{L}+|\\p{N}| ?[^\\s\\p{L}\\p{N}]+[\\r\\n]*|\\s*[\\r\\n]+|\\s+(?!\\S)|\\s+"
        },
        "behavior": "Isolated",
        "invert": false
      },
      {
        "type": "ByteLevel",
        "add_prefix_space": false,
        "trim_offsets": true,
        "use_regex": false
      }
    ]
  },
  "post_processor": null,
  "decoder": {
    "type": "ByteLevel",
    "add_prefix_space": true,
    "trim_offsets": true,
    "use_regex": true
  },
  "model": {
    "type": "BPE",
    "dropout": null,
    "unk_token": null,
    "continuing_subword_prefix": null,
    "end_of_word_suffix": null,
    "fuse_unk": false,
    "byte_fallback": false,
    "ignore_merges": false,
    "vocab": {
      "!": 0,
      "\"": 1,
      "#": 2,
      "$": 3,
      "%": 4,
      "&": 5,
      "'": 6,
      "(": 7,
      ")": 8,
      "*": 9,
      "+": 10,
      ",": 11,
      "-": 12,
      ".": 13,
      "/": 14,
      "0": 15,
      "1": 16,
      "2": 17,
      "3": 18,
      "4": 19,
      "5": 20,
      "6": 21,
      "7": 22,
      "8": 23,
      "9": 24,
      ":": 25,
      ";": 26,
      "<": 27,
      "=": 28,
      ">": 29,
      "?": 30,
      "@": 31,
      "A": 32,
      "B": 33,
      "C": 34,
      "D": 35,
      "E": 36,
      "F": 37,
      "G": 38,
      "H": 39,
      "I": 40,
      "J": 41,
      "K": 42,
      "L": 43,
      "M": 44,
      "N": 45,
      "O": 46,
      "P": 47,
      "Q": 48,
      "R": 49,
      "S": 50,
      "T": 51,
      "U": 52,
      "V": 53,
      "W": 54,
      "X": 55,
      "Y": 56,
      "Z": 57,
      "[": 58,
      "\\": 59,
      "]": 60,
      "^": 61,
      "_": 62,
      "`": 63,
      "a": 64,
      "b": 65,
      "c": 66,
      "d": 67,
      "e": 68,
      "f": 69,
      "g": 70,
      "h": 71,
      "i": 72,
      "j": 73,
      "k": 74,
      "l": 75,
      "m": 76,
      "n": 77,
      "o": 78,
      "p": 79,
      "q": 80,
      "r": 81,
      "s": 82,
      "t": 83,
      "u": 84,
      "v": 85,
      "w": 86,
      "x": 87,
      "y": 88,
      "z": 89,
      "{": 90,
      "|": 91,
      "}": 92,
      "~": 93,
      "¡": 94,
      "¢": 95,
      "£": 96,
      "¤": 97,
      "¥": 98,
      "¦": 99,
      "§": 100,
      "¨": 101,
      "©": 102,
      "ª": 103,
      "«": 104,
      "¬": 105,
      "®": 106,
      "¯": 107,
      "°": 108,
      "±": 109,
      "²": 110,
      "³": 111,
      "´": 112,
      "µ": 113,
      "¶": 114,
      "·": 115,
      "¸": 116,
      "¹": 117,
      "º": 118,
      "»": 119,
      "¼": 120,
      "½": 121,
      "¾": 122,
      "¿": 123,
      "À": 124,
      "Á": 125,
      "Â": 126,
      "Ã": 127,
      "Ä": 128,
      "Å": 129,
      "Æ": 130,
      "Ç": 131,
      "È": 132,
      "É": 133,
      "Ê": 134,
      "Ë": 135,
      "Ì": 136,
      "Í": 137,
      "Î": 138,
      "Ï": 139,
      "Ð": 140,
      "Ñ": 141,
      "Ò": 142,
      "Ó": 143,
      "Ô": 144,
      "Õ": 145,
      "Ö": 146,
      "×": 147,
      "Ø": 148,
      "Ù": 149,
      "Ú": 150,
      "Û": 151,
      "Ü": 152,
      "Ý": 153,
      "Þ": 154,
      "ß": 155,
      "à": 156,
      "á": 157,
      "â": 158,
      "ã": 159,
      "ä": 160,
      "å": 161,
      "æ": 162,
      "ç": 163,
      "è": 164,
      "é": 165,
      "ê": 166,
      "ë": 167,
      "ì": 168,
      "í": 169,
      "î": 170,
      "ï": 171,
      "ð": 172,
      "ñ": 173,
      "ò": 174,
      "ó": 175,
      "ô": 176,
      "õ": 177,
      "ö": 178,
      "÷": 179,
      "ø": 180,
      "ù": 181,
      "ú": 182,
      "û": 183,
      "ü": 184,
      "ý": 185,
      "þ": 186,
      "ÿ": 187,
      "Ā": 188,
      "ā": 189,
      "Ă": 190,
      "ă": 191,
      "Ą": 192,
      "ą": 193,
      "Ć": 194,
      "ć": 195,
      "Ĉ": 196,
      "ĉ": 197,
      "Ċ": 198,
      "ċ": 199,
      "Č": 200,
      "č": 201,
      "Ď": 202,
      "ď": 203,
      "Đ": 204,
      "đ": 205,
      "Ē": 206,
      "ē": 207,
      "Ĕ": 208,
      "ĕ": 209,
      "Ė": 210,
      "ė": 211,
      "Ę": 212,
      "ę": 213,
      "Ě": 214,
      "ě": 215,
      "Ĝ": 216,
      "ĝ": 217,
      "Ğ": 218,
      "ğ": 219,
      "Ġ": 220,
      "ġ": 221,
      "Ģ": 222,
      "ģ": 223,
      "Ĥ": 224,
      "ĥ": 225,
      "Ħ": 226,
      "ħ": 227,
      "Ĩ": 228,
      "ĩ": 229,
      "Ī": 230,
      "ī": 231,
      "Ĭ": 232,
      "ĭ": 233,
      "Į": 234,
      "į": 235,
      "İ": 236,
      "ı": 237,
      "Ĳ": 238,
      "ĳ": 239,
      "Ĵ": 240,
      "ĵ": 241,
      "Ķ": 242,
      "ķ": 243,
      "ĸ": 244,
      "Ĺ": 245,
      "ĺ": 246,
      "Ļ": 247,
      "ļ": 248,
      "Ľ": 249,
      "ľ": 250,
      "Ŀ": 251,
      "ŀ": 252,
      "Ł": 253,
      "ł": 254,
      "Ń": 255,
      "he": 256,
      "Ġt": 257,
      "in": 258,
      "Ġa": 259,
      "re": 260,
      "st": 261,
      "Ġthe": 262,
      "er": 263,
      "en": 264,
      "on": 265,
      "Ġw": 266,
      "Ġs": 267,
      "ar": 268,
      "Ġc": 269,
      "im": 270,
      "Ġb": 271,
      "Ġf": 272,
      "it": 273,
      "ing": 274,
      "an": 275,
      "al": 276,
      "at": 277,
      "ed": 278,
      "or": 279,
      "\":": 280,
      "ol": 281,
      "is": 282,
      "<|": 283,
      "|>": 284,
      "Ġh": 285,
      "Ġo": 286,
      "es": 287,
      "Ġ\"": 288,
      "Ġm": 289,
      "Ġto": 290,
      "The": 291,
      "ou": 292,
      "to": 293,
      "as": 294,
      "Ġd": 295,
      "nd": 296,
      "tool": 297,
      "Ġof": 298,
      "ĠThe": 299,
      "Ġl": 300,
      "Ġhe": 301,
      "Ġp": 302,
      "il": 303,
      "art": 304,
      "Ġin": 305,
      "ion": 306,
      "ro": 307,
      "end": 308,
      "Ġn": 309,
      "Ġand": 310,
      "me": 311,
      "ad": 312,
      "ent": 313,
      "{\"": 314,
      "ic": 315,
      "se": 316,
      "ut": 317,
      "all": 318,
      "start": 319,
      "ac": 320,
      "_end": 321,
      "_start": 322,
      "Ġth": 323,
      "|>Ċ": 324,
      "Ġre": 325,
      ">Ċ": 326,
      "ist": 327,
      "Ġst": 328,
      "</": 329,
      ".Ċ": 330,
      "ter": 331,
      "ith": 332,
      "res": 333,
      "\",": 334,
      "ec": 335,
      "ow": 336,
      "us": 337,
      "et": 338,
      "un": 339,
      "ame": 340,
      "id": 341,
      "ve": 342,
      "_c": 343,
      "Ġg": 344,
      "Ġwith": 345,
      "ĠA": 346,
      "ĠS": 347,
      "_call": 348,
      "ot": 349,
      "ir": 350,
      "Ġit": 351,
      "el": 352,
      "ap": 353,
      "ant": 354,
      "Ġis": 355,
      "ho": 356,
      "<tool": 357,
      "\\u": 358,
      "Ġher": 359,
      "pon": 360,
      "><|": 361,
      "tion": 362,
      "ig": 363,
      "Ġbe": 364,
      "ponse": 365,
      "_res": 366,
      "_response": 367,
      "um": 368,
      "'s": 369,
      "ur": 370,
      "th": 371,
      "Ġe": 372,
      "ass": 373,
      "Ġ{\"": 374,
      "ver": 375,
      "}}": 376,
      "Ġ\\": 377,
      "Ġwas": 378,
      "ĠE": 379,
      "ri": 380,
      "le": 381,
      "Ġfor": 382,
      "user": 383,
      "ag": 384,
      "istant": 385,
      "md": 386,
      ".md": 387,
      "pe": 388,
      "assistant": 389,
      "Ġch": 390,
      "om": 391,
      "Ġon": 392,
      "ce": 393,
      "ĠH": 394,
      "name": 395,
      "Ġthat": 396,
      "Ġv": 397,
      "red": 398,
      "Ġbut": 399,
      "Ġhis": 400,
      "lo": 401,
      "Ġhad": 402,
      "ch": 403,
      "\"}}": 404,
      "ht": 405,
      "ul": 406,
      "ents": 407,
      "unc": 408,
      "ĠL": 409,
      "ĠC": 410,
      "ĠM": 411,
      "Ġby": 412,
      "arg": 413,
      "ld": 414,
      "ay": 415,
      "ine": 416,
      "ly": 417,
      "uments": 418,
      "\":\"": 419,
      "ĠI": 420,
      "ath": 421,
      "ore": 422,
      "and": 423,
      "Ġshe": 424,
      "Ġsh": 425,
      "Ġnot": 426,
      "ast": 427,
      "ind": 428,
      "ink": 429,
      "Ġtr": 430,
      "ight": 431,
      "ck": 432,
      "unction": 433,
      "ke": 434,
      "ty": 435,
      "Ġde": 436,
      "apter": 437,
      "arguments": 438,
      "ain": 439,
      "li": 440,
      "Ġr": 441,
      "ice": 442,
      "ust": 443,
      "Ch": 444,
      "type": 445,
      "qu": 446,
      "ĠT": 447,
      "Ġwor": 448,
      "\\n": 449,
      "if": 450,
      "am": 451,
      "wn": 452,
      "ep": 453,
      "âĢ": 454,
      "em": 455,
      "Ġan": 456,
      "think": 457,
      "Ġwho": 458,
      "Ġne": 459,
      "Ġas": 460,
      "ĠHe": 461,
      "ĠShe": 462,
      "\"}}Ċ": 463,
      "ill": 464,
      "ect": 465,
      "Ġcon": 466,
      "Ġlo": 467,
      "ak": 468,
      "od": 469,
      "Ġsa": 470,
      "ile": 471,
      ".\\": 472,
      "Ġse": 473,
      "Ġk": 474,
      "ome": 475,
      "per": 476,
      "her": 477,
      "ess": 478,
      ".<|": 479,
      "Ġwe": 480,
      "esc": 481,
      "Ġwh": 482,
      "ĠB": 483,
      "ime": 484,
      "rip": 485,
      "Ġwhe": 486,
      "ang": 487,
      "ĠW": 488,
      "Ġy": 489,
      "ack": 490,
      "rom": 491,
      "Chapter": 492,
      "out": 493,
      "ation": 494,
      "ĠR": 495,
      "ate": 496,
      "function": 497,
      "ity": 498,
      "ound": 499,
      "rot": 500,
      "lock": 501,
      "ars": 502,
      ":Ċ": 503,
      "ould": 504,
      "ies": 505,
      "\",\"": 506,
      "desc": 507,
      "ription": 508,
      "description": 509,
      "old": 510,
      "Ġhim": 511,
      "Ġle": 512,
      "ong": 513,
      "Ġits": 514,
      "Ġj": 515,
      "ĠD": 516,
      "You": 517,
      "ters": 518,
      "ach": 519,
      "ĠN": 520,
      "Ġfrom": 521,
      "ence": 522,
      "ĠK": 523,
      "ave": 524,
      "Ġal": 525,
      "ex": 526,
      "Ġtime": 527,
      "oug": 528,
      "ers": 529,
      "ok": 530,
      "ard": 531,
      "thing": 532,
      "ĠF": 533,
      "ory": 534,
      "Ġli": 535,
      "Ġar": 536,
      "ĠV": 537,
      "urn": 538,
      "ĠEli": 539,
      "yst": 540,
      "Ġor": 541,
      "Ġvo": 542,
      "ira": 543,
      "Ġu": 544,
      "age": 545,
      "Ġkn": 546,
      "ous": 547,
      "ie": 548,
      "Ġout": 549,
      "ip": 550,
      "op": 551,
      "Ġsp": 552,
      "line": 553,
      "Ġdis": 554,
      "over": 555,
      "Ġme": 556,
      "Ġat": 557,
      "file": 558,
      "ved": 559,
      "os": 560,
      "ure": 561,
      "ace": 562,
      "hed": 563,
      "ject": 564,
      "ret": 565,
      "tes": 566,
      "Ġbytes": 567,
      "Ġwhere": 568,
      "Ġun": 569,
      "Ġyou": 570,
      "Ġex": 571,
      "ob": 572,
      "str": 573,
      ".\",": 574,
      "ide": 575,
      "Ġsome": 576,
      "Ġinto": 577,
      "led": 578,
      "ael": 579,
      "ick": 580,
      "ting": 581,
      "idd": 582,
      "one": 583,
      "<think": 584,
      "ĠG": 585,
      "ecret": 586,
      "ive": 587,
      "qui": 588,
      "low": 589,
      "Ġclock": 590,
      "Ġvoice": 591,
      "ough": 592,
      "ĠElias": 593,
      "rit": 594,
      "Ġone": 595,
      "Ġag": 596,
      "Ġwar": 597,
      "Ġ-": 598,
      "ci": 599,
      "ten": 600,
      "Ġthis": 601,
      "idden": 602,
      "Ġfind": 603,
      "Ġab": 604,
      "Ġpl": 605,
      "inal": 606,
      "ara": 607,
      "ra": 608,
      "Ġif": 609,
      ">ĊĊ": 610,
      "Ġthr": 611,
      "Ġcl": 612,
      "\":{\"": 613,
      "Ġcom": 614,
      "Ġbeen": 615,
      "Ġbeg": 616,
      "ĠKael": 617,
      "our": 618,
      "ue": 619,
      "rem": 620,
      "Ġdo": 621,
      "ge": 622,
      "Ġmore": 623,
      "Ġworld": 624,
      "ign": 625,
      "âĢĻ": 626,
      "Ġtown": 627,
      "Ġfunction": 628,
      "object": 629,
      "ise": 630,
      "Ġmust": 631,
      "tr": 632,
      "ĠEl": 633,
      "iv": 634,
      ".ĊĊ": 635,
      "Ġ(": 636,
      "Ġbre": 637,
      "Ġare": 638,
      "Ġsomething": 639,
      "}Ċ": 640,
      "Ġac": 641,
      "uth": 642,
      "Ġpast": 643,
      "ab": 644,
      "Ġreve": 645,
      "orm": 646,
      "ning": 647,
      "Ġknow": 648,
      "ins": 649,
      "pro": 650,
      "ren": 651,
      "\"}},": 652,
      "Ġro": 653,
      "Ġthrough": 654,
      "Ġsil": 655,
      "Ġreveal": 656,
      "Ġhidden": 657,
      "_file": 658,
      "ĠJ": 659,
      "Ġnow": 660,
      "Ġ<": 661,
      "sion": 662,
      "Ġonly": 663,
      "Ġco": 664,
      "string": 665,
      "ĠIn": 666,
      "Ġsecret": 667,
      "Ġthen": 668,
      "ĠP": 669,
      "irst": 670,
      "Ġlike": 671,
      "Ġno": 672,
      "Ġpro": 673,
      "ious": 674,
      "Ġen": 675,
      "ont": 676,
      "Ġstr": 677,
      "ped": 678,
      "tern": 679,
      "ds": 680,
      "act": 681,
      "agon": 682,
      "overs": 683,
      "ult": 684,
      "adow": 685,
      "dd": 686,
      "ĠIt": 687,
      "Ġsk": 688,
      "Ġret": 689,
      "agonist": 690,
      "Ġagain": 691,
      "outline": 692,
      "Ġdisc": 693,
      "rotagonist": 694,
      "Ġman": 695,
      ",\\": 696,
      "Ġcity": 697,
      "Ġsc": 698,
      "av": 699,
      "Ġcould": 700,
      "iz": 701,
      "ery": 702,
      "quired": 703,
      "Ġwhat": 704,
      "read": 705,
      "Ġjust": 706,
      "Ġdec": 707,
      "par": 708,
      "Ġcr": 709,
      "ĊĊ": 710,
      "sed": 711,
      "ears": 712,
      "Ġtheir": 713,
      "Ġthem": 714,
      "path": 715,
      "etting": 716,
      "Ġmach": 717,
      "ered": 718,
      "Ġmem": 719,
      "Ġtruth": 720,
      "Ġqu": 721,
      "pert": 722,
      "Ġcall": 723,
      "Ġoff": 724,
      "his": 725,
      "Ġhand": 726,
      "ameters": 727,
      "required": 728,
      "propert": 729,
      "parameters": 730,
      "properties": 731,
      "Ġmo": 732,
      "ark": 733,
      "Ġcur": 734,
      "Ġhave": 735,
      "Ġsaid": 736,
      "arac": 737,
      "ĠBut": 738,
      "Ġmyst": 739,
      "hat": 740,
      "ber": 741,
      "ian": 742,
      "Ġchapter": 743,
      "sel": 744,
      "Ġsign": 745,
      "est": 746,
      "Ġdid": 747,
      "fore": 748,
      "pt": 749,
      "Ġgr": 750,
      "ange": 751,
      "Ġstep": 752,
      "itle": 753,
      "au": 754,
      "Gen": 755,
      "aracters": 756,
      "Prem": 757,
      "Protagonist": 758,
      "Setting": 759,
      "Title": 760,
      "Characters": 761,
      "Chapters": 762,
      "Genre": 763,
      "Premise": 764,
      "Ġey": 765,
      "[\"": 766,
      "\"]": 767,
      "Ġconf": 768,
      "Ġ\\\"": 769,
      "Ġdiscovers": 770,
      "Ġcre": 771,
      "Ġfe": 772,
      "very": 773,
      "tools": 774,
      "Ġwhis": 775,
      "Ġbefore": 776,
      "ling": 777,
      "fil": 778,
      "Ġlight": 779,
      "ĠO": 780,
      "ood": 781,
      "Ġreturn": 782,
      "ical": 783,
      "Ġsu": 784,
      "Ġrec": 785,
      "Ġown": 786,
      "Ġbet": 787,
      "Ġabout": 788,
      "Ġold": 789,
      "Ġste": 790,
      "ire": 791,
      "Ġvill": 792,
      "self": 793,
      "Ġcan": 794,
      "Ġeyes": 795,
      "ft": 796,
      "Ġso": 797,
      "Ġexp": 798,
      "pen": 799,
      "Ġfl": 800,
      "Ġsky": 801,
      "Ġneed": 802,
      "Ġwords": 803,
      "Ġwere": 804,
      "Ġpul": 805,
      "):": 806,
      "ance": 807,
      "Ġthey": 808,
      "Ġsaved": 809,
      "val": 810,
      "Ġke": 811,
      "ff": 812,
      "Ġbr": 813,
      "orn": 814,
      "Ġlong": 815,
      "Ġem": 816,
      "got": 817,
      "\"],": 818,
      "atch": 819,
      "Ġres": 820,
      "ĠAI": 821,
      "way": 822,
      "Ġover": 823,
      "Ġwork": 824,
      "gotten": 825,
      "exp": 826,
      "aker": 827,
      "Ġname": 828,
      "ystem": 829,
      "Ġund": 830,
      "Ġcho": 831,
      "row": 832,
      "are": 833,
      "Ġfinal": 834,
      "ook": 835,
      "we": 836,
      "wor": 837,
      "Ġfinds": 838,
      "ves": 839,
      "Ġnever": 840,
      "Ġup": 841,
      "Ġshadow": 842,
      "Ġwould": 843,
      "Ġair": 844,
      "ĠLil": 845,
      "ower": 846,
      "sing": 847,
      "host": 848,
      "Ġback": 849,
      "Ġmachine": 850,
      "Ġlost": 851,
      "ech": 852,
      "ched": 853,
      "Ġheart": 854,
      "Ġvillage": 855,
      "erious": 856,
      "ted": 857,
      "Ġpres": 858,
      "Ġonce": 859,
      "Ġsilence": 860,
      "Ġbl": 861,
      "ĠSil": 862,
      "ĠThey": 863,
      "ĠMira": 864,
      "Ġbreath": 865,
      "Ġturn": 866,
      "Ġfirst": 867,
      "Ġunder": 868,
      "oss": 869,
      "âĢĻs": 870,
      "own": 871,
      "wer": 872,
      "Ġwithin": 873,
      "Ġsur": 874,
      "ĠAnd": 875,
      "ther": 876,
      "ollow": 877,
      "ell": 878,
      "Ġhum": 879,
      "ied": 880,
      "Ġbegins": 881,
      "cient": 882,
      "Ġlif": 883,
      "tain": 884,
      "Ġfile": 885,
      "Ġap": 886,
      "Ġreal": 887,
      "rote": 888,
      "ary": 889,
      "rite": 890,
      "Ġevery": 891,
      "ose": 892,
      "wrote": 893,
      "ying": 894,
      "arch": 895,
      "cho": 896,
      "Ġpower": 897,
      "âĢĿ": 898,
      "ext": 899,
      "Ġsent": 900,
      "maker": 901,
      "ĠLila": 902,
      "aim": 903,
      "Ġagainst": 904,
      "rown": 905,
      "ĠClock": 906,
      "aug": 907,
      "ene": 908,
      "Ġmemory": 909,
      "ady": 910,
      "âĢľ": 911,
      "Ġforgotten": 912,
      "Ġmay": 913,
      "ĠEcho": 914,
      "Ġstop": 915,
      "ym": 916,
      "son": 917,
      "Ġdark": 918,
      "alc": 919,
      "Ġunc": 920,
      "Ġfound": 921,
      "Ġreveals": 922,
      "Ġmysterious": 923,
      "ew": 924,
      "Ġsong": 925,
      "ines": 926,
      "other": 927,
      "ade": 928,
      "ase": 929,
      "Ġlet": 930,
      "Ġlead": 931,
      "Ġte": 932,
      "ream": 933,
      "?\\": 934,
      ".\"": 935,
      "Ġthan": 936,
      "Ġsee": 937,
      "ax": 938,
      "umb": 939,
      "Ġcons": 940,
      "Ġend": 941,
      "put": 942,
      "Ġwhisper": 943,
      "Ġweight": 944,
      "ĠElara": 945,
      "Ġclo": 946,
      "Ġdidn": 947,
      "ata": 948,
      "ĠâĢľ": 949,
      "reat": 950,
      "ween": 951,
      "ated": 952,
      "Ġopen": 953,
      "Ġlife": 954,
      "ags": 955,
      "ĠX": 956,
      "ody": 957,
      "Ġstill": 958,
      "Ġbel": 959,
      "?<|": 960,
      "Ġbetween": 961,
      "mer": 962,
      "Ġlast": 963,
      "Ġclaim": 964,
      "Ġlook": 965,
      "Ġstory": 966,
      "ML": 967,
      "></": 968,
      "Ġtags": 969,
      "ĠXML": 970,
      "expr": 971,
      "Ġmind": 972,
      "ct": 973,
      "\"}Ċ": 974,
      "Ġwrit": 975,
      "ey": 976,
      "cI": 977,
      "eneath": 978,
      "Ġghost": 979,
      "Ġnight": 980,
      "ict": 981,
      "Ġfr": 982,
      "Ġdest": 983,
      "echan": 984,
      "ĠLast": 985,
      "work": 986,
      "Ġoutline": 987,
      "cYou": 988,
      "ward": 989,
      "orr": 990,
      "Ġaf": 991,
      "Ġall": 992,
      "ving": 993,
      "Ġsm": 994,
      "Ġdead": 995,
      "mand": 996,
      "elt": 997,
      "ĠLira": 998,
      "ns": 999,
      "Ġhel": 1000,
      "ols": 1001,
      "Ġhands": 1002,
      "ĠAs": 1003,
      "\\nThe": 1004,
      "cont": 1005,
      "ail": 1006,
      "uil": 1007,
      "What": 1008,
      "Ġship": 1009,
      "Ġus": 1010,
      "ures": 1011,
      "int": 1012,
      "Ġnew": 1013,
      "Ġcontr": 1014,
      "ish": 1015,
      "ined": 1016,
      "ena": 1017,
      "oman": 1018,
      "ĠCl": 1019,
      "Ġdestro": 1020,
      "Ġancient": 1021,
      "Ġrem": 1022,
      "Ġbeneath": 1023,
      "Ġ[\"": 1024,
      "anger": 1025,
      "Ġhas": 1026,
      "ness": 1027,
      "Ġdes": 1028,
      "Ġstrange": 1029,
      "Ġbro": 1030,
      "Ġeach": 1031,
      "ole": 1032,
      "ait": 1033,
      "ices": 1034,
      "Ġstood": 1035,
      "ment": 1036,
      "xt": 1037,
      "ĠTh": 1038,
      "Ġbec": 1039,
      "ally": 1040,
      "ets": 1041,
      "ĠSt": 1042,
      "Ġob": 1043,
      "ken": 1044,
      "ression": 1045,
      "Ġfelt": 1046,
      "ates": 1047,
      "tic": 1048,
      "Ġdeep": 1049,
      "ĠĊĊ": 1050,
      "Ġwill": 1051,
      "Ġhelp": 1052,
      "ories": 1053,
      "Ġsing": 1054,
      "les": 1055,
      "Ġdestroy": 1056,
      "ought": 1057,
      "fe": 1058,
      "uture": 1059,
      "og": 1060,
      "Ġsignal": 1061,
      "Ġpe": 1062,
      "Ġplan": 1063,
      "Ġnext": 1064,
      "Ġfore": 1065,
      "ake": 1066,
      "hes": 1067,
      "Ġfre": 1068,
      "Ġmess": 1069,
      "oth": 1070,
      "Ġafter": 1071,
      "Ġans": 1072,
      "ource": 1073,
      "form": 1074,
      "Ġ+": 1075,
      ".\\\"": 1076,
      "Ġsame": 1077,
      "lean": 1078,
      "Ġfuture": 1079,
      "Ġec": 1080,
      "Ġtoo": 1081,
      "âĢĶ": 1082,
      "Ġwritten": 1083,
      "Ġgu": 1084,
      "Ġsystem": 1085,
      "Ġroom": 1086,
      "less": 1087,
      "Ġadd": 1088,
      "Ġking": 1089,
      "oun": 1090,
      "ured": 1091,
      "ĠNo": 1092,
      "Ġ*": 1093,
      "ople": 1094,
      "ond": 1095,
      "its": 1096,
      "ull": 1097,
      "Ġstars": 1098,
      "att": 1099,
      "Ġsym": 1100,
      "Ġturned": 1101,
      "alls": 1102,
      "ened": 1103,
      "mem": 1104,
      "Ġmom": 1105,
      "ront": 1106,
      "Ġer": 1107,
      "Ġway": 1108,
      "Ġspe": 1109,
      "Ġmechan": 1110,
      "Ġche": 1111,
      "ĠVoss": 1112,
      "Ġcol": 1113,
      "gr": 1114,
      "side": 1115,
      "Ġecho": 1116,
      "Ġfig": 1117,
      "ode": 1118,
      "write": 1119,
      "antern": 1120,
      "Ġhist": 1121,
      "pl": 1122,
      "Ġfar": 1123,
      "ingers": 1124,
      "Ġali": 1125,
      "Ġforc": 1126,
      "agg": 1127,
      "Ġseen": 1128,
      "Ġthere": 1129,
      "ient": 1130,
      "Ġpr": 1131,
      "iec": 1132,
      "ud": 1133,
      "Ġconfront": 1134,
      "Ġmessage": 1135,
      "ĠTo": 1136,
      "ĠZ": 1137,
      "Ġset": 1138,
      "Ġbeh": 1139,
      "ision": 1140,
      "Ġemp": 1141,
      "ph": 1142,
      "Ġwind": 1143,
      "Ġact": 1144,
      "leanor": 1145,
      "ble": 1146,
      ".</": 1147,
      "Ġrevealing": 1148,
      "Ġhuman": 1149,
      "Ġass": 1150,
      "Ġface": 1151,
      "cy": 1152,
      "aken": 1153,
      "Ġtrap": 1154,
      "Ġmet": 1155,
      "Ġdata": 1156,
      "ĠSh": 1157,
      "Ġshadows": 1158,
      "vent": 1159,
      "Ġteam": 1160,
      "Ġspeak": 1161,
      "Ġdown": 1162,
      "Ġbo": 1163,
      "content": 1164,
      "Ġdef": 1165,
      "Ġwait": 1166,
      "Ġwhen": 1167,
      "ful": 1168,
      "ating": 1169,
      "Ġcontrol": 1170,
      "Ġbelie": 1171,
      "Ġper": 1172,
      "Ġmoment": 1173,
      "ks": 1174,
      "Ġel": 1175,
      "Ġbuil": 1176,
      "Ġkey": 1177,
      "ony": 1178,
      "},": 1179,
      "Ġtrem": 1180,
      "Ġsound": 1181,
      "hop": 1182,
      "Ġknew": 1183,
      "Ġbehind": 1184,
      "aw": 1185,
      "Ġacc": 1186,
      "Ġwatch": 1187,
      "Ġtim": 1188,
      "ather": 1189,
      "illed": 1190,
      "Ġhere": 1191,
      "rent": 1192,
      "ss": 1193,
      "br": 1194,
      "Ġent": 1195,
      "aced": 1196,
      "ll": 1197,
      "Ġoffice": 1198,
      "Ġmis": 1199,
      "Ġleft": 1200,
      "Ġsea": 1201,
      "Ġtri": 1202,
      "Ġshould": 1203,
      "Ġwant": 1204,
      "Ġdoor": 1205,
      "ked": 1206,
      "text": 1207,
      "Ġpo": 1208,
      "Ġfingers": 1209,
      ".\",\"": 1210,
      "sp": 1211,
      "Ġmus": 1212,
      "Ġbroken": 1213,
      "hy": 1214,
      "Ġpath": 1215,
      "Ġfigure": 1216,
      "Ġstepped": 1217,
      "ĠMar": 1218,
      "ĠEleanor": 1219,
      "Ġwoman": 1220,
      "Ġpart": 1221,
      "Ġpeople": 1222,
      "Ġwarning": 1223,
      "ĠSecret": 1224,
      "Ġru": 1225,
      "Ġdecide": 1226,
      "Ġaround": 1227,
      "ared": 1228,
      "Ġquery": 1229,
      "ultip": 1230,
      "ger": 1231,
      "Ġbeing": 1232,
      "get": 1233,
      "Ġanswer": 1234,
      "ways": 1235,
      "air": 1236,
      "math": 1237,
      "Ġseem": 1238,
      "Ġstorm": 1239,
      "be": 1240,
      "Ġgears": 1241,
      "Ġsearch": 1242,
      "Ġarri": 1243,
      "Ġrel": 1244,
      "ĠYou": 1245,
      "alcul": 1246,
      "Ġim": 1247,
      "ier": 1248,
      "ĠDr": 1249,
      "Ġreb": 1250,
      "ĠSilas": 1251,
      "ror": 1252,
      "cation": 1253,
      "Ġappe": 1254,
      "Ġtremb": 1255,
      "Ġpre": 1256,
      "ray": 1257,
      "ĠCh": 1258,
      "Ġcrown": 1259,
      "}}}Ċ": 1260,
      "pp": 1261,
      "ering": 1262,
      "metic": 1263,
      "ithmetic": 1264,
      "Ġstation": 1265,
      "Ġplay": 1266,
      "Ġsub": 1267,
      "ort": 1268,
      "iece": 1269,
      ".âĢĿ": 1270,
      "ord": 1271,
      "able": 1272,
      "ached": 1273,
      "ident": 1274,
      "ided": 1275,
      "Ġremem": 1276,
      "ĠWhis": 1277,
      "ale": 1278,
      "ĠFinal": 1279,
      "uck": 1280,
      "This": 1281,
      "aun": 1282,
      "ry": 1283,
      "Ġbur": 1284,
      "Ġeverything": 1285,
      "Ġcore": 1286,
      "\":[\"": 1287,
      "Ġmultip": 1288,
      "ĠShadow": 1289,
      "Ġformer": 1290,
      "ored": 1291,
      "Ġclaims": 1292,
      "estion": 1293,
      "Ġfear": 1294,
      "Ġsecrets": 1295,
      "Ġnote": 1296,
      "Ġstart": 1297,
      "âĢĻt": 1298,
      "Ġmusic": 1299,
      "hter": 1300,
      "Ġrest": 1301,
      "Ġwhether": 1302,
      "Ġbegin": 1303,
      "king": 1304,
      "_read": 1305,
      "Ġdream": 1306,
      "quiet": 1307,
      "ĠLy": 1308,
      "Ġclockmaker": 1309,
      "Ġany": 1310,
      "Ġquiet": 1311,
      "acks": 1312,
      "rif": 1313,
      "Ġfollow": 1314,
      "Ġed": 1315,
      "Ġglow": 1316,
      "Ġcrew": 1317,
      "Ġalways": 1318,
      "Ġwaiting": 1319,
      "Ġmemories": 1320,
      "Ġthought": 1321,
      "Ġheld": 1322,
      "ven": 1323,
      "Ġtool": 1324,
      "Ġitself": 1325,
      ").<|": 1326,
      "atures": 1327,
      "attern": 1328,
      "lass": 1329,
      "Ġhold": 1330,
      "Ġrecl": 1331,
      "Ġlantern": 1332,
      "Ġflick": 1333,
      "ĠĠĊĊ": 1334,
      "here": 1335,
      "Ġplace": 1336,
      "Ġexpression": 1337,
      "Ġkeep": 1338,
      "ĠWhisper": 1339,
      "location": 1340,
      "der": 1341,
      "Ġcar": 1342,
      "Ġbecom": 1343,
      "Ġdon": 1344,
      "ub": 1345,
      "mat": 1346,
      "ove": 1347,
      "Ġhaun": 1348,
      "Ġsilent": 1349,
      "Ġwasn": 1350,
      "ead": 1351,
      "Ġfil": 1352,
      "cThe": 1353,
      "Ġspir": 1354,
      "Ġunderst": 1355,
      "Ġthink": 1356,
      "Ġwat": 1357,
      "Ġobject": 1358,
      "Ġdanger": 1359,
      "ĠHis": 1360,
      "ich": 1361,
      "uct": 1362,
      "up": 1363,
      "Ġcoll": 1364,
      "Ġdev": 1365,
      "dom": 1366,
      "Ġthick": 1367,
      "ename": 1368,
      "filename": 1369,
      "ng": 1370,
      "Ġquestion": 1371,
      "Ġval": 1372,
      "aughter": 1373,
      "erg": 1374,
      "Ġprov": 1375,
      "ĠFirst": 1376,
      "Ġaway": 1377,
      "epath": 1378,
      "filepath": 1379,
      "Ġline": 1380,
      "ault": 1381,
      "Ġsave": 1382,
      "aggie": 1383,
      "Let": 1384,
      "irror": 1385,
      "Ġsentient": 1386,
      "Ġaw": 1387,
      "oc": 1388,
      "ĠElena": 1389,
      "Ġri": 1390,
      "Ġfilled": 1391,
      "She": 1392,
      "Ġarg": 1393,
      "For": 1394,
      "Ġshow": 1395,
      "Ġwarns": 1396,
      "ze": 1397,
      "Ġanother": 1398,
      "ross": 1399,
      "Ġeng": 1400,
      "Ġuser": 1401,
      "ourn": 1402,
      "ledge": 1403,
      "Ġmystery": 1404,
      "Ġprot": 1405,
      "face": 1406,
      "Ġprovided": 1407,
      "Ġresult": 1408,
      "ĠAl": 1409,
      "Ġfall": 1410,
      "Ġsw": 1411,
      "ĠTom": 1412,
      "Ġcent": 1413,
      "Ġgo": 1414,
      "Ġsou": 1415,
      "Ġrealiz": 1416,
      "ia": 1417,
      "Ġcome": 1418,
      "Ġsubtr": 1419,
      "Ġassist": 1420,
      "Ġcomp": 1421,
      "Ġmultiply": 1422,
      "Ġbook": 1423,
      "ans": 1424,
      "Ġfunctions": 1425,
      "Ġfree": 1426,
      "Ġsignatures": 1427,
      "rel": 1428,
      "Ġyears": 1429,
      "Ġelse": 1430,
      "Ġbreak": 1431,
      "Ġguard": 1432,
      "aptain": 1433,
      ".\"}}Ċ": 1434,
      "Ġarguments": 1435,
      "ĠOr": 1436,
      "Ġcurse": 1437,
      "ĠEchoes": 1438,
      "json": 1439,
      "Ġjson": 1440,
      "args": 1441,
      "Ġreached": 1442,
      "-name": 1443,
      "-object": 1444,
      "-json": 1445,
      ">,": 1446,
      ">}Ċ": 1447,
      "system": 1448,
      "<tools": 1449,
      "ĠTools": 1450,
      "ĠSir": 1451,
      "Ġvan": 1452,
      "Ġconfronts": 1453,
      "ator": 1454,
      "ix": 1455,
      "rayal": 1456,
      "oke": 1457,
      "ild": 1458,
      "ouse": 1459,
      "Ġcorr": 1460,
      "ĠJack": 1461,
      "Ġcost": 1462,
      "Ġlooked": 1463,
      "Ġleav": 1464,
      "Ġsoul": 1465,
      "term": 1466,
      "olen": 1467,
      "anc": 1468,
      "Ġheav": 1469,
      "Ġsteal": 1470,
      "Ġmight": 1471,
      "ĠMaggie": 1472,
      "aster": 1473,
      "arden": 1474,
      "aught": 1475,
      "Ġforward": 1476,
      "Ġbuilt": 1477,
      "orne": 1478,
      "Ġstar": 1479,
      "Ġuncover": 1480,
      "eval": 1481,
      "Ġappears": 1482,
      "Ġmel": 1483,
      "Ġday": 1484,
      "Ġburied": 1485,
      "uate": 1486,
      "Ġtimep": 1487,
      "ee": 1488,
      "ens": 1489,
      "Ġcont": 1490,
      "ĠVey": 1491,
      "Ġclocks": 1492,
      "iliz": 1493,
      "ĠCho": 1494,
      "Ġchoice": 1495,
      "Ġshar": 1496,
      "Ġtick": 1497,
      "ings": 1498,
      "Ġbecomes": 1499,
      "usive": 1500,
      "Ġvault": 1501,
      "etect": 1502,
      "Ġtrue": 1503,
      "vol": 1504,
      "Ġlear": 1505,
      "Ġarrives": 1506,
      "Ġho": 1507,
      "Ġhistory": 1508,
      "}}Ċ": 1509,
      "Ġrul": 1510,
      "Ġfail": 1511,
      "Ġknowledge": 1512,
      "phony": 1513,
      "Ġcold": 1514,
      "pered": 1515,
      "Ġkingdom": 1516,
      "upt": 1517,
      "Ġrun": 1518,
      "aces": 1519,
      "yal": 1520,
      "Ġprotect": 1521,
      "Ġengine": 1522,
      "Ġmechanical": 1523,
      "Ġfather": 1524,
      ",\\\"": 1525,
      ".\"}}": 1526,
      "\"],\"": 1527,
      ".\"}}}}}Ċ": 1528,
      "Ġunderstand": 1529,
      "ĠHer": 1530,
      "Ġad": 1531,
      "Ġmap": 1532,
      "iding": 1533,
      "Ġfrag": 1534,
      "Ġcaught": 1535,
      "ĠClockmaker": 1536,
      "ired": 1537,
      "hen": 1538,
      "light": 1539,
      "Ġtrapped": 1540,
      "ps": 1541,
      "Ġneeded": 1542,
      "ded": 1543,
      "ypt": 1544,
      "Ġsun": 1545,
      "ape": 1546,
      "Ġsaw": 1547,
      "ival": 1548,
      "ĠClockwork": 1549,
      "'t": 1550,
      "Ġwr": 1551,
      "ones": 1552,
      "Ġreclusive": 1553,
      "Ġhimself": 1554,
      "pute": 1555,
      "hing": 1556,
      "Ġchange": 1557,
      "Ġdying": 1558,
      "ors": 1559,
      "Ġhaunted": 1560,
      "Ġsource": 1561,
      "land": 1562,
      "Ġwhispered": 1563,
      "ial": 1564,
      "arm": 1565,
      "Ġ'": 1566,
      "Ġstolen": 1567,
      "ĠNot": 1568,
      "Ġsn": 1569,
      "Ġsurv": 1570,
      "Ġruins": 1571,
      "Ġalive": 1572,
      "idge": 1573,
      "aint": 1574,
      "Ġforever": 1575,
      "Ġcham": 1576,
      "Ġmoved": 1577,
      "Ġshif": 1578,
      "aph": 1579,
      "Ġsubtract": 1580,
      "Ġdust": 1581,
      "ric": 1582,
      "eld": 1583,
      "ural": 1584,
      "avel": 1585,
      "Ġchoose": 1586,
      "Ġfire": 1587,
      "iver": 1588,
      "anged": 1589,
      "Ġref": 1590,
      "Ġlights": 1591,
      "Ġvalue": 1592,
      "Ġedge": 1593,
      "ser": 1594,
      "Ġsec": 1595,
      "umber": 1596,
      "Ġwalls": 1597,
      "Ġsteady": 1598,
      "Ġlibr": 1599,
      "Ġsac": 1600,
      "Ġstre": 1601,
      "Ġforced": 1602,
      "Ġcy": 1603,
      "Ġart": 1604,
      "ides": 1605,
      "Ġmeant": 1606,
      "Ġdra": 1607,
      "Ġsurface": 1608,
      "Ġam": 1609,
      "Ġgal": 1610,
      "ping": 1611,
      "Ġwithout": 1612,
      "ĠHollow": 1613,
      "ĠWar": 1614,
      "Ġlate": 1615,
      "ned": 1616,
      "com": 1617,
      "Ġleg": 1618,
      "allow": 1619,
      "Ġtrying": 1620,
      "Ġdevice": 1621,
      "ĠLady": 1622,
      "etective": 1623,
      "uto": 1624,
      "Ġfin": 1625,
      "query": 1626,
      "ition": 1627,
      "used": 1628,
      "Ġgre": 1629,
      "Ġsymb": 1630,
      "Ġlonger": 1631,
      "Ġflo": 1632,
      "Ġtimepiece": 1633,
      "Ġnam": 1634,
      "ĠSer": 1635,
      "Ġcollap": 1636,
      "ĠRed": 1637,
      "Ġmoon": 1638,
      "py": 1639,
      "ddie": 1640,
      "Ġjourn": 1641,
      "Ġrep": 1642,
      "Ġclosed": 1643,
      "oned": 1644,
      "Ġsharp": 1645,
      "_s": 1646,
      "\\nA": 1647,
      "agic": 1648,
      "ffee": 1649,
      "He": 1650,
      "pic": 1651,
      "But": 1652,
      "Ġworks": 1653,
      "ĠCaptain": 1654,
      "Ġter": 1655,
      "Ġcha": 1656,
      "ĠRe": 1657,
      "Ġexist": 1658,
      "Ġyet": 1659,
      "Ġauto": 1660,
      "ready": 1661,
      "Ġpulsed": 1662,
      "Ġuncovers": 1663,
      "Ġalready": 1664,
      "ĠWhispering": 1665,
      "Ġmade": 1666,
      "Ġsacrif": 1667,
      "Ġarm": 1668,
      "Ġdoes": 1669,
      "Ġlow": 1670,
      "vest": 1671,
      "Ġlist": 1672,
      "Ġscent": 1673,
      "Ġread": 1674,
      "ief": 1675,
      "ĠChoice": 1676,
      "Ġgalax": 1677,
      "atc": 1678,
      "Ġmeets": 1679,
      "Ġorig": 1680,
      "Ġchamber": 1681,
      "Ġgalaxy": 1682,
      "vestig": 1683,
      "ĠJax": 1684,
      "Ġgrow": 1685,
      "Ġlove": 1686,
      "It": 1687,
      "Ġremain": 1688,
      "ished": 1689,
      "Ġbatt": 1690,
      "Ġinvestig": 1691,
      "Ġris": 1692,
      "Ġisland": 1693,
      "Ġhouse": 1694,
      "gue": 1695,
      "Ġrogue": 1696,
      "iffe": 1697,
      "ifferent": 1698,
      "akes": 1699,
      "Ġother": 1700,
      "amil": 1701,
      "Ġyour": 1702,
      "Ġends": 1703,
      "Ġvoices": 1704,
      "Ġmachines": 1705,
      "ite": 1706,
      "Ġfact": 1707,
      "ĠMr": 1708,
      "Ġdifferent": 1709,
      "ĠChapter": 1710,
      "load": 1711,
      "de": 1712,
      "Ġmelody": 1713,
      "Ġinside": 1714,
      "ane": 1715,
      "Ġthreat": 1716,
      "ĠSome": 1717,
      "Ġpass": 1718,
      "ĠVex": 1719,
      "Ġsteam": 1720,
      "Ġblack": 1721,
      "Ġbeginning": 1722,
      "Ġcap": 1723,
      "acing": 1724,
      "ged": 1725,
      "ants": 1726,
      "Ġsmall": 1727,
      "Ġvision": 1728,
      "arth": 1729,
      "Ġforest": 1730,
      "aby": 1731,
      "Ġdisap": 1732,
      "Ġdangerous": 1733,
      "Ġsymphony": 1734,
      "ĠFr": 1735,
      "ĠEve": 1736,
      "Ġfight": 1737,
      "uel": 1738,
      "Ġknown": 1739,
      "ĠEddie": 1740,
      "Ġform": 1741,
      "Ġhiding": 1742,
      "Ġciv": 1743,
      "Ġtrembled": 1744,
      "Ġsingle": 1745,
      "ug": 1746,
      "Ġmur": 1747,
      "ĠWith": 1748,
      "ĠDain": 1749,
      "cked": 1750,
      "atic": 1751,
      "Ġdr": 1752,
      "Ġhow": 1753,
      "erc": 1754,
      "ask": 1755,
      "ause": 1756,
      "Ġdisappe": 1757,
      "iren": 1758,
      "Ġpulse": 1759,
      "aking": 1760,
      "Ġworkshop": 1761,
      "Ġsus": 1762,
      "Ġsomeone": 1763,
      "Ġesc": 1764,
      "olve": 1765,
      "Ġget": 1766,
      "Ġpur": 1767,
      "Ġcoming": 1768,
      "ĠTr": 1769,
      "Ġlines": 1770,
      "Ġhope": 1771,
      "ĠGears": 1772,
      "ilization": 1773,
      "cess": 1774,
      "ative": 1775,
      "Ġengineer": 1776,
      "aze": 1777,
      "unk": 1778,
      "attered": 1779,
      "Ġspirit": 1780,
      "\"},": 1781,
      "Ġseemed": 1782,
      "Ġcivilization": 1783,
      "Ġtw": 1784,
      "Ġcomm": 1785,
      "Ġtal": 1786,
      "ĠThorne": 1787,
      "udd": 1788,
      "Ġconsci": 1789,
      "Ġfamil": 1790,
      "Ġgone": 1791,
      "thm": 1792,
      "hythm": 1793,
      "oup": 1794,
      "Ġdaughter": 1795,
      "ages": 1796,
      "list": 1797,
      "Ġmove": 1798,
      "Ġherself": 1799,
      "inte": 1800,
      "integer": 1801,
      "Ġland": 1802,
      "Ġchest": 1803,
      "ual": 1804,
      "Ġhap": 1805,
      "Ġgroup": 1806,
      "Ġoffers": 1807,
      "Ġpresence": 1808,
      "ize": 1809,
      "af": 1810,
      "ely": 1811,
      "Ġleader": 1812,
      "Ġspent": 1813,
      "alm": 1814,
      "asing": 1815,
      "ĠFor": 1816,
      "ĠTime": 1817,
      "Ġmy": 1818,
      "Ġwal": 1819,
      "Ġatt": 1820,
      "Ġawaken": 1821,
      "Ġinter": 1822,
      "Ġrelic": 1823,
      "Ġwhispers": 1824,
      "acy": 1825,
      "Ġgarden": 1826,
      "Ġgreat": 1827,
      "where": 1828,
      "Ġflickering": 1829,
      "Ġtries": 1830,
      "Ġstone": 1831,
      "Ġcursed": 1832,
      "Ġheard": 1833,
      "Ġchaos": 1834,
      "aled": 1835,
      "ives": 1836,
      "ury": 1837,
      "ete": 1838,
      "Ġholds": 1839,
      "Ġunr": 1840,
      "Ġusing": 1841,
      "Ġcrypt": 1842,
      "Ġcor": 1843,
      "uc": 1844,
      "-d": 1845,
      "ĠClara": 1846,
      "lan": 1847,
      "els": 1848,
      "Ġspeaks": 1849,
      "Ġtake": 1850,
      "ĠWhen": 1851,
      "Ġfate": 1852,
      "bs": 1853,
      "ipher": 1854,
      "Ġrhythm": 1855,
      "irl": 1856,
      "Ġdim": 1857,
      "Ġchild": 1858,
      "Ġremember": 1859,
      "cW": 1860,
      "riend": 1861,
      "Ġstored": 1862,
      "ousness": 1863,
      "Ġyoung": 1864,
      "Ġinvent": 1865,
      "Ġser": 1866,
      "ĠLyra": 1867,
      "Ġautomat": 1868,
      "ost": 1869,
      "Ġmirror": 1870,
      "Ġempire": 1871,
      "Ġbattle": 1872,
      "med": 1873,
      "tered": 1874,
      "Ġslow": 1875,
      "\\nShe": 1876,
      "Ġconsciousness": 1877,
      "_eval": 1878,
      "Ġpers": 1879,
      "Ġcoffee": 1880,
      "version": 1881,
      "mander": 1882,
      "Ġwent": 1883,
      "Ġcalcul": 1884,
      "Ġasked": 1885,
      "valuate": 1886,
      "ection": 1887,
      "Ġcode": 1888,
      "Ġcame": 1889,
      "Ġpound": 1890,
      "oon": 1891,
      "Ġfriend": 1892,
      "Ġtre": 1893,
      "sit": 1894,
      "Ġpol": 1895,
      "Ġaband": 1896,
      "Ġhesit": 1897,
      "ĠSilence": 1898,
      "Ġrealizes": 1899,
      "Ġfiles": 1900,
      "Ġautomaton": 1901,
      "Ġca": 1902,
      "Ġrust": 1903,
      "aric": 1904,
      "Ġdecipher": 1905,
      "Ġsold": 1906,
      "Ġcle": 1907,
      "ĠLena": 1908,
      "Ġstumb": 1909,
      "ts": 1910,
      "Ġprocess": 1911,
      "Ġvis": 1912,
      "Ġbare": 1913,
      "ield": 1914,
      "Ġacross": 1915,
      "Ġbread": 1916,
      "Ġmissing": 1917,
      "ĠCluck": 1918,
      "acle": 1919,
      "Ġpressed": 1920,
      "cat": 1921,
      "Ġleading": 1922,
      "*\"}}Ċ": 1923,
      "yx": 1924,
      "Ġtight": 1925,
      "Eli": 1926,
      "ĠBl": 1927,
      "Ġhear": 1928,
      "Ġperson": 1929,
      "Ġever": 1930,
      "Ġalien": 1931,
      "Ġechoed": 1932,
      "Ġplanet": 1933,
      "_source": 1934,
      "Ġfad": 1935,
      "Ġwatching": 1936,
      "Ġcalled": 1937,
      "Ã©": 1938,
      "Ġmon": 1939,
      "arithmetic": 1940,
      "Ġnod": 1941,
      "Ġfix": 1942,
      "Ġspace": 1943,
      "calcul": 1944,
      ",âĢĿ": 1945,
      "Ġtext": 1946,
      "Ġloyal": 1947,
      "ĠWarning": 1948,
      "ison": 1949,
      "Ġprotagonist": 1950,
      "open": 1951,
      "Ġtell": 1952,
      "ots": 1953,
      "Ġinform": 1954,
      "Ġtried": 1955,
      "-c": 1956,
      "An": 1957,
      "expression": 1958,
      "Ġdeterm": 1959,
      "ĠAlaric": 1960,
      "Ġdesper": 1961,
      "Ġaccident": 1962,
      "ĠThis": 1963,
      "Ġpar": 1964,
      "_math": 1965,
      "ĠMay": 1966,
      "keep": 1967,
      "Ġran": 1968,
      "Ġdel": 1969,
      "ĠRo": 1970,
      "lip": 1971,
      "law": 1972,
      "Ġlay": 1973,
      "umm": 1974,
      "rf": 1975,
      "ism": 1976,
      "Ġempty": 1977,
      "Ġsoft": 1978,
      "ĠRex": 1979,
      "adi": 1980,
      "for": 1981,
      "Ġnear": 1982,
      "hip": 1983,
      "orian": 1984,
      "Ġwrong": 1985,
      "Ġsentence": 1986,
      "Ġfaint": 1987,
      "Ġsal": 1988,
      "iven": 1989,
      "Ġdemand": 1990,
      "ky": 1991,
      "ternal": 1992,
      "Ġheavy": 1993,
      "Ġstand": 1994,
      "ĠRa": 1995,
      "cIt": 1996,
      "ution": 1997,
      "ank": 1998,
      "Ġuse": 1999,
      "Ġhun": 2000,
      "ĠMara": 2001,
      "ĠMach": 2002,
      "Ġforce": 2003,
      "Ġabandoned": 2004,
      "Ġhappen": 2005,
      "Ġgod": 2006,
      "ĠU": 2007,
      "And": 2008,
      "So": 2009,
      "Ġbody": 2010,
      "Ġtrain": 2011,
      "Ġdist": 2012,
      "Ġpurp": 2013,
      "Ġcheck": 2014,
      "Ġdeciphers": 2015,
      "Ġvoid": 2016,
      "Ġnodded": 2017,
      "Ġwhich": 2018,
      "Ġlearns": 2019,
      "ĠKaelen": 2020,
      "Ġlibrary": 2021,
      "Ġleads": 2022,
      "punk": 2023,
      "pattern": 2024,
      "Ġdrawn": 2025,
      "asy": 2026,
      "Ġpattern": 2027,
      "Ġdarkness": 2028,
      "ĠMachine": 2029,
      "Ġknows": 2030,
      "Ġboth": 2031,
      "Ġled": 2032,
      "Ġnumber": 2033,
      "ĠAr": 2034,
      "Ġrememb": 2035,
      "Ġcare": 2036,
      "Ġremn": 2037,
      "Ġbarely": 2038,
      "ĠNia": 2039,
      "rav": 2040,
      "fish": 2041,
      "ĠGhost": 2042,
      "Ġside": 2043,
      "ash": 2044,
      "Ġsteps": 2045,
      "Ġpurpose": 2046,
      "Ġcontain": 2047,
      "ammer": 2048,
      "lyn": 2049,
      "ĠKing": 2050,
      "apon": 2051,
      "ĠBet": 2052,
      "Ġweapon": 2053,
      "Ġdetective": 2054,
      "cket": 2055,
      "?\\\"": 2056,
      "Ġgrand": 2057,
      "Ġarch": 2058,
      "ations": 2059,
      "search": 2060,
      "Ġupon": 2061,
      "ĠMayor": 2062,
      "Ġtask": 2063,
      "Ġleave": 2064,
      "Ġfollowed": 2065,
      "Ġcorrupt": 2066,
      "Ġpulled": 2067,
      "ister": 2068,
      "ĠNew": 2069,
      "Ġgold": 2070,
      "ĠNyx": 2071,
      "Ġfalls": 2072,
      "ress": 2073,
      "Ġpressing": 2074,
      "Ġgaze": 2075,
      "Ġclockwork": 2076,
      "ument": 2077,
      "Ġleaving": 2078,
      "kn": 2079,
      "Ġfur": 2080,
      "man": 2081,
      "actured": 2082,
      "ĠRook": 2083,
      "otion": 2084,
      "Ġhome": 2085,
      "Ġthing": 2086,
      "Ġsings": 2087,
      "Ġtrust": 2088,
      "Ġgl": 2089,
      "Ġsiren": 2090,
      "Ġeven": 2091,
      "Ġbound": 2092,
      "ĠNow": 2093,
      "ĠTick": 2094,
      "Ġtoward": 2095,
      "riff": 2096,
      "Ġcrack": 2097,
      "cientist": 2098,
      "\"The": 2099,
      "ges": 2100,
      "ased": 2101,
      "ĠCom": 2102,
      "Ġint": 2103,
      "Ġtrembling": 2104,
      "Ġpersonal": 2105,
      "cer": 2106,
      "Ġcrumb": 2107,
      "ĠSong": 2108,
      "Ġsl": 2109,
      "ĠBetrayal": 2110,
      "Ġbegan": 2111,
      "Ġsat": 2112,
      "Ġtest": 2113,
      "how": 2114,
      "Ġdesperate": 2115,
      "Write": 2116,
      "Per": 2117,
      "ible": 2118,
      "Ġnamed": 2119,
      "atural": 2120,
      "Ġshows": 2121,
      "ater": 2122,
      "ute": 2123,
      "Ġsacrifices": 2124,
      "athe": 2125,
      "ĠMan": 2126,
      "emp": 2127,
      "Ġothers": 2128,
      "Ġwatched": 2129,
      "Ġnob": 2130,
      "iction": 2131,
      "ugg": 2132,
      "Ġve": 2133,
      "othing": 2134,
      "ĠHand": 2135,
      "ĠMem": 2136,
      "ĠDe": 2137,
      "Ġprice": 2138,
      "Ġjournal": 2139,
      "Ġfro": 2140,
      "igh": 2141,
      "Ġmine": 2142,
      "Ġcapt": 2143,
      "kered": 2144,
      "ickered": 2145,
      "bit": 2146,
      "Ġflickered": 2147,
      "Ġdeeper": 2148,
      "Ġhumanity": 2149,
      "ried": 2150,
      "go": 2151,
      "Ġreg": 2152,
      "Ġinformation": 2153,
      "ina": 2154,
      "Ġclaiming": 2155,
      "Ġglass": 2156,
      "Ġuniver": 2157,
      "Ġmechanism": 2158,
      "ground": 2159,
      "ĠMemory": 2160,
      "Elias": 2161,
      "Ġactiv": 2162,
      "Ġlegend": 2163,
      "Ġdeath": 2164,
      "Ġcloser": 2165,
      "Look": 2166,
      "},\"": 2167,
      "Ġkill": 2168,
      "Ġdreams": 2169,
      "ron": 2170,
      "Ġment": 2171,
      "iego": 2172,
      "Ġoutlaw": 2173,
      "atcher": 2174,
      "head": 2175,
      "ĠEvelyn": 2176,
      "ching": 2177,
      "reate": 2178,
      "Ġcommand": 2179,
      "ĠNira": 2180,
      "key": 2181,
      "El": 2182,
      "Ġmission": 2183,
      "Ġenc": 2184,
      "Ġthose": 2185,
      "ear": 2186,
      "ĠPer": 2187,
      ":\\": 2188,
      "Ġsci": 2189,
      "Ġscience": 2190,
      "Rep": 2191,
      "orrow": 2192,
      "Ġremnants": 2193,
      "Ġprec": 2194,
      "tle": 2195,
      "ergy": 2196,
      "angu": 2197,
      "Ġspoke": 2198,
      "Ġstarts": 2199,
      "Ġfragment": 2200,
      ".\"<|": 2201,
      "Ġreci": 2202,
      "Ġrecipe": 2203,
      "Ġimp": 2204,
      "Ġhour": 2205,
      "volution": 2206,
      "Ġhammer": 2207,
      "Ġtrans": 2208,
      "Ġalone": 2209,
      "Ġfew": 2210,
      "rie": 2211,
      "Ġfaces": 2212,
      "Ġerase": 2213,
      "Ġtower": 2214,
      "Ġred": 2215,
      "Ġenergy": 2216,
      "mis": 2217,
      "ilit": 2218,
      "Ġprison": 2219,
      "ipul": 2220,
      "uring": 2221,
      "ening": 2222,
      "Ġexistence": 2223,
      "fess": 2224,
      "yond": 2225,
      "Ġbeyond": 2226,
      "Ġsupp": 2227,
      "Another": 2228,
      "ĠHar": 2229,
      "Ġmanipul": 2230,
      "rop": 2231,
      "Ġmetal": 2232,
      "Ġmagic": 2233,
      "ĠLys": 2234,
      "Ġdestroyed": 2235,
      "Ġtaken": 2236,
      "Ġopens": 2237,
      "Ġvanished": 2238,
      "Ġticking": 2239,
      "Ġwood": 2240,
      "pect": 2241,
      "va": 2242,
      "Ġhead": 2243,
      "abel": 2244,
      "essive": 2245,
      "-s": 2246,
      "_list": 2247,
      "data": 2248,
      "Ġabove": 2249,
      "hap": 2250,
      "Ġenem": 2251,
      "Ġartif": 2252,
      "ĠAn": 2253,
      "Ġguardian": 2254,
      ".\"},\"": 2255,
      "relict": 2256,
      "Ġburn": 2257,
      "Ġpain": 2258,
      "Ġgirl": 2259,
      "body": 2260,
      ".'": 2261,
      "Ġboots": 2262,
      "aly": 2263,
      "cast": 2264,
      "Ġlocked": 2265,
      "adio": 2266,
      "oud": 2267,
      "store": 2268,
      "Ġstay": 2269,
      "ĠHour": 2270,
      "Ġexplo": 2271,
      "ĠMarc": 2272,
      "ature": 2273,
      "Ġev": 2274,
      "Ġskyfish": 2275,
      "aned": 2276,
      "the": 2277,
      "ift": 2278,
      "illi": 2279,
      "Ġsho": 2280,
      "stra": 2281,
      "ĠJul": 2282,
      "uch": 2283,
      "Ġfeel": 2284,
      "umpy": 2285,
      "Ġseeks": 2286,
      "Ġwhole": 2287,
      "oses": 2288,
      "Ġmin": 2289,
      "Ġshort": 2290,
      "ised": 2291,
      "anguage": 2292,
      "Ġbelieves": 2293,
      "Ġet": 2294,
      "Ġcast": 2295,
      "Ġshop": 2296,
      "eturn": 2297,
      "Ġoriginal": 2298,
      "ĠWhat": 2299,
      "Ġloop": 2300,
      "ompute": 2301,
      "illiant": 2302,
      "ĠDiego": 2303,
      "ĠLi": 2304,
      "Ġfinally": 2305,
      "Ġunkn": 2306,
      "ai": 2307,
      "Ġnet": 2308,
      "Ġaction": 2309,
      "lood": 2310,
      "Ġanything": 2311,
      "Ġforcing": 2312,
      "ital": 2313,
      "Ġenemy": 2314,
      "\\nHe": 2315,
      "Ġpap": 2316,
      "Ġcoun": 2317,
      "Ġderelict": 2318,
      "space": 2319,
      "ense": 2320,
      "bel": 2321,
      "Ġliving": 2322,
      "Rem": 2323,
      "Remind": 2324,
      "Ġseems": 2325,
      "cThis": 2326,
      "uses": 2327,
      "awn": 2328,
      "Ġswallow": 2329,
      "Ġrival": 2330,
      "Ġtravel": 2331,
      "yn": 2332,
      "Ġgrew": 2333,
      "Ġhus": 2334,
      "Ġchapters": 2335,
      "Ġbetrayal": 2336,
      "Ġcos": 2337,
      "ĠCrown": 2338,
      "Ġthough": 2339,
      "iled": 2340,
      "Ġvery": 2341,
      "overed": 2342,
      "keeper": 2343,
      "Ġevaluate": 2344,
      "Ġcosm": 2345,
      "Ġthief": 2346,
      "ĠLu": 2347,
      "Ġcompl": 2348,
      "mother": 2349,
      "Ġmist": 2350,
      "Some": 2351,
      "ĠWatcher": 2352,
      "aked": 2353,
      "ĠSky": 2354,
      "Ġstatic": 2355,
      "Ġsymbol": 2356,
      "redict": 2357,
      "Ġnoble": 2358,
      "look": 2359,
      "ĠCommander": 2360,
      "ĠBro": 2361,
      "Ġmayor": 2362,
      "Ġsurvival": 2363,
      "Ġhesitated": 2364,
      "Ġoffic": 2365,
      "Ġappro": 2366,
      "hea": 2367,
      "contents": 2368,
      "ĠQ": 2369,
      "ĠAstra": 2370,
      "ox": 2371,
      "Ġfull": 2372,
      "Ġstir": 2373,
      "wers": 2374,
      "set": 2375,
      "Ġglowing": 2376,
      "ree": 2377,
      "Ġescape": 2378,
      "Ġtech": 2379,
      "ĠWe": 2380,
      "ues": 2381,
      "Ġenough": 2382,
      "Ġstories": 2383,
      "Ġswor": 2384,
      "Ġperform": 2385,
      "Ġetched": 2386,
      "Who": 2387,
      "Ġmark": 2388,
      "umble": 2389,
      "Ġgame": 2390,
      "oken": 2391,
      "Ġunderground": 2392,
      "lookup": 2393,
      "rint": 2394,
      "Ġcryptic": 2395,
      "ector": 2396,
      "adcast": 2397,
      "Ġcurious": 2398,
      "Ġchance": 2399,
      "Ġdetermined": 2400,
      "Ġinventor": 2401,
      "Ġfant": 2402,
      "Ġfantasy": 2403,
      "Ġfiction": 2404,
      "Ġdefined": 2405,
      "ĠOn": 2406,
      "Ġaccidentally": 2407,
      "Ġintr": 2408,
      "Ġgen": 2409,
      "haps": 2410,
      "Ġstreets": 2411,
      "Ġtracks": 2412,
      "Ġturning": 2413,
      "Ġcour": 2414,
      "off": 2415,
      "Ġleaves": 2416,
      "ullaby": 2417,
      "Ġstud": 2418,
      "ote": 2419,
      "Ġtun": 2420,
      "Ġnav": 2421,
      "ĠObs": 2422,
      "orridge": 2423,
      "ĠObsessive": 2424,
      "Ġsword": 2425,
      "ula": 2426,
      "ĠMis": 2427,
      "Ġclear": 2428,
      "ĠVict": 2429,
      "Ġcoast": 2430,
      "Ġbelieved": 2431,
      "Ġvisits": 2432,
      "Ġlanguage": 2433,
      "icate": 2434,
      "Ġconfess": 2435,
      "Ġtook": 2436,
      "of": 2437,
      "ĠStorm": 2438,
      "iracy": 2439,
      "-rel": 2440,
      "Ġbrus": 2441,
      "Ġstranger": 2442,
      "Ġrequi": 2443,
      "Ġsorrow": 2444,
      "Ġkind": 2445,
      "ĠThen": 2446,
      "Ġscientist": 2447,
      "ĠCode": 2448,
      "Ġident": 2449,
      "Ġunt": 2450,
      "ĠInside": 2451,
      "Ġple": 2452,
      "Ġmean": 2453,
      "Ġmake": 2454,
      "ĠMarcus": 2455,
      "Ġgang": 2456,
      "Ġstumbles": 2457,
      "zz": 2458,
      "ses": 2459,
      "_text": 2460,
      "ertain": 2461,
      "Kael": 2462,
      "Ġfle": 2463,
      "bed": 2464,
      "Ġchanged": 2465,
      "Ġenfor": 2466,
      "Ġsearching": 2467,
      "Ġtwist": 2468,
      "ogn": 2469,
      "Ġmatch": 2470,
      "ming": 2471,
      "Ġrecap": 2472,
      "rother": 2473,
      "ĠIs": 2474,
      "Ġsister": 2475,
      "Ġhard": 2476,
      "Ġstrugg": 2477,
      "Ġdistant": 2478,
      "Ġveil": 2479,
      "Ġahead": 2480,
      "cWhat": 2481,
      "ected": 2482,
      "ĠIf": 2483,
      "Ġseeking": 2484,
      "ucture": 2485,
      "Ġsaving": 2486,
      "Ġlit": 2487,
      "Ġradio": 2488,
      "Ġnotes": 2489,
      "Ġweb": 2490,
      "ĠElian": 2491,
      "fessor": 2492,
      "Ġpounding": 2493,
      "bidden": 2494,
      "ĠSilent": 2495,
      "uries": 2496,
      "ĠLantern": 2497,
      "Ġcenturies": 2498,
      "Ġrepl": 2499,
      "Ġprom": 2500,
      "Ġreturns": 2501,
      "ords": 2502,
      "\\nM": 2503,
      "ĠGreat": 2504,
      "Ġsin": 2505,
      "ĠLysand": 2506,
      "beat": 2507,
      "ĠTruth": 2508,
      "ĠKai": 2509,
      "adde": 2510,
      "addeus": 2511,
      "Ġhal": 2512,
      "Nothing": 2513,
      "Ġfog": 2514,
      "Ġsystems": 2515,
      "How": 2516,
      "Ġdesc": 2517,
      "ility": 2518,
      "enary": 2519,
      "ercenary": 2520,
      "Ġterri": 2521,
      "Ġfamily": 2522,
      "Ġheartbeat": 2523,
      "ments": 2524,
      "Ġsay": 2525,
      "Ġur": 2526,
      "oney": 2527,
      "ĠGr": 2528,
      "ript": 2529,
      "udge": 2530,
      "ĠShadows": 2531,
      "Repo": 2532,
      "-relative": 2533,
      "Ġstopped": 2534,
      "ĠPercy": 2535,
      "save": 2536,
      "Ġbecome": 2537,
      "Ġcalm": 2538,
      "elling": 2539,
      "graced": 2540,
      "ĠMirror": 2541,
      "ĠPr": 2542,
      "Ġrebel": 2543,
      "ĠZara": 2544,
      "Ġtowns": 2545,
      "Ġmoving": 2546,
      "-b": 2547,
      "aves": 2548,
      "Ġconfesses": 2549,
      "enc": 2550,
      "Ġgrav": 2551,
      "ĠRhea": 2552,
      "Ġrecogn": 2553,
      "Ġcollapse": 2554,
      "Ġworkspace": 2555,
      "Ġuniverse": 2556,
      "Ġchang": 2557,
      "Ġcareful": 2558,
      "Ġearth": 2559,
      "ellion": 2560,
      "rofessor": 2561,
      "Ġversion": 2562,
      "ĠSent": 2563,
      "Ġloc": 2564,
      "Ġechoes": 2565,
      "Ġbrilliant": 2566,
      "Ġdecay": 2567,
      "Ġterrible": 2568,
      "Ġrestore": 2569,
      ">I": 2570,
      "Ġdisappear": 2571,
      "eg": 2572,
      "Ġready": 2573,
      "Ġsett": 2574,
      "Ġsees": 2575,
      "ilitary": 2576,
      "ists": 2577,
      "Ġunknown": 2578,
      "Ġmentor": 2579,
      "ĠMechan": 2580,
      "urt": 2581,
      "Ġrevolution": 2582,
      "ubstring": 2583,
      "Ġcouldn": 2584,
      "Ġbelong": 2585,
      "Ġwhose": 2586,
      "arize": 2587,
      "ummarize": 2588,
      "Summarize": 2589,
      "Ġscan": 2590,
      "cl": 2591,
      "Ġrunning": 2592,
      "create": 2593,
      "_d": 2594,
      "Ġruled": 2595,
      "Ġfurther": 2596,
      "eside": 2597,
      "ĠNe": 2598,
      "Ġright": 2599,
      "Ġsteals": 2600,
      "Ġsecretly": 2601,
      "Ġcoastal": 2602,
      "ĠThaddeus": 2603,
      "ĠThat": 2604,
      "Ġartifact": 2605,
      "aver": 2606,
      "ĠVo": 2607,
      "Ġbeside": 2608,
      "hich": 2609,
      "night": 2610,
      "Ġcompos": 2611,
      "Ġshattered": 2612,
      "That": 2613,
      "Ġrusted": 2614,
      "Ġnavig": 2615,
      "Somewhere": 2616,
      "ĠProfessor": 2617,
      "Ġwhile": 2618,
      "Ġwants": 2619,
      "Ġdisgraced": 2620,
      "gether": 2621,
      "ĠCon": 2622,
      "ued": 2623,
      "Ġsand": 2624,
      "Ġ\"*\"}}Ċ": 2625,
      "Ġconsum": 2626,
      "Ġrose": 2627,
      "ĠCoun": 2628,
      "Ġsafe": 2629,
      "Ġstructure": 2630,
      "Ġcook": 2631,
      "Which": 2632,
      "Ġquick": 2633,
      "seen": 2634,
      "Ġcorre": 2635,
      "Ġsheriff": 2636,
      "ĠLysandra": 2637,
      "Ġgro": 2638,
      "Ġvict": 2639,
      "Ġtogether": 2640,
      "Ġprop": 2641,
      "thon": 2642,
      "agged": 2643,
      "Ġduel": 2644,
      "Ġhole": 2645,
      "Ġsymbols": 2646,
      "Ġemerg": 2647,
      "Ġopened": 2648,
      "Ġlive": 2649,
      "Ġchooses": 2650,
      "ĠForgotten": 2651,
      "Ġghostly": 2652,
      "Ġfloor": 2653,
      "iar": 2654,
      "ĠMyst": 2655,
      "ster": 2656,
      "Ġidentity": 2657,
      "raith": 2658,
      "Ġlocal": 2659,
      "fu": 2660,
      "Ġestr": 2661,
      "Ġestranged": 2662,
      "_write": 2663,
      "wf": 2664,
      "zen": 2665,
      "ert": 2666,
      "cil": 2667,
      "ĠKane": 2668,
      "Ġtold": 2669,
      "arek": 2670,
      "Ġremembered": 2671,
      "Ġcyber": 2672,
      "Ġvast": 2673,
      "Ġgiven": 2674,
      "Ġtorn": 2675,
      "ocument": 2676,
      "?âĢĿ": 2677,
      "ĠMoon": 2678,
      "glass": 2679,
      "Ġcontents": 2680,
      "_document": 2681,
      "Ġhalf": 2682,
      "Ġbrother": 2683,
      "Ġdiscover": 2684,
      "idence": 2685,
      "Ġwanted": 2686,
      "Ġendless": 2687,
      "Ġmany": 2688,
      "Ġsince": 2689,
      "ths": 2690,
      "ĠEm": 2691,
      "ĠNote": 2692,
      "Ġago": 2693,
      "cien": 2694,
      "Ġbridge": 2695,
      "ĠBumble": 2696,
      "ĠPrice": 2697,
      "cBut": 2698,
      "Ġcoat": 2699,
      "ĠRaul": 2700,
      "Ġreach": 2701,
      "Ġanom": 2702,
      "Ġunrave": 2703,
      "Ġvisions": 2704,
      "Ġoper": 2705,
      "Ġworking": 2706,
      "aved": 2707,
      "my": 2708,
      "Ġfrozen": 2709,
      "ĠMabel": 2710,
      "do": 2711,
      "Ġriver": 2712,
      "ĠVance": 2713,
      "ĠUn": 2714,
      "Ġcorrect": 2715,
      "Ġvi": 2716,
      "entury": 2717,
      "Ġnetwork": 2718,
      "Ġsqu": 2719,
      "Ġrespon": 2720,
      "inue": 2721,
      "ĠEarth": 2722,
      "Ġexpl": 2723,
      "Ġmain": 2724,
      "Ġbones": 2725,
      "-century": 2726,
      "Ġboy": 2727,
      "Ġgrudge": 2728,
      "Ġsle": 2729,
      "Ġpocket": 2730,
      "Ġshifting": 2731,
      "Ġgreater": 2732,
      "Ġbegun": 2733,
      "ĠHarlan": 2734,
      "Ġjo": 2735,
      "Ġpoint": 2736,
      "Ġmeet": 2737,
      "Ġnothing": 2738,
      "Ġhack": 2739,
      "Ġawakens": 2740,
      "ending": 2741,
      "Ġtrail": 2742,
      "Ġbox": 2743,
      "mission": 2744,
      "Ġhistorian": 2745,
      "Ġdeal": 2746,
      "ĠPudd": 2747,
      "Ġgrandmother": 2748,
      "not": 2749,
      "Ġtightened": 2750,
      "Ġlog": 2751,
      "oub": 2752,
      "Ġdig": 2753,
      "Ġlullaby": 2754,
      "cle": 2755,
      "Ġhollow": 2756,
      "ĠZy": 2757,
      "Ġrefuses": 2758,
      "most": 2759,
      "Ġremains": 2760,
      "Ġknowing": 2761,
      "Ġblood": 2762,
      "ley": 2763,
      "Ġretired": 2764,
      "ĠHidden": 2765,
      "Ġcommun": 2766,
      "Ġcarried": 2767,
      "some": 2768,
      "Ġwhy": 2769,
      "Ġsoldier": 2770,
      "Ġdri": 2771,
      "ogurt": 2772,
      "Ġbal": 2773,
      "Ġforbidden": 2774,
      "Ġporridge": 2775,
      "Ġmass": 2776,
      "Ġwound": 2777,
      "arian": 2778,
      "Ġsuspect": 2779,
      "ĠY": 2780,
      "Ġlanterns": 2781,
      "ĠDream": 2782,
      "Ġclut": 2783,
      "orath": 2784,
      "ĠJaxon": 2785,
      "Ġexper": 2786,
      "ĠElric": 2787,
      "Ġarithmetic": 2788,
      "Ġfaded": 2789,
      "Ġregime": 2790,
      "Ġalmost": 2791,
      "rin": 2792,
      "input": 2793,
      "End": 2794,
      "Ġbelieve": 2795,
      "Ġisn": 2796,
      "cN": 2797,
      "imp": 2798,
      "Ġuses": 2799,
      "ĠLucien": 2800,
      "Ġemotion": 2801,
      "ĠFin": 2802,
      "Ġmor": 2803,
      "ouched": 2804,
      "ner": 2805,
      "ĠStr": 2806,
      "Ġgover": 2807,
      "Ġmid": 2808,
      "spector": 2809,
      "ueen": 2810,
      "ason": 2811,
      "Ġentity": 2812,
      "Ġspread": 2813,
      "ĠQueen": 2814,
      "Ġstreet": 2815,
      "Ġcrumbling": 2816,
      "cept": 2817,
      "Ġwalked": 2818,
      "Ġsouls": 2819,
      "Show": 2820,
      "cean": 2821,
      "Ġdone": 2822,
      "ĠStar": 2823,
      "ĠLord": 2824,
      "\\nL": 2825,
      "apes": 2826,
      "enara": 2827,
      "Ġrew": 2828,
      "Ġfo": 2829,
      "Ġtells": 2830,
      "Ġlover": 2831,
      "ĠHeist": 2832,
      "Ġperf": 2833,
      "Ġridd": 2834,
      "just": 2835,
      "iber": 2836,
      "Ġmen": 2837,
      "Ġpri": 2838,
      "ĠBlack": 2839,
      "Ġgas": 2840,
      "Ġsuspic": 2841,
      "xq": 2842,
      "Ġbrass": 2843,
      "Ġfailed": 2844,
      "lipped": 2845,
      "Ġinfil": 2846,
      "calculation": 2847,
      "Ġinfiltr": 2848,
      "Ġchill": 2849,
      "Ġwond": 2850,
      "Ġagend": 2851,
      "Ġfloating": 2852,
      "Ġbalance": 2853,
      "irm": 2854,
      "Ġscream": 2855,
      "woman": 2856,
      "bot": 2857,
      "Ġconn": 2858,
      "Ġsecond": 2859,
      "ral": 2860,
      "Ġfell": 2861,
      "urity": 2862,
      "Ġshim": 2863,
      "cWe": 2864,
      "Ġagenda": 2865,
      "Ġpages": 2866,
      "Perhaps": 2867,
      "Ġreality": 2868,
      "Ġclue": 2869,
      "List": 2870,
      "Ġins": 2871,
      "Ġmurder": 2872,
      "Ġthings": 2873,
      "Ġexh": 2874,
      "Ġtrack": 2875,
      "Ġcase": 2876,
      "Ġling": 2877,
      "Ġfax": 2878,
      "natural": 2879,
      "lic": 2880,
      "Ġabs": 2881,
      "Ġswallowed": 2882,
      "ety": 2883,
      "arrow": 2884,
      "olde": 2885,
      "Ġduring": 2886,
      "ĠNova": 2887,
      "Ġfractured": 2888,
      "Ġplayers": 2889,
      "Ġlou": 2890,
      "Ġpiece": 2891,
      "Ġlouder": 2892,
      "lie": 2893,
      "_fil": 2894,
      "_files": 2895,
      "Ġunravel": 2896,
      "Ġtied": 2897,
      "formula": 2898,
      "ency": 2899,
      "mith": 2900,
      "acksmith": 2901,
      "Ġlisten": 2902,
      "uep": 2903,
      "ueprint": 2904,
      "ĠOracle": 2905,
      "Ġsure": 2906,
      "Ġcenter": 2907,
      "ĠSeraph": 2908,
      "ĠWh": 2909,
      "solve": 2910,
      "âĢĻre": 2911,
      "Ġpeace": 2912,
      "Ġmeas": 2913,
      "ĠTal": 2914,
      "Ġign": 2915,
      "Ġmercenary": 2916,
      "Ġheist": 2917,
      "Ġcosmic": 2918,
      "Ġpredict": 2919,
      "ĠMysterious": 2920,
      "ized": 2921,
      "Ġcaptured": 2922,
      "ĠElenara": 2923,
      "Ġocean": 2924,
      "Ġcurrent": 2925,
      "Ġdoesn": 2926,
      "ination": 2927,
      "Ġprecision": 2928,
      "Ġsealed": 2929,
      ".\"}},": 2930,
      "ada": 2931,
      "\"]}}}Ċ": 2932,
      ".\"}},\"": 2933,
      "Ġgovern": 2934,
      "Ġnarrow": 2935,
      "ideon": 2936,
      "Ġrecords": 2937,
      "Ġletter": 2938,
      "evaluate": 2939,
      "ĠIsolde": 2940,
      "_expression": 2941,
      "compute": 2942,
      "ton": 2943,
      "zx": 2944,
      "_calc": 2945,
      "istent": 2946,
      "uit": 2947,
      "Ġfreed": 2948,
      "Ġcasting": 2949,
      "usion": 2950,
      "riel": 2951,
      "abriel": 2952,
      "lot": 2953,
      "action": 2954,
      "ĠCross": 2955,
      "elf": 2956,
      "ĠAm": 2957,
      "Ġgrip": 2958,
      "Ġintern": 2959,
      "Ġmuch": 2960,
      "Ġaddition": 2961,
      "_expr": 2962,
      "_f": 2963,
      "ĠHale": 2964,
      "_arithmetic": 2965,
      "Ġurg": 2966,
      "amp": 2967,
      "ends": 2968,
      "ills": 2969,
      "ĠFl": 2970,
      "elot": 2971,
      "ancelot": 2972,
      "ĠGam": 2973,
      "ung": 2974,
      "itch": 2975,
      "Ġstared": 2976,
      "fn": 2977,
      "_compute": 2978,
      "arith": 2979,
      "Ġentire": 2980,
      "ossible": 2981,
      "itation": 2982,
      "eds": 2983,
      "gram": 2984,
      "HE": 2985,
      "ĠInspector": 2986,
      "oll": 2987,
      "Ġapart": 2988,
      "Ġmanipulating": 2989,
      "Ġbar": 2990,
      "Ġwars": 2991,
      "ĠIron": 2992,
      "raw": 2993,
      "Ġgrowing": 2994,
      "Ġgift": 2995,
      "Ġechoing": 2996,
      "rency": 2997,
      "Ġcurrency": 2998,
      "Ġproject": 2999,
      "Ġrequired": 3000,
      "Ġconsp": 3001,
      "allen": 3002,
      "Ġsteampunk": 3003,
      "ĠĊ": 3004,
      "Ġcop": 3005,
      "Ġmilitary": 3006,
      "ĠSomething": 3007,
      "Ġsnack": 3008,
      "ondon": 3009,
      "ceed": 3010,
      "Ġwaves": 3011,
      "ĠThere": 3012,
      "Ġattic": 3013,
      "ĠEira": 3014,
      "sie": 3015,
      "Ġword": 3016,
      "ĠLondon": 3017,
      "vant": 3018,
      "Ġloom": 3019,
      "Ġbuild": 3020,
      "Ġalong": 3021,
      "Ġshallow": 3022,
      "Ġused": 3023,
      "Ġorder": 3024,
      "Ġsecurity": 3025,
      "Ġmaster": 3026,
      "ĠStranger": 3027,
      "atter": 3028,
      "Ġfollows": 3029,
      "ĠRock": 3030,
      "Ġcracked": 3031,
      "\\\"": 3032,
      "Ġoracle": 3033,
      "Ġexplain": 3034,
      "ullet": 3035,
      "Ġexch": 3036,
      "Ġerased": 3037,
      "inting": 3038,
      "Ġcrow": 3039,
      "Ġhears": 3040,
      "Ġinvestigates": 3041,
      "calculator": 3042,
      "Ġstones": 3043,
      "Ġreluct": 3044,
      "Ġreluctant": 3045,
      "Ġtwisted": 3046,
      "aut": 3047,
      "Ġadm": 3048,
      "Ġoutput": 3049,
      "Ġmurm": 3050,
      "Ġmag": 3051,
      "Ġunseen": 3052,
      "Ġoutside": 3053,
      "[]": 3054,
      "Ġencoun": 3055,
      "Ar": 3056,
      "Ġchallen": 3057,
      "Ġtale": 3058,
      "rees": 3059,
      "Ġinst": 3060,
      "ĠLancelot": 3061,
      "ĠSe": 3062,
      "Ġfly": 3063,
      "so": 3064,
      "Ġjourney": 3065,
      "Ġrefl": 3066,
      "Ġmut": 3067,
      "Arithmetic": 3068,
      "ĠGabriel": 3069,
      "Ġinfiltrates": 3070,
      "ĠVire": 3071,
      "ĠNex": 3072,
      "ades": 3073,
      "Ġtragic": 3074,
      "Ġdeliber": 3075,
      "Ġcover": 3076,
      "Ġremote": 3077,
      "ĠFrank": 3078,
      "something": 3079,
      "calc": 3080,
      "ĠAt": 3081,
      "ĠWind": 3082,
      "Ġalli": 3083,
      "por": 3084,
      "Ġvanish": 3085,
      "Ġflicker": 3086,
      "Ġdep": 3087,
      "ĠTommy": 3088,
      "Ġcorrupted": 3089,
      "cAnd": 3090,
      "hecy": 3091,
      "Ġworked": 3092,
      "Ġgods": 3093,
      "ripp": 3094,
      "eil": 3095,
      "Ġcorpor": 3096,
      "iom": 3097,
      "xiom": 3098,
      "erate": 3099,
      "ĠGideon": 3100,
      "Ġcorrid": 3101,
      "Ġspark": 3102,
      "Ġcontrols": 3103,
      "Ġground": 3104,
      ",\"": 3105,
      "arn": 3106,
      "Add": 3107,
      "Ġracing": 3108,
      "kept": 3109,
      "odies": 3110,
      "..": 3111,
      "uly": 3112,
      "sc": 3113,
      "raft": 3114,
      "Ġhelps": 3115,
      "ĠTicking": 3116,
      "Ġtruly": 3117,
      "Ġcrowd": 3118,
      "aven": 3119,
      "aid": 3120,
      "Ġofficer": 3121,
      "Ġnotices": 3122,
      "Ġdeliberate": 3123,
      "-dead": 3124,
      "apped": 3125,
      "Ġtakes": 3126,
      "Ġfamiliar": 3127,
      "Ġnavigate": 3128,
      "Ġwindow": 3129,
      "Ġknight": 3130,
      "Ġexhaled": 3131,
      "ecute": 3132,
      "Ġwhispering": 3133,
      "Ġbaker": 3134,
      "Ġanswers": 3135,
      "struc": 3136,
      "Ġcat": 3137,
      "Ġchasing": 3138,
      "ĠAll": 3139,
      "Ġrestored": 3140,
      "ĠRival": 3141,
      "Ġnames": 3142,
      "Ġloss": 3143,
      "Ġcycle": 3144,
      "Ġrequire": 3145,
      "Ġgrave": 3146,
      "pite": 3147,
      "Ġsoci": 3148,
      "sy": 3149,
      "Ġwater": 3150,
      "'ll": 3151,
      "Ġink": 3152,
      "Ġmeasured": 3153,
      "Ġgener": 3154,
      "ĠLo": 3155,
      "Ġscr": 3156,
      "Ġproceed": 3157,
      "Ġrole": 3158,
      "Ġanomaly": 3159,
      "ishes": 3160,
      "ĠRec": 3161,
      "Ġfragmented": 3162,
      "Ġruler": 3163,
      "rieve": 3164,
      "Ġshudd": 3165,
      "fl": 3166,
      "ĠVeyra": 3167,
      "ually": 3168,
      "iant": 3169,
      "peror": 3170,
      "agr": 3171,
      "ament": 3172,
      "Ġhorr": 3173,
      "umerate": 3174,
      "ption": 3175,
      "ĠTomas": 3176,
      "Ġpus": 3177,
      "Ġblueprint": 3178,
      "Ġimag": 3179,
      "Ġunraveling": 3180,
      "Ġapp": 3181,
      "Ġrise": 3182,
      "using": 3183,
      "Ġtalking": 3184,
      "Ġself": 3185,
      "rep": 3186,
      "Ġsquare": 3187,
      "ĠOff": 3188,
      "struction": 3189,
      "ignal": 3190,
      "Ġcyberpunk": 3191,
      "ĠSignal": 3192,
      "Ġmassive": 3193,
      "edy": 3194,
      "Ġmorning": 3195,
      "Elara": 3196,
      "Ġhero": 3197,
      "Ġpulsing": 3198,
      "ĠKira": 3199,
      "Ġfinish": 3200,
      "Ġ{": 3201,
      "Ġstanding": 3202,
      "ities": 3203,
      "Ġfort": 3204,
      "ĠMissing": 3205,
      "Ġshifted": 3206,
      "ics": 3207,
      "Ġfalling": 3208,
      "ĠThal": 3209,
      "Ġdesign": 3210,
      "Ġdays": 3211,
      "Ġshook": 3212,
      "Ġslipped": 3213,
      "Ġsongs": 3214,
      "ora": 3215,
      "ĠWatch": 3216,
      "Ġdiv": 3217,
      "ecause": 3218,
      "ĠWho": 3219,
      "band": 3220,
      "gor": 3221,
      "Ġanyone": 3222,
      "Ġrebuil": 3223,
      "Ġsleep": 3224,
      "Ġerasing": 3225,
      "asper": 3226,
      "Ġcorn": 3227,
      "Ġstret": 3228,
      "Ġsail": 3229,
      "Ġrepair": 3230,
      "ĠBroken": 3231,
      "Ġuntil": 3232,
      "Ġflow": 3233,
      "Ġlibrarian": 3234,
      "oning": 3235,
      "Ġfears": 3236,
      "Ġpost": 3237,
      "Ġdarkened": 3238,
      "Ġclosing": 3239,
      "ĠLumpy": 3240,
      "Ġcut": 3241,
      "Ġreel": 3242,
      "ĠGambit": 3243,
      "airy": 3244,
      "Ġcomplete": 3245,
      "Ġneural": 3246,
      "ches": 3247,
      "ker": 3248,
      "Ġblur": 3249,
      "Ġinvol": 3250,
      "Ġrewrit": 3251,
      "Ġrece": 3252,
      "Ġplanned": 3253,
      "Ġour": 3254,
      "Ġeveryone": 3255,
      "ooth": 3256,
      "Ġtemp": 3257,
      "Ġwarn": 3258,
      "na": 3259,
      "ila": 3260,
      "Ġprophecy": 3261,
      "Ġtrait": 3262,
      "Ġfab": 3263,
      "Ġwarship": 3264,
      "vel": 3265,
      "Ġescapes": 3266,
      "Ġslowly": 3267,
      "ĠElsie": 3268,
      "Give": 3269,
      "Ġfabric": 3270,
      "Ġclose": 3271,
      "Ġtunn": 3272,
      "ĠReturn": 3273,
      "Ġrom": 3274,
      "Ġromance": 3275,
      "ython": 3276,
      "ĠSera": 3277,
      "ocal": 3278,
      ".*": 3279,
      "Ġmagical": 3280,
      "Ġcookies": 3281,
      "Ġwarnings": 3282,
      "Ġord": 3283,
      "ib": 3284,
      "ĠOrin": 3285,
      "Ġcatch": 3286,
      "Ġhacker": 3287,
      "Ġmaybe": 3288,
      "Ġpreser": 3289,
      "assian": 3290,
      "empt": 3291,
      "ager": 3292,
      "ably": 3293,
      "che": 3294,
      "Ġtides": 3295,
      "angers": 3296,
      "ĠCyn": 3297,
      "ĠCynical": 3298,
      "Ġraced": 3299,
      "state": 3300,
      "rival": 3301,
      "ĠArrival": 3302,
      "App": 3303,
      "Append": 3304,
      "ĠCur": 3305,
      "Ġcertain": 3306,
      "ances": 3307,
      "ĠAxiom": 3308,
      "ĠVane": 3309,
      "Ġexperim": 3310,
      "idow": 3311,
      "Ġvictim": 3312,
      "Ġyogurt": 3313,
      "Ġbroadcast": 3314,
      "Ġwrite": 3315,
      "ĠThorn": 3316,
      "Ġlined": 3317,
      "\":\"*\"}}Ċ": 3318,
      "ĠWraith": 3319,
      "Ġdespite": 3320,
      "Ġestate": 3321,
      "amed": 3322,
      "Ġsociety": 3323,
      "Ġdusty": 3324,
      "Ġrevealed": 3325,
      "ĠOne": 3326,
      "osed": 3327,
      "Read": 3328,
      "nProtagonist": 3329,
      "\\nGenre": 3330,
      "\\nPremise": 3331,
      "ĠZorath": 3332,
      "Ġthrone": 3333,
      "Ġstudied": 3334,
      "Ġcult": 3335,
      "Ġblade": 3336,
      "cThen": 3337,
      "ilon": 3338,
      "psilon": 3339,
      "olm": 3340,
      "Ġattempt": 3341,
      "Ġspoken": 3342,
      "alcolm": 3343,
      "ĠDawn": 3344,
      "Ġriddles": 3345,
      "Ġabb": 3346,
      "Ġcontaining": 3347,
      "ĠSal": 3348,
      "Because": 3349,
      "Ġrealm": 3350,
      "la": 3351,
      "Ġexchange": 3352,
      "-p": 3353,
      "Ġsmoke": 3354,
      "Ġeer": 3355,
      "Ġpull": 3356,
      "\\nSetting": 3357,
      "\\nChapters": 3358,
      "Ġolder": 3359,
      "Ġhired": 3360,
      "ĠDetective": 3361,
      "ett": 3362,
      "-t": 3363,
      "Ġwide": 3364,
      "Ġhoney": 3365,
      "Ġtraced": 3366,
      "Ġperfect": 3367,
      "Ġmost": 3368,
      "Ġgoing": 3369,
      "Ġleaned": 3370,
      "Ġcomes": 3371,
      "ĠMarlow": 3372,
      "ĠNoa": 3373,
      "ington": 3374,
      "Ġemerged": 3375,
      "ye": 3376,
      "Ġbring": 3377,
      "Ġabbey": 3378,
      "Ġobser": 3379,
      "ĠCluckington": 3380,
      "They": 3381,
      "Ġally": 3382,
      "ĠCouncil": 3383,
      "sure": 3384,
      "Ġheavier": 3385,
      "Ġbind": 3386,
      "und": 3387,
      "Ġnec": 3388,
      "Ġimpossible": 3389,
      "Ġears": 3390,
      "elix": 3391,
      "Ġthread": 3392,
      "Ġwave": 3393,
      "people": 3394,
      "Ġmansion": 3395,
      "Ġpan": 3396,
      "Ġpaint": 3397,
      "Ġalley": 3398,
      "ĠVeylan": 3399,
      "Ġstirred": 3400,
      "Ġfallen": 3401,
      "Ġcro": 3402,
      "Ġcel": 3403,
      "uard": 3404,
      "Ġfade": 3405,
      "ife": 3406,
      "Ġthrill": 3407,
      "Ġrecord": 3408,
      "aring": 3409,
      "Ġsets": 3410,
      "asc": 3411,
      "Ġthoughts": 3412,
      "Ġagrees": 3413,
      "ĠJulian": 3414,
      "Ġhorror": 3415,
      "uff": 3416,
      "Ġreturned": 3417,
      "Ġconspiracy": 3418,
      "Ġscanning": 3419,
      "Ġconsole": 3420,
      "Ġghosts": 3421,
      "Ġunderstanding": 3422,
      "Ġfactory": 3423,
      "Ġrebellion": 3424,
      "Ġrain": 3425,
      "aches": 3426,
      "Ġshut": 3427,
      "Ġevent": 3428,
      "Ġrisk": 3429,
      "Ġpowerful": 3430,
      "Ġthreatens": 3431,
      "Ġnoblewoman": 3432,
      "Ġalso": 3433,
      "Ġsigns": 3434,
      "down": 3435,
      "ĠCity": 3436,
      "Ġkept": 3437,
      "ĠKaelira": 3438,
      "oriz": 3439,
      "aphael": 3440,
      "ĠSol": 3441,
      "iance": 3442,
      "rying": 3443,
      "renched": 3444,
      "Ġdoing": 3445,
      "Ġsilver": 3446,
      "itational": 3447,
      "Ġattack": 3448,
      "Ġopera": 3449,
      "athered": 3450,
      "Ġdemanding": 3451,
      "Ġdangers": 3452,
      "Ġstrong": 3453,
      "Ġguards": 3454,
      "lit": 3455,
      "Ġbrushing": 3456,
      "Ġrace": 3457,
      "ĠFall": 3458,
      "ieces": 3459,
      "Ġdigital": 3460,
      "ĠSp": 3461,
      "ĠCassian": 3462,
      "Ġsmooth": 3463,
      "Ġrespond": 3464,
      "Ġasking": 3465,
      "Ġintrig": 3466,
      "Ġpromise": 3467,
      "Ġfading": 3468,
      "ĠLe": 3469,
      "agers": 3470,
      "mb": 3471,
      "Ġcurled": 3472,
      "Ġcarrying": 3473,
      "Ġpounded": 3474,
      "ĠLiam": 3475,
      "ither": 3476,
      "rinth": 3477,
      "Ġheal": 3478,
      "Ġadmits": 3479,
      "abyrinth": 3480,
      "Ġpainting": 3481,
      "Find": 3482,
      "Ġlives": 3483,
      "Ġspeaking": 3484,
      "Ġra": 3485,
      "lob": 3486,
      "but": 3487,
      "ĠJasper": 3488,
      "Ġremained": 3489,
      "Ġsol": 3490,
      "irc": 3491,
      "ountain": 3492,
      "orizon": 3493,
      "First": 3494,
      "Ġhadn": 3495,
      "Ġstri": 3496,
      "owered": 3497,
      "ended": 3498,
      "ĠStatic": 3499,
      "ĠMarg": 3500,
      "Ġlaw": 3501,
      "Ġreason": 3502,
      "Ġpolit": 3503,
      "Ġwarned": 3504,
      "Ġind": 3505,
      "Ġspec": 3506,
      "Ġharm": 3507,
      "Ġspirits": 3508,
      "Ġmarket": 3509,
      "Ġarchive": 3510,
      "âĢĶit": 3511,
      "Ġshadowy": 3512,
      "Ġskept": 3513,
      "Ġgravitational": 3514,
      "Ġcreation": 3515,
      "iron": 3516,
      "Ġedges": 3517,
      "Ġfragments": 3518,
      "Ġfoot": 3519,
      "Ġchanges": 3520,
      "Final": 3521,
      "Ġforces": 3522,
      "zy": 3523,
      "orical": 3524,
      "Ġeye": 3525,
      "Ġsimp": 3526,
      "-drenched": 3527,
      "Ġdemands": 3528,
      "Ġarrived": 3529,
      "Ġfaintly": 3530,
      "We": 3531,
      "ĠJules": 3532,
      "Go": 3533,
      "Ġlies": 3534,
      "dden": 3535,
      "Ġsudden": 3536,
      "Ġinternal": 3537,
      "ĠMarla": 3538,
      "Ġtimel": 3539,
      "Ġfought": 3540,
      "Ġyear": 3541,
      "ats": 3542,
      "elda": 3543,
      "Ġobs": 3544,
      "Ġhappened": 3545,
      "ĠReb": 3546,
      "Ġvend": 3547,
      "Ġapproached": 3548,
      "ĠEpsilon": 3549,
      "Ġfield": 3550,
      "oring": 3551,
      "olog": 3552,
      "ĠGuard": 3553,
      "Ġtrees": 3554,
      "Ġaccur": 3555,
      "Ġcoach": 3556,
      "Ġfeeling": 3557,
      "ĠFractured": 3558,
      "Ġide": 3559,
      "ashed": 3560,
      "Ġenforcer": 3561,
      "Ġvillagers": 3562,
      "Ġhistorical": 3563,
      "memory": 3564,
      "Ġcomic": 3565,
      "oded": 3566,
      "ĠLight": 3567,
      "Ġpolice": 3568,
      "Ġsettled": 3569,
      "quence": 3570,
      "Ġreson": 3571,
      "Ġconfused": 3572,
      "Ġexpected": 3573,
      "Ġprod": 3574,
      "atches": 3575,
      "Ġburned": 3576,
      "Qu": 3577,
      "Ġwester": 3578,
      "Ġwestern": 3579,
      "Ġscre": 3580,
      "Ġgive": 3581,
      "Ġowner": 3582,
      "cA": 3583,
      "ĠMorn": 3584,
      "Ġworth": 3585,
      "ĠDaughter": 3586,
      "astel": 3587,
      "Ġpolitical": 3588,
      ">Let": 3589,
      "ĠSeraphina": 3590,
      "rest": 3591,
      "isher": 3592,
      "ĠEos": 3593,
      "ĠFelix": 3594,
      "oard": 3595,
      "Ġrewrite": 3596,
      "Ġsalad": 3597,
      "ĠGuardian": 3598,
      "Ġpale": 3599,
      "Ġdecades": 3600,
      "ĠGhosts": 3601,
      "escent": 3602,
      "Ġconnection": 3603,
      "Ġwee": 3604,
      "-ap": 3605,
      "ĠGre": 3606,
      "Ġvanishes": 3607,
      "Ġinvestigate": 3608,
      "erclip": 3609,
      "Ġgroaned": 3610,
      "Ġletters": 3611,
      "Ġstealing": 3612,
      "nswer": 3613,
      "Ġtechn": 3614,
      "raid": 3615,
      "ER": 3616,
      "clud": 3617,
      "pping": 3618,
      "Ġcorporate": 3619,
      "ons": 3620,
      "orted": 3621,
      "Ġdefe": 3622,
      "ension": 3623,
      "asure": 3624,
      "Ġ\"-": 3625,
      "Ġorigins": 3626,
      "mit": 3627,
      "Ġbetray": 3628,
      "inger": 3629,
      "yptic": 3630,
      "ĠRebel": 3631,
      "ocalyptic": 3632,
      "-apocalyptic": 3633,
      "uzz": 3634,
      "Ġdecides": 3635,
      "uthless": 3636,
      "Ġmer": 3637,
      "ĠLily": 3638,
      "Ġwife": 3639,
      "Ġbackward": 3640,
      "Ġretelling": 3641,
      "Ġuncovering": 3642,
      "Then": 3643,
      "rial": 3644,
      "ĠTheir": 3645,
      "Ġfrequ": 3646,
      "Ġcomposer": 3647,
      "Ġdecode": 3648,
      "ĠDren": 3649,
      "mist": 3650,
      "Ġshuddered": 3651,
      "Ġplease": 3652,
      "Ġbetter": 3653,
      "Ġcalculation": 3654,
      "ĠPast": 3655,
      "Ġshiver": 3656,
      "Ġtownspeople": 3657,
      "Ġwakes": 3658,
      "Ġexperiment": 3659,
      "Ã©a": 3660,
      "round": 3661,
      "ĠLament": 3662,
      "hys": 3663,
      "Ġquestions": 3664,
      "Ġcompan": 3665,
      "Ġmoves": 3666,
      "Ġspine": 3667,
      "Ġdeb": 3668,
      "ĠHourglass": 3669,
      "Ġwarm": 3670,
      "Ġhumming": 3671,
      "Ġfinding": 3672,
      "Ġbeaut": 3673,
      "tom": 3674,
      "Ġfairy": 3675,
      "pet": 3676,
      "Ġune": 3677,
      "Ġrebels": 3678,
      "ĠHeart": 3679,
      "Ġloomed": 3680,
      "ĠEng": 3681,
      "run": 3682,
      "Ġchain": 3683,
      "ĠCore": 3684,
      "Ġdoc": 3685,
      "Ġbooks": 3686,
      "entless": 3687,
      "ĠSo": 3688,
      "Ġdoub": 3689,
      "Ġcreature": 3690,
      "ĠElira": 3691,
      "aphs": 3692,
      "this": 3693,
      "emption": 3694,
      "orus": 3695,
      "Ġreclaim": 3696,
      "Where": 3697,
      "ĠRho": 3698,
      "Ġhusband": 3699,
      "ndor": 3700,
      "lyndor": 3701,
      "Ġencounters": 3702,
      "inel": 3703,
      "Ġhappens": 3704,
      "Ġgle": 3705,
      "ĠLÃ©a": 3706,
      "Ġdisappears": 3707,
      "Ġfilter": 3708,
      "Substring": 3709,
      "Ġpaper": 3710,
      "ĠVictor": 3711,
      "Ġsurround": 3712,
      "Ġwall": 3713,
      "Ġsacrifice": 3714,
      "Ġstream": 3715,
      "Ġdet": 3716,
      "rowned": 3717,
      "Ġkiller": 3718,
      "ĠDescent": 3719,
      "Ġsteel": 3720,
      "ĠVeil": 3721,
      "base": 3722,
      "ĠVor": 3723,
      "Ġnoir": 3724,
      "acher": 3725,
      "Ġsuspicious": 3726,
      "Ġbees": 3727,
      "Ġshouldn": 3728,
      "Ġdestruction": 3729,
      "Ġadjust": 3730,
      "ench": 3731,
      "Ġsuper": 3732,
      "Ġremembers": 3733,
      "Ġsense": 3734,
      "olk": 3735,
      "Ġcreated": 3736,
      "Ġdie": 3737,
      "Ġnatural": 3738,
      "Ġstretched": 3739,
      "Ġnecess": 3740,
      "box": 3741,
      "Ġcozy": 3742,
      "Ġlegacy": 3743,
      "Ġbard": 3744,
      "rentice": 3745,
      "Ġparagr": 3746,
      "Ġrecapping": 3747,
      "Ġapprentice": 3748,
      "Ġparagraphs": 3749,
      "Return": 3750,
      "ĠMalcolm": 3751,
      "Ġgave": 3752,
      "rek": 3753,
      "-age": 3754,
      "-of": 3755,
      "etch": 3756,
      "Ġlosing": 3757,
      "ĠStars": 3758,
      "Cont": 3759,
      "Ġsetting": 3760,
      "Ġconfrontation": 3761,
      "ĠRaphael": 3762,
      "Ġtransmission": 3763,
      "Ġoil": 3764,
      "..<|": 3765,
      "oodle": 3766,
      "Ġfac": 3767,
      "Ġcollapsing": 3768,
      "ĠSentinel": 3769,
      "more": 3770,
      "Ġph": 3771,
      "Ġwre": 3772,
      "ĠNoodle": 3773,
      "Ġshift": 3774,
      "Ġcausing": 3775,
      "Ġconsistent": 3776,
      "Next": 3777,
      "mence": 3778,
      "Ã©lie": 3779,
      "Ġfactual": 3780,
      "ĠBr": 3781,
      "Ġgrows": 3782,
      "Ġgoth": 3783,
      "ĠJada": 3784,
      "Ġgothic": 3785,
      "Ġepic": 3786,
      "use": 3787,
      "ĠCo": 3788,
      "Ġconsumed": 3789,
      "Ġunread": 3790,
      "Ġlived": 3791,
      "Ġcrim": 3792,
      "Ġsurrounded": 3793,
      "Continue": 3794,
      "Ġspraw": 3795,
      "ĠAmÃ©lie": 3796,
      "Ġwon": 3797,
      "ĠFlame": 3798,
      "vous": 3799,
      "Ġcreate": 3800,
      "'re": 3801,
      "folk": 3802,
      "Draft": 3803,
      "Ġreck": 3804,
      "Ġpresent": 3805,
      "Ġver": 3806,
      "add": 3807,
      "aracter": 3808,
      "Ġgolden": 3809,
      "Ġoutw": 3810,
      "Ġspy": 3811,
      "uried": 3812,
      "-buried": 3813,
      "Ġscattered": 3814,
      "Ġunreadable": 3815,
      "Ġjob": 3816,
      "Evaluate": 3817,
      "Ġdetail": 3818,
      "Ġdire": 3819,
      "Ġsang": 3820,
      "Ġentry": 3821,
      "sol": 3822,
      "mered": 3823,
      "Ġthriller": 3824,
      "ĠMechanic": 3825,
      "Ġmere": 3826,
      "-lo": 3827,
      "Ġcrouched": 3828,
      "itmore": 3829,
      "Ġfeet": 3830,
      "ĠWhitmore": 3831,
      "ilot": 3832,
      "Ġconst": 3833,
      "Ġwell": 3834,
      "Ġcentral": 3835,
      "Ġmountain": 3836,
      "anced": 3837,
      "loom": 3838,
      "Ġunli": 3839,
      "field": 3840,
      "ma": 3841,
      "Ġsandbox": 3842,
      "Ġshape": 3843,
      "ellow": 3844,
      "vas": 3845,
      "Ġmob": 3846,
      "Ġnecessary": 3847,
      "Ġended": 3848,
      "Ġafraid": 3849,
      "ĠBlacksmith": 3850,
      "alade": 3851,
      "ĠSn": 3852,
      "aged": 3853,
      "ement": 3854,
      "Ġincom": 3855,
      "acture": 3856,
      "usc": 3857,
      "Ġmanusc": 3858,
      "Ġguide": 3859,
      "Ġoffering": 3860,
      "Ġcharacter": 3861,
      "code": 3862,
      "Ġfailure": 3863,
      "gth": 3864,
      "Ġfailing": 3865,
      "first": 3866,
      "On": 3867,
      "idant": 3868,
      "Ġconfidant": 3869,
      "from": 3870,
      "Ġfigures": 3871,
      "Ġruthless": 3872,
      "Ġprevent": 3873,
      "lf": 3874,
      "Ġactivates": 3875,
      "Ġstronger": 3876,
      "Ġfish": 3877,
      "Ġevents": 3878,
      "Ġteach": 3879,
      "offset": 3880,
      "igger": 3881,
      "ĠTess": 3882,
      "pr": 3883,
      "ĠElyndor": 3884,
      "Ġholding": 3885,
      "rove": 3886,
      "une": 3887,
      "_line": 3888,
      "ĠNox": 3889,
      "Ġsmile": 3890,
      "Ġjaw": 3891,
      "Ġsequence": 3892,
      "Ġcounter": 3893,
      "enses": 3894,
      "\\nR": 3895,
      "\\nIt": 3896,
      "ĠCame": 3897,
      "ĠWidow": 3898,
      "rench": 3899,
      "ĠZelda": 3900,
      "ĠJarek": 3901,
      "Ġmal": 3902,
      "aren": 3903,
      "Ġdefines": 3904,
      "asteland": 3905,
      "Ġquickened": 3906,
      "Ġdesert": 3907,
      "Ġsme": 3908,
      "Ġsurvive": 3909,
      "beg": 3910,
      "Ġindust": 3911,
      "ĠVorn": 3912,
      "Ġmurmured": 3913,
      "Ġretrieve": 3914,
      "Ġdefiance": 3915,
      "olis": 3916,
      "Ġmetrop": 3917,
      "Ġmetropolis": 3918,
      "program": 3919,
      "ymphony": 3920,
      "ĠSymphony": 3921,
      "\\nJ": 3922,
      "Ġclass": 3923,
      "itual": 3924,
      "Ġritual": 3925,
      "Ġtofu": 3926,
      "Ġorbit": 3927,
      "ores": 3928,
      "Ġunderbel": 3929,
      "Ġunderbelly": 3930,
      "Ġgiant": 3931,
      "ĠWeaver": 3932,
      "Ġstumbled": 3933,
      "Ġviol": 3934,
      "ĠCamelot": 3935,
      "utious": 3936,
      "Ġcautious": 3937,
      "Ġtone": 3938,
      "ĠCr": 3939,
      "Ġenforc": 3940,
      "Ġslight": 3941,
      "Ġdecaying": 3942,
      "Ġinn": 3943,
      "Ġadvent": 3944,
      "Ġconfirm": 3945,
      "cThey": 3946,
      "onas": 3947,
      "Ġseries": 3948,
      "Ġtemple": 3949,
      "Ġcommod": 3950,
      "Ġcontent": 3951,
      "Ġrebuild": 3952,
      "Ġtools": 3953,
      "ily": 3954,
      "Ġdrif": 3955,
      "Ġmanuscript": 3956,
      "sen": 3957,
      "Ġchosen": 3958,
      "Ġroyal": 3959,
      "ĠSentient": 3960,
      "Ġbullet": 3961,
      "Ġmot": 3962,
      "Ġcontains": 3963,
      "Ġindustrial": 3964,
      "Saved": 3965,
      "Ġsuch": 3966,
      "Ġgrumpy": 3967,
      "begin": 3968,
      "Ġfal": 3969,
      "ormal": 3970,
      "Ġresist": 3971,
      "ĠVictorian": 3972,
      "Ġcrime": 3973,
      "abiliz": 3974,
      "aving": 3975,
      "ĠNeon": 3976,
      "Ġcannot": 3977,
      "Ġadventure": 3978,
      "Ġintricate": 3979,
      "Ġcommodity": 3980,
      "gan": 3981,
      "ares": 3982,
      "ĠBook": 3983,
      "Ġsuff": 3984,
      "Ġbrit": 3985,
      "Ġbrittle": 3986,
      "Ġjoins": 3987,
      "Ġice": 3988,
      "Ġwit": 3989,
      "Ġskin": 3990,
      "Ġcontin": 3991,
      "Ġcorridors": 3992,
      "Ġthinks": 3993,
      "Ġlie": 3994,
      "Ġgot": 3995,
      "ĠSiren": 3996,
      "Ġful": 3997,
      "ĠBroadcast": 3998,
      "Ġlooking": 3999,
      "Ġplayed": 4000,
      "Ġshimmered": 4001,
      "Ġstruggles": 4002,
      "_search": 4003,
      "Ġaccused": 4004,
      "Ġens": 4005,
      "match": 4006,
      "ĠMargot": 4007,
      "Ġrock": 4008,
      "ucked": 4009,
      "Ġhorizon": 4010,
      "Ġsuit": 4011,
      "Ġmeaning": 4012,
      "Ġbreaking": 4013,
      "lipping": 4014,
      "Ġunderstood": 4015,
      "selves": 4016,
      "Ġevidence": 4017,
      "Ġcow": 4018,
      "ience": 4019,
      "waken": 4020,
      "wakening": 4021,
      "Ġunsp": 4022,
      "Ġeternal": 4023,
      "Ġmetho": 4024,
      "glob": 4025,
      "ĊĊĊ": 4026,
      "Ġturns": 4027,
      "Ġcirc": 4028,
      "ama": 4029,
      "ios": 4030,
      "ĠTown": 4031,
      "Ġweeks": 4032,
      "ĠJonas": 4033,
      "Ġwand": 4034,
      "Ġfragile": 4035,
      "Ġlips": 4036,
      "Ġhers": 4037,
      "ĠRiven": 4038,
      "Ġlearn": 4039,
      "onor": 4040,
      "Ġcloud": 4041,
      "ĠJust": 4042,
      "ĠRoom": 4043,
      "etta": 4044,
      "Ġvendetta": 4045,
      "inc": 4046,
      "Ġoverwrite": 4047,
      "Ġdesk": 4048,
      "Ġscene": 4049,
      "\\nElias": 4050,
      "Ġones": 4051,
      "Ġworn": 4052,
      "Ġcup": 4053,
      "ongue": 4054,
      "filter": 4055,
      "Ġtownsfolk": 4056,
      "ĠLost": 4057,
      "Ġraised": 4058,
      "!<|": 4059,
      "Ġharmony": 4060,
      "Ġunf": 4061,
      "ĠAwakening": 4062,
      "Ġbit": 4063,
      "Ġdiscovered": 4064,
      "No": 4065,
      "Ġhung": 4066,
      "Ġslightly": 4067,
      "Ġhigh": 4068,
      "ĠVoid": 4069,
      "nCharacters": 4070,
      "inning": 4071,
      "iosity": 4072,
      "Ġscore": 4073,
      "Ġwreck": 4074,
      "Ġven": 4075,
      "Ġrising": 4076,
      "ĠWoman": 4077,
      "uthor": 4078,
      "_find": 4079,
      "Ġimpl": 4080,
      "Ġtrick": 4081,
      "Ġdrift": 4082,
      "Ġcaptain": 4083,
      "Ġunspoken": 4084,
      ">The": 4085,
      "asha": 4086,
      "icken": 4087,
      "ithm": 4088,
      "\\nAs": 4089,
      "gorithm": 4090,
      "ĠIts": 4091,
      "Ġidea": 4092,
      "Ġlab": 4093,
      "matic": 4094,
      "plete": 4095,
      "Ġmining": 4096,
      "Ġtry": 4097,
      "istair": 4098,
      "ĠAlistair": 4099,
      "illusion": 4100,
      "ĠEach": 4101,
      "Ġoutwit": 4102,
      "Ġrele": 4103,
      "Ġnature": 4104,
      "Ġamong": 4105,
      "Ġmalfunction": 4106,
      "Ġpilot": 4107,
      "ĠNet": 4108,
      "ately": 4109,
      "Ġlistening": 4110,
      "Ġsupernatural": 4111,
      "Ġbreaks": 4112,
      "Ġcause": 4113,
      "Ġdepths": 4114,
      "Ġarms": 4115,
      "substring": 4116,
      "-m": 4117,
      "Ġchallenges": 4118,
      "Ġclutched": 4119,
      "Ġwitness": 4120,
      "Ġlaug": 4121,
      "ĠGame": 4122,
      "Ġ[]": 4123,
      "Ġdeadly": 4124,
      "Ġ{},": 4125,
      "Ġ[],": 4126,
      "Ġmusician": 4127,
      "ĠStarlight": 4128,
      "Ġkeeper": 4129,
      "Ġwreckage": 4130,
      "lied": 4131,
      "Ġseal": 4132,
      "case": 4133,
      "iew": 4134,
      "Ġthemselves": 4135,
      "Ġexpose": 4136,
      "cepts": 4137,
      "ana": 4138,
      "Ġincomplete": 4139,
      "Ġcreaked": 4140,
      "Ġnor": 4141,
      "Ġseek": 4142,
      "Ġcond": 4143,
      "ĠVoice": 4144,
      "Ġcatast": 4145,
      "Se": 4146,
      "ĠLoaf": 4147,
      "Ġsumm": 4148,
      "zone": 4149,
      "ading": 4150,
      "usk": 4151,
      "Ġhummed": 4152,
      "ĠOld": 4153,
      "Ġfreedom": 4154,
      "Ġtreasure": 4155,
      "bor": 4156,
      "Ġreign": 4157,
      "Ġmarm": 4158,
      "Ġmarmalade": 4159,
      "ĠDead": 4160,
      "ires": 4161,
      "ctor": 4162,
      "Ġemperor": 4163,
      "Ġinterface": 4164,
      "Lila": 4165,
      "ls": 4166,
      "ecting": 4167,
      "Ġdamp": 4168,
      "Ġoffered": 4169,
      "unt": 4170,
      "Ġconv": 4171,
      "Ġmanager": 4172,
      "ĠSea": 4173,
      "Ġboard": 4174,
      "house": 4175,
      "Ġear": 4176,
      "Ġpatterns": 4177,
      "Ġprecise": 4178,
      "Ġcompanion": 4179,
      "Ġbecoming": 4180,
      "Ġmed": 4181,
      "Ġjagged": 4182,
      "ĠBe": 4183,
      "Ġdissol": 4184,
      "Ġboxer": 4185,
      "Ġvow": 4186,
      "Ġdisaster": 4187,
      "Ġsnacks": 4188,
      "they": 4189,
      "koning": 4190,
      "Ġgear": 4191,
      "orts": 4192,
      "Ġbot": 4193,
      "Ġvenge": 4194,
      "Ġaccess": 4195,
      "ints": 4196,
      "rase": 4197,
      "onies": 4198,
      "\\nBut": 4199,
      "uctor": 4200,
      "Ġreplaced": 4201,
      "Ġinc": 4202,
      "lines": 4203,
      "Ġsprawling": 4204,
      "ponent": 4205,
      "Ġloaf": 4206,
      "Ġlogic": 4207,
      "Ġrecall": 4208,
      "ĠSolara": 4209,
      "olate": 4210,
      "Ġadjusted": 4211,
      "yard": 4212,
      "ĠSheriff": 4213,
      "Ġscreen": 4214,
      "ĠTHE": 4215,
      "\\nMira": 4216,
      "ĠJade": 4217,
      "Ġreplied": 4218,
      "Ġmatches": 4219,
      "!\\": 4220,
      "izes": 4221,
      "Ġsolve": 4222,
      "inda": 4223,
      "Ġmelodies": 4224,
      "Ġpulling": 4225,
      "Ġchorus": 4226,
      "Ġtimeline": 4227,
      "place": 4228,
      "Ġcarved": 4229,
      "ĠEx": 4230,
      "ĠHarg": 4231,
      "ĠHargrove": 4232,
      "estival": 4233,
      "Ġcuriosity": 4234,
      "ider": 4235,
      "Ġmeeting": 4236,
      "Ġawakening": 4237,
      "Ġpassed": 4238,
      "Ġgravity": 4239,
      "Ġmotion": 4240,
      "Ġmuttered": 4241,
      "Ġbelieving": 4242,
      "ouds": 4243,
      "world": 4244,
      "icker": 4245,
      "ises": 4246,
      "Ġfreeing": 4247,
      "spiracy": 4248,
      "ĠConspiracy": 4249,
      "Ġrepe": 4250,
      "Ġpalm": 4251,
      "Ġchanging": 4252,
      "addy": 4253,
      "ribe": 4254,
      "angled": 4255,
      "Ġcapital": 4256,
      "mart": 4257,
      "Ġbeast": 4258,
      "Ġneon": 4259,
      "answer": 4260,
      "ĠMarlowe": 4261,
      "ĠReckoning": 4262,
      "IN": 4263,
      "Ġwonder": 4264,
      "ĠTasha": 4265,
      "Ġimagined": 4266,
      "essel": 4267,
      "Ġvessel": 4268,
      "Ġmidnight": 4269,
      "ĠZorathian": 4270,
      "Ġnearly": 4271,
      "Ġtowers": 4272,
      "she": 4273,
      "Ġpub": 4274,
      "ĠRaj": 4275,
      "Ġpassion": 4276,
      "ĠPete": 4277,
      "eep": 4278,
      "Ġburning": 4279,
      "Ġofficial": 4280,
      "Ġclung": 4281,
      "Ġsmiled": 4282,
      "ĠMa": 4283,
      "ĠArch": 4284,
      "Ġtaking": 4285,
      "Ġmachin": 4286,
      "Ġcalling": 4287,
      "-w": 4288,
      "Ġnormal": 4289,
      "eted": 4290,
      "ĠTe": 4291,
      "Ġflee": 4292,
      "Ġblueprints": 4293,
      "orin": 4294,
      "ĠEvery": 4295,
      "egis": 4296,
      "Ġrewritten": 4297,
      "iddle": 4298,
      "dir": 4299,
      "_listing": 4300,
      "Ġcorner": 4301,
      "ified": 4302,
      "ius": 4303,
      "ĠSpar": 4304,
      "Ġstops": 4305,
      "ĠMor": 4306,
      "Ġredemption": 4307,
      "ravity": 4308,
      "Ġreflection": 4309,
      "Ġassistant": 4310,
      "Ġcarry": 4311,
      "Ġmoments": 4312,
      "Ġrobot": 4313,
      "\\nNothing": 4314,
      "ĠDerek": 4315,
      "Ġtou": 4316,
      "web": 4317,
      "semb": 4318,
      "Ġslipping": 4319,
      "Ġterm": 4320,
      "aming": 4321,
      "Ġtraveler": 4322,
      "ĠSomeone": 4323,
      "Ġcourse": 4324,
      "Ġripp": 4325,
      "Ġlabyrinth": 4326,
      "ging": 4327,
      "enced": 4328,
      "ĠDust": 4329,
      "ĠChoir": 4330,
      "riest": 4331,
      "icul": 4332,
      "Ġstepping": 4333,
      "Ġintrigue": 4334,
      "ĠDis": 4335,
      "hom": 4336,
      "book": 4337,
      "Ġchief": 4338,
      "ĠKick": 4339,
      "ĠFinch": 4340,
      "Ġdisappearances": 4341,
      "ĠGravity": 4342,
      "Ġappeared": 4343,
      "Ġisol": 4344,
      "Ġremind": 4345,
      "Ġerupt": 4346,
      "ĠMaster": 4347,
      "abit": 4348,
      "ĠFinn": 4349,
      "Ġmachinery": 4350,
      "Ġmultiplic": 4351,
      "Ġmultiplication": 4352,
      "rief": 4353,
      "Ġdied": 4354,
      "ific": 4355,
      "Compute": 4356,
      "inition": 4357,
      "Ġparrot": 4358,
      "ĠBeneath": 4359,
      "Ġpho": 4360,
      "Ġbelow": 4361,
      "argain": 4362,
      "umbl": 4363,
      "fter": 4364,
      "resh": 4365,
      "Ġuncertain": 4366,
      "antom": 4367,
      "\\nSomewhere": 4368,
      "Ġsabot": 4369,
      "ĠCall": 4370,
      "_query": 4371,
      "ĠPudding": 4372,
      "Ġtongue": 4373,
      "Ġcros": 4374,
      "Ġshowdown": 4375,
      "Ġphoto": 4376,
      "Ġrum": 4377,
      "Ġrule": 4378,
      "gu": 4379,
      "enumerate": 4380,
      "cent": 4381,
      "Ġask": 4382,
      "den": 4383,
      "Ġminds": 4384,
      "Ġgovernment": 4385,
      "rec": 4386,
      "âĢĻve": 4387,
      "Ġactivate": 4388,
      "Ġreprogram": 4389,
      "Ġsupposed": 4390,
      "Ġfully": 4391,
      "Ġsurviv": 4392,
      "emma": 4393,
      "Ġfixed": 4394,
      "Ġdistance": 4395,
      "ilemma": 4396,
      "ĠDilemma": 4397,
      "Ġmathe": 4398,
      "Ġstillness": 4399,
      "matical": 4400,
      "Ġmathematical": 4401,
      "\\nD": 4402,
      "\\nT": 4403,
      "aks": 4404,
      "Ġswe": 4405,
      "Ġcompart": 4406,
      "ĠCat": 4407,
      "Ġarrest": 4408,
      "ĠGlass": 4409,
      "-f": 4410,
      "olar": 4411,
      "ĠLet": 4412,
      "ĠTarn": 4413,
      "Ġtalk": 4414,
      "Ġelite": 4415,
      "Ġage": 4416,
      "Ġadditional": 4417,
      "Ġmad": 4418,
      "Solve": 4419,
      "Ġmotives": 4420,
      "ĠFrench": 4421,
      "Ġtouch": 4422,
      "ymore": 4423,
      "tower": 4424,
      "-lost": 4425,
      "Ġanymore": 4426,
      "Ġeerie": 4427,
      "ĠWicker": 4428,
      "Ġhig": 4429,
      "olled": 4430,
      "ĠRebellion": 4431,
      "Ġstabiliz": 4432,
      "ession": 4433,
      "ĠCree": 4434,
      "termined": 4435,
      "ĠCreek": 4436,
      "anish": 4437,
      "Ġraces": 4438,
      "idnight": 4439,
      "ship": 4440,
      "Ġsubtraction": 4441,
      "Ġmovement": 4442,
      "_lookup": 4443,
      "ior": 4444,
      "ĠYoung": 4445,
      "Ġcompartment": 4446,
      "Ġcomedy": 4447,
      "een": 4448,
      "ume": 4449,
      "Ġfroze": 4450,
      "Ġhide": 4451,
      "essie": 4452,
      "Ġdesolate": 4453,
      "eps": 4454,
      "Ġbetrays": 4455,
      "ĠLinda": 4456,
      "Ġworkplace": 4457,
      "\":\"-": 4458,
      "Ġdivision": 4459,
      "ĠSalad": 4460,
      "inding": 4461,
      "Ã©mence": 4462,
      "St": 4463,
      "ippet": 4464,
      "lish": 4465,
      "Ġiron": 4466,
      "Ġviolent": 4467,
      "iced": 4468,
      "Ġwhir": 4469,
      "Ġlock": 4470,
      "Ġhumans": 4471,
      "Ġguil": 4472,
      "Ġtracing": 4473,
      ".'ĊĊ": 4474,
      "Ġtrace": 4475,
      "\\nKael": 4476,
      "Ġpaperclip": 4477,
      "Ġprove": 4478,
      "Ġcreator": 4479,
      "Ġarchives": 4480,
      "ourke": 4481,
      "Ġspreads": 4482,
      "Ġcontrolled": 4483,
      "Ġusual": 4484,
      "icked": 4485,
      "Ġspot": 4486,
      "Ġvibr": 4487,
      "ĠMad": 4488,
      "Ġreckless": 4489,
      "ĠClÃ©mence": 4490,
      "Ġqueen": 4491,
      "Perform": 4492,
      "Ġscript": 4493,
      "ĠDuel": 4494,
      "zed": 4495,
      "ĠLirael": 4496,
      "Ġattempts": 4497,
      "vious": 4498,
      "Ġlets": 4499,
      "Ġalgorithm": 4500,
      "als": 4501,
      "Ġallow": 4502,
      "gry": 4503,
      "ĠInk": 4504,
      "Ġposs": 4505,
      "Ġserver": 4506,
      "ĠWord": 4507,
      "Ġrealized": 4508,
      "Ġdoctor": 4509,
      "ring": 4510,
      "Ġbinds": 4511,
      "Ġskeptical": 4512,
      "Run": 4513,
      "Ġworse": 4514,
      "Ġmar": 4515,
      "Ġswir": 4516,
      "Ġactually": 4517,
      "Ġlocation": 4518,
      "Ġtimepieces": 4519,
      "cholar": 4520,
      "Ġbest": 4521,
      ">This": 4522,
      "Ġtense": 4523,
      "Ġterrif": 4524,
      "cNo": 4525,
      "Ġinclud": 4526,
      "Ġtheater": 4527,
      "Ġisolated": 4528,
      "Ġdestroys": 4529,
      "Ġfailures": 4530,
      "-up": 4531,
      "Ġreceives": 4532,
      "ĠHunt": 4533,
      "ained": 4534,
      "ĠMidnight": 4535,
      "Ġconstant": 4536,
      "Ġexecute": 4537,
      "Ġdrama": 4538,
      "Ġrequires": 4539,
      "nical": 4540,
      "Rel": 4541,
      "cT": 4542,
      "Relative": 4543,
      "Ġwins": 4544,
      "Ġpuzz": 4545,
      "ĠBell": 4546,
      "Ġcorrup": 4547,
      "sity": 4548,
      "Ġsupply": 4549,
      "Ġdismis": 4550,
      "Search": 4551,
      "hel": 4552,
      "Ġrelentless": 4553,
      "Ġrisks": 4554,
      ">Another": 4555,
      "ĠPython": 4556,
      "etic": 4557,
      "Ġcontinue": 4558,
      "Ġty": 4559,
      "ĠEmp": 4560,
      "Ġexact": 4561,
      "Ġthro": 4562,
      "Ġlifted": 4563,
      "Ġforge": 4564,
      "Ġash": 4565,
      "Ġexplore": 4566,
      "Ġgathered": 4567,
      "inked": 4568,
      "earm": 4569,
      "ĠGearm": 4570,
      "ĠGearmaster": 4571,
      "Ġsaloon": 4572,
      "Ġcreating": 4573,
      "Ġcrackled": 4574,
      "ĠCoffee": 4575,
      "Ġwaited": 4576,
      "Ġhourglass": 4577,
      "Ġsurged": 4578,
      "ĠBre": 4579,
      "Ġnoise": 4580,
      "Ġresource": 4581,
      "Ġcarefully": 4582,
      "Ġthous": 4583,
      "Ġthousand": 4584,
      "Ġplays": 4585,
      "Ġgleaming": 4586,
      "Ġunable": 4587,
      "Ġpir": 4588,
      "ĠYour": 4589,
      "Ġlaughter": 4590,
      "Ġplant": 4591,
      "ĠChild": 4592,
      "ences": 4593,
      "erry": 4594,
      "Ġchicken": 4595,
      "ccer": 4596,
      "Ġsoccer": 4597,
      "Ġfeels": 4598,
      "azz": 4599,
      "Ġvent": 4600,
      "ĠDetermined": 4601,
      "otic": 4602,
      "Ġkilled": 4603,
      "Ġprotecting": 4604,
      "ĠBessie": 4605,
      "Ġentirely": 4606,
      "Ġtunnels": 4607,
      "ĠGreg": 4608,
      "Ġonto": 4609,
      "Ġtelling": 4610,
      "Ġgraveyard": 4611,
      "ĠKeep": 4612,
      "-powered": 4613,
      "gers": 4614,
      "Ġpa": 4615,
      "inates": 4616,
      "Ġruined": 4617,
      "rophe": 4618,
      "Ġcatastrophe": 4619,
      "Ġreplacing": 4620,
      "_memory": 4621,
      "Ġbus": 4622,
      "Ġbase": 4623,
      "Ġdisgu": 4624,
      "Ġgood": 4625,
      "Ġhinting": 4626,
      "Ġfortress": 4627,
      "\\nThey": 4628,
      "Ġunnatural": 4629,
      "ĠSpark": 4630,
      "enn": 4631,
      "acon": 4632,
      "Ġbeacon": 4633,
      "bb": 4634,
      "iny": 4635,
      "Ġcopy": 4636,
      "Ġwatches": 4637,
      "Ġcrumbs": 4638,
      "Ġcli": 4639,
      "Ġwaking": 4640,
      "Ġfast": 4641,
      "Ġsig": 4642,
      "Ġresourceful": 4643,
      "asp": 4644,
      "Ġjazz": 4645,
      "value": 4646,
      "Ġskills": 4647,
      "ĠTrain": 4648,
      "vation": 4649,
      "Ġdawn": 4650,
      "Ġpause": 4651,
      "utal": 4652,
      "Ġbrutal": 4653,
      "Ġbroke": 4654,
      "Ġfier": 4655,
      "ĠLead": 4656,
      "Ġopening": 4657,
      "Ġlon": 4658,
      "ĠBargain": 4659,
      "Ġwalks": 4660,
      "Ġshimmer": 4661,
      "Ġhop": 4662,
      "orrupt": 4663,
      "Ġslumber": 4664,
      "olem": 4665,
      "Ġmerely": 4666,
      "Ġner": 4667,
      "uro": 4668,
      "aphis": 4669,
      "ology": 4670,
      "Ġinfl": 4671,
      "Ġcac": 4672,
      "board": 4673,
      "En": 4674,
      "aris": 4675,
      "Ġtension": 4676,
      "ĠThalor": 4677,
      "Ġstandoff": 4678,
      "ĠGearsinger": 4679,
      "Ġenforcers": 4680,
      "Ġtouched": 4681,
      "ĠTofu": 4682,
      "Ġshell": 4683,
      "Ġmistake": 4684,
      "aning": 4685,
      "Ġragged": 4686,
      "Only": 4687,
      "Ġcaddy": 4688,
      "Ġpaths": 4689,
      "Ġwary": 4690,
      "Ġwriting": 4691,
      "ĠPriest": 4692,
      "Ġribs": 4693,
      "Ġsimple": 4694,
      "Ġboss": 4695,
      "Ġinvention": 4696,
      "amb": 4697,
      "Ġledger": 4698,
      "Ġann": 4699,
      "ĠInvent": 4700,
      "Ġflying": 4701,
      "Ġcosmos": 4702,
      "Ġsports": 4703,
      "cHe": 4704,
      "ormant": 4705,
      "ĠSeraphis": 4706,
      "Ġjustice": 4707,
      "topic": 4708,
      "Ġbecause": 4709,
      "Ġvillain": 4710,
      "Ġpartner": 4711,
      "Ġprep": 4712,
      "itting": 4713,
      "Ġuntouched": 4714,
      "Ġinvolved": 4715,
      "Eleanor": 4716,
      "cc": 4717,
      "ĠCorrupt": 4718,
      "Ġfasc": 4719,
      "Ġpat": 4720,
      "Ġstaring": 4721,
      "Ġfacility": 4722,
      "uits": 4723,
      "ĠGarden": 4724,
      "cWho": 4725,
      "ĠHarrow": 4726,
      "Ġticked": 4727,
      "Ġclean": 4728,
      "Ġreact": 4729,
      "aining": 4730,
      "Ġfighting": 4731,
      "ries": 4732,
      "town": 4733,
      "Ġfrowned": 4734,
      "Ġthroat": 4735,
      "Ġunp": 4736,
      "Ġintercepts": 4737,
      "Ġaccurate": 4738,
      "Ġunpredict": 4739,
      "bus": 4740,
      "Ġrecognizes": 4741,
      "ayed": 4742,
      "Ġhovered": 4743,
      "Ġpushed": 4744,
      "Ġbow": 4745,
      "Ġflame": 4746,
      "Ġincluding": 4747,
      "tering": 4748,
      "aped": 4749,
      "Ġcreaking": 4750,
      "Ġhearts": 4751,
      "Ġcollapsed": 4752,
      "Ġdoubt": 4753,
      "ĠThom": 4754,
      "Ġmountains": 4755,
      "Ġwrapped": 4756,
      "Ġabsence": 4757,
      "ials": 4758,
      "Ġautom": 4759,
      "ames": 4760,
      "Ġtune": 4761,
      "Ġpassage": 4762,
      "Ġspl": 4763,
      "Ġmonarch": 4764,
      "Ġpaints": 4765,
      "Ġinflu": 4766,
      "Ġfeared": 4767,
      "Ġcommunic": 4768,
      "ĠMumbl": 4769,
      "Ġtheft": 4770,
      "Ġdormant": 4771,
      "Ġgenius": 4772,
      "Ġforg": 4773,
      "by": 4774,
      "Ġext": 4775,
      "command": 4776,
      "Ġstole": 4777,
      "Ġallies": 4778,
      "ĠSave": 4779,
      "Ġrever": 4780,
      "ited": 4781,
      "unched": 4782,
      "iness": 4783,
      "ollap": 4784,
      "Ġcruel": 4785,
      "ĠOffer": 4786,
      "Ġsending": 4787,
      "Ġnervous": 4788,
      "eral": 4789,
      "Ġwooden": 4790,
      "Ġpublic": 4791,
      "Ġlose": 4792,
      "Ġdi": 4793,
      "Ġprevious": 4794,
      "Ġgather": 4795,
      "question": 4796,
      "Ġble": 4797,
      "ĠShadowed": 4798,
      "Ġsilenced": 4799,
      "Ġthin": 4800,
      "ĠShip": 4801,
      "fr": 4802,
      "kely": 4803,
      "iph": 4804,
      "itect": 4805,
      "Ġdam": 4806,
      "Ġunlike": 4807,
      "Ġentr": 4808,
      "ilo": 4809,
      "Ġlittle": 4810,
      "ĠWarden": 4811,
      "keepers": 4812,
      "Ġburden": 4813,
      "Ġlater": 4814,
      "-collap": 4815,
      "Ġunsure": 4816,
      "Ġstruck": 4817,
      "Ġreading": 4818,
      "Ġhometown": 4819,
      "Ġzone": 4820,
      "Ġcrimes": 4821,
      "ĠSomewhere": 4822,
      "Ġsparking": 4823,
      "Ġclub": 4824,
      "Ġfisher": 4825,
      "Ġwasteland": 4826,
      "feren": 4827,
      "ĠWor": 4828,
      "eption": 4829,
      "Ġgovernor": 4830,
      "othes": 4831,
      "Ġclocktower": 4832,
      "Ġcot": 4833,
      "Ġmod": 4834,
      "ĠPap": 4835,
      "Lira": 4836,
      "ielding": 4837,
      "Ġdebts": 4838,
      "Ġcourage": 4839,
      "ĠTide": 4840,
      "Ġintro": 4841,
      "chemist": 4842,
      "Ġfrequency": 4843,
      "Ġstage": 4844,
      "Ġwalk": 4845,
      "cNot": 4846,
      "ĠFog": 4847,
      "Ġunst": 4848,
      "Ġsabotage": 4849,
      "Ġhesitates": 4850,
      "Ġheavens": 4851,
      "cIf": 4852,
      "Ġrepairing": 4853,
      "Ġtechnology": 4854,
      "ĠGolem": 4855,
      "ĠVi": 4856,
      "Ġbunk": 4857,
      "Ġbunker": 4858,
      "Ġmakes": 4859,
      "ept": 4860,
      "Ġdoorway": 4861,
      "Ġlingered": 4862,
      "Ġmou": 4863,
      "Ġinfluence": 4864,
      "Ġmessages": 4865,
      "lord": 4866,
      "Ġcalculate": 4867,
      "Number": 4868,
      "Ġerror": 4869,
      "Ġterminal": 4870,
      "Ġfiltered": 4871,
      "pan": 4872,
      "eyes": 4873,
      "Ġcommander": 4874,
      "ĠWatchmaker": 4875,
      "isdom": 4876,
      "-collapse": 4877,
      "Ġrang": 4878,
      "Ġcomponent": 4879,
      "Ġunit": 4880,
      "Ġscholar": 4881,
      "Ġloyalty": 4882,
      "Ġmath": 4883,
      "Ġhonor": 4884,
      "Ġgets": 4885,
      "Ġlistened": 4886,
      "Ġurging": 4887,
      "Ġpaused": 4888,
      "ĠAfter": 4889,
      "ĠOut": 4890,
      "ĠTerry": 4891,
      "comb": 4892,
      "terms": 4893,
      "Ġdisappeared": 4894,
      "Ġshot": 4895,
      "Ġpredicts": 4896,
      "Ġrede": 4897,
      "Ġredeem": 4898,
      "ĠMadame": 4899,
      "Ġdrifting": 4900,
      "igy": 4901,
      "Ġprodigy": 4902,
      "Quote": 4903,
      "Ġthickened": 4904,
      "Ġexplosion": 4905,
      "OR": 4906,
      "Ġdriven": 4907,
      "lies": 4908,
      "Ġdistr": 4909,
      "unching": 4910,
      "ĠWhispers": 4911,
      "estial": 4912,
      "osing": 4913,
      "âĢ¦": 4914,
      "Ġwoods": 4915,
      "Ġchildren": 4916,
      "Ġdyst": 4917,
      "hood": 4918,
      "opian": 4919,
      "Ġdystopian": 4920,
      "Ġparch": 4921,
      "Ġparchment": 4922,
      "Ġunm": 4923,
      "Ġcras": 4924,
      "Ġtil": 4925,
      "Ġtable": 4926,
      "Ġknelt": 4927,
      "Ġsoon": 4928,
      "\".": 4929,
      "Ġtucked": 4930,
      "arming": 4931,
      "ordinates": 4932,
      "hered": 4933,
      "Ġmovements": 4934,
      "Ġdetect": 4935,
      "Ġmanor": 4936,
      "Ġrese": 4937,
      "ĠEngine": 4938,
      "ĠRourke": 4939,
      "Ġbeauty": 4940,
      "Ġguides": 4941,
      "fo": 4942,
      "Ġcand": 4943,
      "Ġstub": 4944,
      "Ġhours": 4945,
      "Ġcelestial": 4946,
      "ĠBeg": 4947,
      "uches": 4948,
      "ĠVorne": 4949,
      "Ġorbiting": 4950,
      "ĠBegins": 4951,
      "Ġspiral": 4952,
      "Ġhints": 4953,
      "apot": 4954,
      "ĠBun": 4955,
      "Ġcourt": 4956,
      "Ġforget": 4957,
      "find": 4958,
      "Line": 4959,
      "Ġstrike": 4960,
      "ĠCurious": 4961,
      "Ġyellow": 4962,
      "stead": 4963,
      "Ġrange": 4964,
      "Ġcott": 4965,
      "-se": 4966,
      "Ġfury": 4967,
      "Ġbuilds": 4968,
      "Ġstruggling": 4969,
      "Ġconductor": 4970,
      "?\"": 4971,
      "-st": 4972,
      "Ġproto": 4973,
      "arget": 4974,
      "Ġquestioning": 4975,
      "Ġtalent": 4976,
      "Ġscaven": 4977,
      "Ġwild": 4978,
      "Ġinvolving": 4979,
      "wing": 4980,
      "Ġfortune": 4981,
      "ightened": 4982,
      "emon": 4983,
      "Ġinvestigator": 4984,
      "Ġheir": 4985,
      "Ġhowled": 4986,
      "Ġcrossed": 4987,
      "ases": 4988,
      "vice": 4989,
      "Ġinstead": 4990,
      "Ġundo": 4991,
      "ĠFire": 4992,
      "icient": 4993,
      "Ġsne": 4994,
      "-h": 4995,
      "Ġchildhood": 4996,
      "ention": 4997,
      "Ġarrested": 4998,
      "roid": 4999,
      "Ġterrified": 5000,
      "Ġmonths": 5001,
      "Ġshatter": 5002,
      "Ġattacks": 5003,
      "ieval": 5004,
      "Elena": 5005,
      "Ġmedieval": 5006,
      "rior": 5007,
      "Ġwarrior": 5008,
      "Ġpriv": 5009,
      "Ġcouncil": 5010,
      "Ġtraps": 5011,
      "Ġclever": 5012,
      "Ġdevices": 5013,
      "Ġconfidence": 5014,
      "ĠDra": 5015,
      "ĠLiora": 5016,
      "Ġtit": 5017,
      "ĠAegis": 5018,
      "ĠInstead": 5019,
      "ĠMark": 5020,
      "now": 5021,
      "Ġunderworld": 5022,
      "...": 5023,
      "Ġerrors": 5024,
      "cher": 5025,
      "Ġraw": 5026,
      "ĠCase": 5027,
      "Ġfollowing": 5028,
      "Ġcrunching": 5029,
      "oid": 5030,
      "Ġemotions": 5031,
      "recall": 5032,
      "inated": 5033,
      "Ġpian": 5034,
      "ĠIT": 5035,
      "Ġactivated": 5036,
      "ĠHoney": 5037,
      "Ġtruths": 5038,
      "Ġmouth": 5039,
      "ĠReyes": 5040,
      "Ġlone": 5041,
      "Ġborn": 5042,
      "Ġfisherman": 5043,
      "Ġconcer": 5044,
      "Ġlearning": 5045,
      "Ġobservant": 5046,
      "Ġblacksmith": 5047,
      "Ġdefied": 5048,
      "Open": 5049,
      "Ġgrown": 5050,
      "Ġrecognized": 5051,
      "Ġresists": 5052,
      "ighter": 5053,
      "Ġcertainty": 5054,
      "icy": 5055,
      "Ġframe": 5056,
      "HA": 5057,
      "Ġcool": 5058,
      "ucker": 5059,
      "Ġmethod": 5060,
      "Ġclues": 5061,
      "Ġautomata": 5062,
      "Create": 5063,
      "inary": 5064,
      "_st": 5065,
      "Ġgra": 5066,
      "ĠInventive": 5067,
      "Ġcreatures": 5068,
      "Ġbrink": 5069,
      "ĠVision": 5070,
      "rat": 5071,
      "Ġbad": 5072,
      "osit": 5073,
      "Ġemplo": 5074,
      "Ġcache": 5075,
      "Ġglim": 5076,
      "Ġconsider": 5077,
      "Ġbrushed": 5078,
      "inging": 5079,
      "Ġhush": 5080,
      "Ġruling": 5081,
      "Ġsuspicion": 5082,
      "Ġroared": 5083,
      "bers": 5084,
      "hantom": 5085,
      "Ġav": 5086,
      "ĠPhantom": 5087,
      "Ġbrought": 5088,
      "cWhy": 5089,
      "Ġsinger": 5090,
      "\":{": 5091,
      "\":[]": 5092,
      "Ġbodies": 5093,
      "Ġairship": 5094,
      "Sil": 5095,
      "Ġoption": 5096,
      "ebr": 5097,
      "Ġwounded": 5098,
      "Ġcelebr": 5099,
      "tw": 5100,
      "itor": 5101,
      "istoc": 5102,
      "Ġaristoc": 5103,
      "Ġcog": 5104,
      "ĠPuddle": 5105,
      "Ġmirrors": 5106,
      "ĠArchive": 5107,
      "Ġaristocrat": 5108,
      "eless": 5109,
      "ĠTower": 5110,
      "view": 5111,
      "Ġsought": 5112,
      "Ġfeeds": 5113,
      "Ġtalks": 5114,
      "wal": 5115,
      "Ġtunnel": 5116,
      "well": 5117,
      "itted": 5118,
      "eping": 5119,
      "Now": 5120,
      "Save": 5121,
      "Ġcurling": 5122,
      "Ġcookie": 5123,
      "Ġcorruption": 5124,
      "Ġlingers": 5125,
      "ĠCop": 5126,
      "_store": 5127,
      "Ġmethodical": 5128,
      "cBecause": 5129,
      "bably": 5130,
      "ĠDraven": 5131,
      "ymb": 5132,
      "Ġuniversity": 5133,
      "Ġawoke": 5134,
      "elet": 5135,
      "Answer": 5136,
      "estro": 5137,
      "Ġmast": 5138,
      "Ġdrink": 5139,
      "Ġchaotic": 5140,
      "Ġyellowed": 5141,
      "Ġjournalist": 5142,
      "Ġcivilizations": 5143,
      "gac": 5144,
      "Ġmegac": 5145,
      "Ġcoordinates": 5146,
      "Ġcob": 5147,
      "ĠMilo": 5148,
      "Ġphys": 5149,
      "\\nElara": 5150,
      "Ġfirm": 5151,
      "Ġwatcher": 5152,
      "Ġdisappearance": 5153,
      "enna": 5154,
      "Form": 5155,
      "Ġplaying": 5156,
      "Ġburst": 5157,
      "Ġinj": 5158,
      "ces": 5159,
      "olded": 5160,
      "unned": 5161,
      "gered": 5162,
      "Ġcolonies": 5163,
      "ĠDusty": 5164,
      "Ġcontinued": 5165,
      "Body": 5166,
      "Ġjar": 5167,
      "Ġkne": 5168,
      "Ġkno": 5169,
      "Ġgoal": 5170,
      "Ġmask": 5171,
      "Ġfestival": 5172,
      "Ġspr": 5173,
      "aded": 5174,
      "Ġconsume": 5175,
      "Ġpossib": 5176,
      "rebus": 5177,
      "Ġrhythmic": 5178,
      "ĠHigh": 5179,
      "ĠZed": 5180,
      "EN": 5181,
      "Ġresting": 5182,
      "ternity": 5183,
      "Ġblock": 5184,
      "File": 5185,
      "bro": 5186,
      "Ġsalt": 5187,
      "Ġreset": 5188,
      "âĢĻd": 5189,
      "rr": 5190,
      "Ġma": 5191,
      "kes": 5192,
      "ĠLuis": 5193,
      "Ġskelet": 5194,
      "Ġtrigger": 5195,
      "python": 5196,
      "Ġpurs": 5197,
      "Ġtiny": 5198,
      "Ġnumb": 5199,
      "putation": 5200,
      "Ġrig": 5201,
      "born": 5202,
      "Ġcolony": 5203,
      "Ġstunned": 5204,
      "ys": 5205,
      "itched": 5206,
      "Ġbattlefield": 5207,
      "Ġtransmit": 5208,
      "Ġrare": 5209,
      "Ġtwo": 5210,
      "Ġdocument": 5211,
      "Ġshimmering": 5212,
      "Ġmechanisms": 5213,
      "Ġlen": 5214,
      "Ġprogram": 5215,
      "oleum": 5216,
      "Ġnotice": 5217,
      "Ġshare": 5218,
      "Python": 5219,
      "ĠGod": 5220,
      "urch": 5221,
      "Ġplot": 5222,
      "Ġprivate": 5223,
      "Ġfearing": 5224,
      "Ġhushed": 5225,
      "Ġgenerations": 5226,
      "Ġcalculator": 5227,
      "Mira": 5228,
      "Ġmurd": 5229,
      "Ġsche": 5230,
      "Ġclouds": 5231,
      "Ġgrid": 5232,
      "Ġcanvas": 5233,
      "netic": 5234,
      "ales": 5235,
      "Ġsung": 5236,
      "ĠTrans": 5237,
      "Ġregret": 5238,
      "Ġdistorted": 5239,
      "Ġblurred": 5240,
      "TER": 5241,
      "oven": 5242,
      "Ġhunger": 5243,
      "Ġeating": 5244,
      "ĠTren": 5245,
      "ĠOffice": 5246,
      "ipped": 5247,
      "Ġmaps": 5248,
      "Ġscreamed": 5249,
      "usoleum": 5250,
      "Ġimplic": 5251,
      "Ġtam": 5252,
      "ĠFate": 5253,
      "Ġhammering": 5254,
      "Ġpush": 5255,
      "Ġfleet": 5256,
      "Ġdetermine": 5257,
      "Ġsug": 5258,
      "âĢĶbut": 5259,
      "Ġlaws": 5260,
      "ĠMaestro": 5261,
      "unged": 5262,
      "iving": 5263,
      "##": 5264,
      "wered": 5265,
      "Ġsen": 5266,
      "Ġdelicate": 5267,
      "lled": 5268,
      "Ġblinked": 5269,
      "Ġsmelled": 5270,
      "ays": 5271,
      "Ġtransl": 5272,
      "Ġdut": 5273,
      "Ġduty": 5274,
      "Ġimage": 5275,
      "Ġwrites": 5276,
      "vath": 5277,
      "Ġstabilize": 5278,
      "Ġhall": 5279,
      "Ġcompute": 5280,
      "Ġrules": 5281,
      "Ġcrash": 5282,
      "ender": 5283,
      "tions": 5284,
      "Ġguilt": 5285,
      "adox": 5286,
      "under": 5287,
      "-smart": 5288,
      "Ġtears": 5289,
      "Ġskater": 5290,
      "Ġinsists": 5291,
      "Ġentrance": 5292,
      "Ġembed": 5293,
      "ĠUnw": 5294,
      "Ġcalls": 5295,
      "Ġlayers": 5296,
      "Ġoptionally": 5297,
      "ĠBullet": 5298,
      "Ġordinary": 5299,
      ".'Ċ": 5300,
      "Ġspinning": 5301,
      "Ġfront": 5302,
      "Ġteams": 5303,
      "Ġlonely": 5304,
      "Ġcoded": 5305,
      "Ġinher": 5306,
      "Ġstreams": 5307,
      "time": 5308,
      "Ġprobably": 5309,
      "walk": 5310,
      "Ġshout": 5311,
      "ĠForge": 5312,
      "come": 5313,
      "Ġsoot": 5314,
      "Ġreli": 5315,
      "Ġpreserved": 5316,
      "ĠDreams": 5317,
      "Ġbas": 5318,
      "eding": 5319,
      "Enumerate": 5320,
      "adia": 5321,
      "ouble": 5322,
      "--": 5323,
      "Ġdeeply": 5324,
      "Ġla": 5325,
      "Ġdecision": 5326,
      "Ġprotects": 5327,
      "ĠZylo": 5328,
      "Ġclim": 5329,
      "Ġshr": 5330,
      "Ġcatching": 5331,
      "Ġtyr": 5332,
      "Ġguiding": 5333,
      "Ġchurch": 5334,
      "Ġactions": 5335,
      "Ġeither": 5336,
      "iculous": 5337,
      "ĠTides": 5338,
      "Ġodd": 5339,
      "upp": 5340,
      "Cl": 5341,
      "Ġtimekeepers": 5342,
      ").": 5343,
      "Ġtested": 5344,
      "Ġrumors": 5345,
      "arer": 5346,
      "Ġsurpr": 5347,
      "Ġgeneration": 5348,
      "Ġhelped": 5349,
      "Ġtree": 5350,
      "Ġbrow": 5351,
      "Ġfacing": 5352,
      "Ġpirate": 5353,
      "Ġmother": 5354,
      "Ġ</": 5355,
      "Ġappear": 5356,
      "Ġtracking": 5357,
      "Ġtremor": 5358,
      "Ġcaptures": 5359,
      "ĠSolen": 5360,
      "Ġdrifted": 5361,
      "Ġsufficient": 5362,
      "Ġcommunicate": 5363,
      "Ġnarrowed": 5364,
      "Ġassess": 5365,
      "ĠWhile": 5366,
      "Ġexternal": 5367,
      "anishing": 5368,
      "ern": 5369,
      "Ġunstable": 5370,
      "inct": 5371,
      "ĠVanishing": 5372,
      "Ġbecame": 5373,
      "ĠAnswer": 5374,
      "ĠMumblr": 5375,
      "ĠAg": 5376,
      "Ġtowering": 5377,
      "Ġtattered": 5378,
      "ĠQu": 5379,
      "Ġevening": 5380,
      "Ġcolors": 5381,
      "phrase": 5382,
      "Ġdeaths": 5383,
      "ĠVirel": 5384,
      "Ġsighed": 5385,
      "hattered": 5386,
      "Ġresil": 5387,
      "ĠTransmission": 5388,
      "Ġpure": 5389,
      "Full": 5390,
      "Ġsurge": 5391,
      "ĠTale": 5392,
      "ĠCounty": 5393,
      "Formula": 5394,
      "ĠOnly": 5395,
      "Ġskeletal": 5396,
      "icist": 5397,
      "ĠCrow": 5398,
      "ĠEarthmother": 5399,
      "Ġdimmed": 5400,
      "Ġsight": 5401,
      "Ġneigh": 5402,
      "Ġmarked": 5403,
      "ifted": 5404,
      "Ġrisking": 5405,
      "Ġcatchphrase": 5406,
      "ising": 5407,
      "cD": 5408,
      "ĠSnack": 5409,
      "Ġrink": 5410,
      "Ġasks": 5411,
      "alley": 5412,
      "Ġoffer": 5413,
      "ĠTucker": 5414,
      "Ġgasped": 5415,
      "Ġpay": 5416,
      "Ex": 5417,
      "Ġstarted": 5418,
      "Ġswirling": 5419,
      "Ġorgan": 5420,
      "Ġworkb": 5421,
      "Ġlegendary": 5422,
      "rength": 5423,
      "Ġconfusion": 5424,
      "Ġstack": 5425,
      "Ġstrength": 5426,
      "irth": 5427,
      "Ġreborn": 5428,
      "Ġban": 5429,
      "Ġresistance": 5430,
      "Ġchime": 5431,
      "Ġbak": 5432,
      "Ġstag": 5433,
      "pses": 5434,
      "Ġglimpses": 5435,
      "ĠShattered": 5436,
      "Ġvalley": 5437,
      "Ġperformer": 5438,
      "Ġblue": 5439,
      "-for": 5440,
      "ĠQuill": 5441,
      "-forgotten": 5442,
      "cThat": 5443,
      "Ġbakery": 5444,
      "ĠFracture": 5445,
      "Ġfaster": 5446,
      "Ġquir": 5447,
      "Ġpromises": 5448,
      "istle": 5449,
      "Ġcracks": 5450,
      "Ġplanning": 5451,
      "Ġouts": 5452,
      "Ġsomewhere": 5453,
      "Ġartific": 5454,
      "Ġsell": 5455,
      "Ġce": 5456,
      "Ġquirky": 5457,
      "Ġvengeance": 5458,
      "Ne": 5459,
      "Ġshaking": 5460,
      "afael": 5461,
      "Ġtilted": 5462,
      "Ġdefenses": 5463,
      "ĠEngineer": 5464,
      "Ġhills": 5465,
      "Ġloses": 5466,
      "Ġdetected": 5467,
      "Ġenv": 5468,
      "Ġhunched": 5469,
      "igold": 5470,
      "Ġperhaps": 5471,
      "Ġalliance": 5472,
      "Ġsyn": 5473,
      "Ġrealize": 5474,
      "Ġgoss": 5475,
      "ĠLana": 5476,
      "Ġgossip": 5477,
      "apping": 5478,
      "ĠMoonlight": 5479,
      ">Perhaps": 5480,
      "onds": 5481,
      "ymbol": 5482,
      "Ġventures": 5483,
      "Ġinformant": 5484,
      "ify": 5485,
      "ĠWas": 5486,
      "illusioned": 5487,
      "Ġreminder": 5488,
      "room": 5489,
      "Ġdestroying": 5490,
      "Ġclothes": 5491,
      "Ġquite": 5492,
      "Ġloves": 5493,
      "Ġpot": 5494,
      "Ġcell": 5495,
      "Ġdirect": 5496,
      "bbed": 5497,
      "uist": 5498,
      "ĠCurator": 5499,
      "Ġstring": 5500,
      "Ġcolder": 5501,
      "Ġlarg": 5502,
      "Ġcharming": 5503,
      "sembles": 5504,
      "Ġhissed": 5505,
      "ĠNadia": 5506,
      "Ġsettling": 5507,
      "ĠEry": 5508,
      "oding": 5509,
      "ĠZyrr": 5510,
      "Ġoverth": 5511,
      "Ġfalse": 5512,
      "Ġauthor": 5513,
      "iper": 5514,
      "Ġsuitcase": 5515,
      "icking": 5516,
      "Why": 5517,
      "Ġmix": 5518,
      "Ġcities": 5519,
      "ookie": 5520,
      "Be": 5521,
      "ĠCookie": 5522,
      "ĠOrion": 5523,
      "ĠEmperor": 5524,
      "Ġvalid": 5525,
      "Ġhull": 5526,
      "Ġmourn": 5527,
      "Ġmysteriously": 5528,
      "Ġcorridor": 5529,
      "Ġtall": 5530,
      "ĠVeyna": 5531,
      "Ġalleys": 5532,
      "Ġmuse": 5533,
      "ĠEmber": 5534,
      "Ġtones": 5535,
      "Ġcasc": 5536,
      "Ġstaggered": 5537,
      "Ġflin": 5538,
      "Ġsplit": 5539,
      "roph": 5540,
      "ĠRafael": 5541,
      "Ġworkbench": 5542,
      "Ġspaces": 5543,
      "Ġocc": 5544,
      "Ġinstr": 5545,
      "Ġsnippet": 5546,
      "May": 5547,
      "Ġseconds": 5548,
      "vers": 5549,
      "Ġapartment": 5550,
      "Ġdance": 5551,
      "Ġinnoc": 5552,
      "Ġera": 5553,
      "Ġautomatons": 5554,
      "Ġexplores": 5555,
      "Ġreverse": 5556,
      "te": 5557,
      "Ġbatch": 5558,
      "umsy": 5559,
      "Ġclumsy": 5560,
      "Ġenters": 5561,
      "ico": 5562,
      "Ġassass": 5563,
      "Hel": 5564,
      "ĠRhys": 5565,
      "Ġwindows": 5566,
      "Ġtopp": 5567,
      "lin": 5568,
      "Ġuncovered": 5569,
      "Ġpassen": 5570,
      "Start": 5571,
      "Ġnobleman": 5572,
      "ĠBard": 5573,
      "Ġclutching": 5574,
      "Ġsomehow": 5575,
      "ĠAshes": 5576,
      "Ġcodebase": 5577,
      "Ġtouches": 5578,
      "ĠKeeper": 5579,
      "Ġweren": 5580,
      "Ġkeeping": 5581,
      "Ġinternally": 5582,
      "Ġgent": 5583,
      "Ġdeception": 5584,
      "Ġticks": 5585,
      "ĠTicks": 5586,
      "irmed": 5587,
      "Silas": 5588,
      "Ġbent": 5589,
      "ĠEternity": 5590,
      "Ġguarded": 5591,
      "âĢĶa": 5592,
      "adium": 5593,
      "Ġresets": 5594,
      "ĠOutlaw": 5595,
      "_in": 5596,
      "Ġhermit": 5597,
      "uced": 5598,
      "leg": 5599,
      "Ġduelist": 5600,
      "ften": 5601,
      "Ġsoften": 5602,
      "Ġmention": 5603,
      "Query": 5604,
      "Ġtear": 5605,
      "thion": 5606,
      "ĠErythion": 5607,
      "ĠThief": 5608,
      "Ġpointing": 5609,
      "Ġpursued": 5610,
      "Ġcottage": 5611,
      "Ġpanic": 5612,
      "ĠIce": 5613,
      "Ġrev": 5614,
      "quest": 5615,
      "ĠMiso": 5616,
      "Ġplans": 5617,
      "ĠRiddle": 5618,
      "Ġunmake": 5619,
      "ĠJorin": 5620,
      "Ġdrawing": 5621,
      "Ġpreserve": 5622,
      "Ġanswered": 5623,
      "fall": 5624,
      "Ġbrave": 5625,
      "Ġdom": 5626,
      "Ġreven": 5627,
      "ĠBunsy": 5628,
      "Ġrevenge": 5629,
      "Ġstadium": 5630,
      "app": 5631,
      "Ġfootst": 5632,
      "cival": 5633,
      "loaded": 5634,
      "ĠPercival": 5635,
      "ĠBall": 5636,
      "Ġdefinition": 5637,
      "Ġcentury": 5638,
      "Ġdescended": 5639,
      "osp": 5640,
      "Ġrocks": 5641,
      "ĠDisc": 5642,
      "eredith": 5643,
      "Ġwisdom": 5644,
      "Ġmeans": 5645,
      "uce": 5646,
      "Execute": 5647,
      "Ġtopic": 5648,
      "ĠNothing": 5649,
      "Ġuncle": 5650,
      "Ġartist": 5651,
      "Ġpanel": 5652,
      "Ġrand": 5653,
      "\\nN": 5654,
      "Ġmale": 5655,
      "bled": 5656,
      "ician": 5657,
      "top": 5658,
      "Ġcircuits": 5659,
      "THE": 5660,
      "Ġdefeated": 5661,
      "ĠNina": 5662,
      "Ġimport": 5663,
      "Ġemerges": 5664,
      "ĠGrand": 5665,
      "Ġrandom": 5666,
      "Ġbusiness": 5667,
      "Ġchip": 5668,
      "Ġhungry": 5669,
      "ED": 5670,
      "girl": 5671,
      "Ġconfirmed": 5672,
      "Ġshowed": 5673,
      "Ġcynical": 5674,
      "Ġembedded": 5675,
      "Ġdrown": 5676,
      "Ġcareer": 5677,
      "Ġshowgirl": 5678,
      "Ġpray": 5679,
      "Ġinit": 5680,
      "Ġchallenge": 5681,
      "ĠWhisker": 5682,
      "Ġwoven": 5683,
      "ĠJourn": 5684,
      "Ġgifted": 5685,
      "Ġbelongs": 5686,
      "ik": 5687,
      "Ġurgent": 5688,
      "ĠEye": 5689,
      "ĠClocks": 5690,
      "ĠHart": 5691,
      "enched": 5692,
      "Ġapproach": 5693,
      "Ġinvestigation": 5694,
      "Ġensues": 5695,
      "ĠLetter": 5696,
      "Ġrecognize": 5697,
      "Ġspun": 5698,
      "Ġpaintings": 5699,
      "Ġproper": 5700,
      "Ġstake": 5701,
      "avor": 5702,
      "ĠSecrets": 5703,
      "Ġdimly": 5704,
      "Ġplaced": 5705,
      "Ġcryst": 5706,
      "tar": 5707,
      "Ġwid": 5708,
      "Ġweaving": 5709,
      "Ġaltar": 5710,
      "ĠWitch": 5711,
      "ĠLeader": 5712,
      "Ġswim": 5713,
      "Ġorigin": 5714,
      "Ġnumbers": 5715,
      "Class": 5716,
      "Ġgrabbed": 5717,
      "Ġdrop": 5718,
      "Ġcorners": 5719,
      "ND": 5720,
      "Ġsoftly": 5721,
      "Ġhealth": 5722,
      "ĠBallad": 5723,
      "Ġhost": 5724,
      "Ġeerily": 5725,
      "ĠLore": 5726,
      "Ġruin": 5727,
      "'ve": 5728,
      "urbed": 5729,
      "ĠTO": 5730,
      "Ġerupted": 5731,
      "Ġlength": 5732,
      "reet": 5733,
      "ĠBo": 5734,
      "Ġorche": 5735,
      "Ġorchestr": 5736,
      "ĠHarm": 5737,
      "Ġmaking": 5738,
      "Shell": 5739,
      "ĠVienna": 5740,
      "Ġbridgekeeper": 5741,
      "Ġcove": 5742,
      "Ġcutting": 5743,
      "Com": 5744,
      "Ġdesigned": 5745,
      "ĠCar": 5746,
      "ĠStand": 5747,
      "ĠSeraphine": 5748,
      "\\nI": 5749,
      "Ġguy": 5750,
      "Ġtide": 5751,
      "ĠSkyfish": 5752,
      "ĠCow": 5753,
      "Help": 5754,
      "iphon": 5755,
      "Ġstrand": 5756,
      "ithered": 5757,
      "quis": 5758,
      "Ġclenched": 5759,
      "Ġdart": 5760,
      "inced": 5761,
      "hest": 5762,
      "orage": 5763,
      "Ġstorage": 5764,
      "ĠYears": 5765,
      "uable": 5766,
      "ĠGrave": 5767,
      "procket": 5768,
      "what": 5769,
      "Ġtast": 5770,
      "Ġmage": 5771,
      "Ġdefy": 5772,
      "Ġservant": 5773,
      "Ġpolished": 5774,
      "Ġsettle": 5775,
      "ovement": 5776,
      "blem": 5777,
      "Ġguided": 5778,
      "Ġrecorded": 5779,
      "ĠStreet": 5780,
      "ĠGrant": 5781,
      "iful": 5782,
      "Ġfracture": 5783,
      "Ġforged": 5784,
      "inted": 5785,
      "Ġplants": 5786,
      "Ġperformance": 5787,
      "Ġbub": 5788,
      "ishop": 5789,
      "Ġpuzzle": 5790,
      "ĠMont": 5791,
      "ĠSilly": 5792,
      "Ġmurmur": 5793,
      "Ġhit": 5794,
      "Ġfists": 5795,
      "Ġseeds": 5796,
      "Ġunease": 5797,
      "Ġbeautiful": 5798,
      "pass": 5799,
      "ĠEuro": 5800,
      "Ġknees": 5801,
      "ĠEurope": 5802,
      "Ġaching": 5803,
      "Ġhang": 5804,
      "Ġflu": 5805,
      "ables": 5806,
      "Ġletting": 5807,
      "Ġstubborn": 5808,
      "Ġwheel": 5809,
      "Ġfurrow": 5810,
      "Ġinv": 5811,
      "Ġflour": 5812,
      "Ġbreathe": 5813,
      "Ġrobotic": 5814,
      "Sir": 5815,
      "Ġunle": 5816,
      "Ġconnected": 5817,
      "Ġsimply": 5818,
      "ĠLanterns": 5819,
      "ĠJo": 5820,
      "Ġenig": 5821,
      "Ġpainted": 5822,
      "ĠMercenary": 5823,
      "Ġaccurately": 5824,
      "loop": 5825,
      "Ġwalking": 5826,
      "ĠEnglish": 5827,
      "iform": 5828,
      "Ġuniform": 5829,
      "Ġvaluable": 5830,
      "ived": 5831,
      "}<|": 5832,
      "\\nAnd": 5833,
      "ĠPorridge": 5834,
      "Ġbroadcasts": 5835,
      "Ġlooks": 5836,
      "Ġdropped": 5837,
      "Ġresonant": 5838,
      "Ġexc": 5839,
      "Ġtimid": 5840,
      "Ġdanced": 5841,
      "Ġpoet": 5842,
      "Ġpair": 5843,
      "Ġsear": 5844,
      "ĠWordless": 5845,
      "Ġdism": 5846,
      "ining": 5847,
      "ĠSprocket": 5848,
      "Ġmusical": 5849,
      "Ġglo": 5850,
      "ĠLullaby": 5851,
      "âĢĻll": 5852,
      "Ġmegacity": 5853,
      "MP": 5854,
      "Dr": 5855,
      "Ġneither": 5856,
      "Ġshel": 5857,
      "ĠBishop": 5858,
      "urned": 5859,
      "Ġgreen": 5860,
      "Ġdiscovery": 5861,
      "Ġignore": 5862,
      "Ġball": 5863,
      "Ġblamed": 5864,
      "ailed": 5865,
      "Ġshoulder": 5866,
      "]<|": 5867,
      "Ġiss": 5868,
      "era": 5869,
      "essed": 5870,
      "ĠMeredith": 5871,
      "Ġhaunting": 5872,
      "Ġcalculating": 5873,
      "\\nV": 5874,
      "Ġfrayed": 5875,
      "andy": 5876,
      "Ġcollection": 5877,
      "Ġsaf": 5878,
      "Ġuploaded": 5879,
      "Ġdisr": 5880,
      "Ġignored": 5881,
      "Ġprotest": 5882,
      "itive": 5883,
      "Ġproblem": 5884,
      "unning": 5885,
      "orter": 5886,
      "ynn": 5887,
      "Ġcrit": 5888,
      "ĠDec": 5889,
      "Ġdarker": 5890,
      "Ġquickly": 5891,
      "ĠHoneycomb": 5892,
      "Ġresc": 5893,
      "ellig": 5894,
      "Ġstilled": 5895,
      "Ġcharg": 5896,
      "ĠRose": 5897,
      "Ġpract": 5898,
      "medi": 5899,
      "Ġequ": 5900,
      "ĠBlackth": 5901,
      "ĠPriestess": 5902,
      ".M": 5903,
      "EO": 5904,
      "\\nLila": 5905,
      "ĠDusk": 5906,
      "ĠTeam": 5907,
      "IT": 5908,
      "Ġknock": 5909,
      "ĠFax": 5910,
      "iner": 5911,
      "Ġsummon": 5912,
      "Ġsoundless": 5913,
      "Ġscroll": 5914,
      "ĠErebus": 5915,
      "Ġtechnician": 5916,
      "ripple": 5917,
      "quisitive": 5918,
      "Ġfarm": 5919,
      "no": 5920,
      "ective": 5921,
      "Ġflared": 5922,
      "ĠLeak": 5923,
      "Ġstat": 5924,
      "Ġmerge": 5925,
      "Ġimportant": 5926,
      "ingly": 5927,
      "Ġunravels": 5928,
      "Maybe": 5929,
      "âĢĻm": 5930,
      "Ġserve": 5931,
      "Ġresolve": 5932,
      "Ġconfidante": 5933,
      "Ġresponse": 5934,
      "Ġlaughed": 5935,
      "Ġbreathing": 5936,
      "def": 5937,
      "Ġpieces": 5938,
      "Ġinten": 5939,
      "oldier": 5940,
      "Ġending": 5941,
      "Ġhigher": 5942,
      "Ġfights": 5943,
      "ON": 5944,
      "ibly": 5945,
      "Ġware": 5946,
      "Ġconcert": 5947,
      "Ġwarehouse": 5948,
      "Ġdisguised": 5949,
      "ĠYet": 5950,
      "Ġissues": 5951,
      "Ġsupplies": 5952,
      "tract": 5953,
      "Ġweathered": 5954,
      "Ġalter": 5955,
      "Ġrob": 5956,
      "Ġmusicians": 5957,
      "Ġpreviously": 5958,
      "}}}}Ċ": 5959,
      "\":{}}}}Ċ": 5960,
      "\":[],\"": 5961,
      "Ġurgency": 5962,
      "Echo": 5963,
      "Ġhaving": 5964,
      "Ġexisted": 5965,
      "Ġbloom": 5966,
      "Ġwriter": 5967,
      "ĠYogurt": 5968,
      "ĠFore": 5969,
      "Ġwiz": 5970,
      "ĠThomas": 5971,
      "uffin": 5972,
      "Ġunmist": 5973,
      "Ġunmistak": 5974,
      "Ġdesperation": 5975,
      "append": 5976,
      "ĠCEO": 5977,
      "Report": 5978,
      "ĠLang": 5979,
      "Ġcure": 5980,
      "Ġyourself": 5981,
      "icing": 5982,
      "Ġbuildings": 5983,
      "Ġconvinced": 5984,
      "Ġproof": 5985,
      "Ġdate": 5986,
      "paring": 5987,
      "Ġpreparing": 5988,
      "Ġtwisting": 5989,
      "Ġsays": 5990,
      "ĠMore": 5991,
      "Ġgun": 5992,
      "Ġmobster": 5993,
      "Ġfresh": 5994,
      "ĠMarigold": 5995,
      "Ġlogs": 5996,
      "ids": 5997,
      "Ġruns": 5998,
      "Ġglowed": 5999,
      "Ġthreatening": 6000,
      "*.": 6001,
      "Ġimmedi": 6002,
      "slot": 6003,
      ".py": 6004,
      "Ġanaly": 6005,
      "Ġdusk": 6006,
      "Ġunpredictably": 6007,
      "Ġhive": 6008,
      "Ġdates": 6009,
      "Ġfired": 6010,
      "ilt": 6011,
      "Ġobsessed": 6012,
      "ressed": 6013,
      "Ġmechanic": 6014,
      "Ġsorrowful": 6015,
      "chen": 6016,
      "rew": 6017,
      "ĠForest": 6018,
      "Ġtangled": 6019,
      "Ġbir": 6020,
      "Ġlying": 6021,
      "broken": 6022,
      "Ġtopple": 6023,
      "Ġimplications": 6024,
      "Ġamb": 6025,
      "Ġdisillusioned": 6026,
      "rail": 6027,
      "sh": 6028,
      "ĠWren": 6029,
      "stry": 6030,
      "ĠNico": 6031,
      "ĠEn": 6032,
      "Ġunlock": 6033,
      "ĠGear": 6034,
      "Ġunleashed": 6035,
      "Ġenigmatic": 6036,
      "Ġarchitect": 6037,
      "Ġknack": 6038,
      "Ġnood": 6039,
      "ephy": 6040,
      "Ġgut": 6041,
      "Ġdefeat": 6042,
      "Ġintact": 6043,
      "Ġstayed": 6044,
      "Ġpowered": 6045,
      "Ġrolled": 6046,
      "coun": 6047,
      "ĠEnd": 6048,
      "ING": 6049,
      "entry": 6050,
      "Ġang": 6051,
      "ĠZephy": 6052,
      "ĠWindkeeper": 6053,
      "Ġparadox": 6054,
      "Ġpleading": 6055,
      "ĠJoe": 6056,
      "Ġwizard": 6057,
      "Ġjam": 6058,
      "Ġgrasp": 6059,
      "etrieve": 6060,
      "lips": 6061,
      "unches": 6062,
      "Ġlaunches": 6063,
      "ĠRevel": 6064,
      "Ġinherits": 6065,
      "ĠRevelation": 6066,
      "Ġwip": 6067,
      "ĠRes": 6068,
      "Ġthinking": 6069,
      "Ġmausoleum": 6070,
      "asked": 6071,
      "Ġproperly": 6072,
      "Ġpred": 6073,
      "matics": 6074,
      "ilities": 6075,
      "Ġschematics": 6076,
      "yl": 6077,
      "erclips": 6078,
      "Ġlunged": 6079,
      "Ġunraveled": 6080,
      "Ġsurvivors": 6081,
      "Ġtape": 6082,
      "urd": 6083,
      "Ġterror": 6084,
      "Ġbigger": 6085,
      "Ġplea": 6086,
      "Ġvictory": 6087,
      "iers": 6088,
      "ĠOrig": 6089,
      "orrin": 6090,
      "Fetch": 6091,
      "Ġleather": 6092,
      "arnaby": 6093,
      "know": 6094,
      "Ġchains": 6095,
      "Ġhabit": 6096,
      "Ġshadowed": 6097,
      "Ġsenses": 6098,
      "aries": 6099,
      "Ġwhistle": 6100,
      "ĠZephyr": 6101,
      "Ġhilt": 6102,
      "obi": 6103,
      "/value": 6104,
      "wall": 6105,
      "ĠConf": 6106,
      "ĠAli": 6107,
      "Ġbright": 6108,
      "aware": 6109,
      "ĠCalm": 6110,
      "Ġunaware": 6111,
      "ĠTalia": 6112,
      "Ġbrief": 6113,
      "ĠMorgan": 6114,
      "Ġoften": 6115,
      "Ġoverhe": 6116,
      "Ġentangled": 6117,
      ".MD": 6118,
      "Ġskeptic": 6119,
      "ES": 6120,
      "HAP": 6121,
      "Ġtarget": 6122,
      "Ġsongbook": 6123,
      "Ġcliff": 6124,
      "Ġhalls": 6125,
      "ĠNight": 6126,
      "Ġrigid": 6127,
      "Eve": 6128,
      "Ġweak": 6129,
      "Ġband": 6130,
      "Ġspecific": 6131,
      "Ġcrashes": 6132,
      "fession": 6133,
      "Ġcrus": 6134,
      "uted": 6135,
      "Ġtesting": 6136,
      "Multip": 6137,
      "Ġhaunts": 6138,
      "Ġdragon": 6139,
      "Ġvows": 6140,
      "HAPTER": 6141,
      "ĠCripple": 6142,
      "ĠTin": 6143,
      "_web": 6144,
      "Ġeccent": 6145,
      "Ġgloved": 6146,
      "Ġeccentric": 6147,
      "Ġrot": 6148,
      "Ġmeetings": 6149,
      "kshop": 6150,
      "ĠWorkshop": 6151,
      "_key": 6152,
      "iss": 6153,
      "Ġpal": 6154,
      "Ġreeled": 6155,
      "Ġmodern": 6156,
      "Ġcreak": 6157,
      "ĠWatchwoman": 6158,
      "Multiply": 6159,
      "Ġshaped": 6160,
      "ĠRevolution": 6161,
      "Ġcaused": 6162,
      "Ġexactly": 6163,
      "Ġitem": 6164,
      "Ġabsor": 6165,
      "day": 6166,
      "inished": 6167,
      "Ġpried": 6168,
      "ĠGirl": 6169,
      "alph": 6170,
      "ĠMoreau": 6171,
      "Ġtapestry": 6172,
      "vet": 6173,
      "Ġencry": 6174,
      "Ġlures": 6175,
      "Ġbubble": 6176,
      "piece": 6177,
      "alline": 6178,
      "ĠEMP": 6179,
      "ĠMechanism": 6180,
      "Ġcrystalline": 6181,
      "Ġsails": 6182,
      "If": 6183,
      "Ġdemanded": 6184,
      "Retrieve": 6185,
      "wz": 6186,
      "\\nW": 6187,
      "Ġgroaning": 6188,
      "fits": 6189,
      "Ġcig": 6190,
      "ergus": 6191,
      "Ġbitter": 6192,
      "ĠPact": 6193,
      "Ġwarlord": 6194,
      "ĠCa": 6195,
      "geant": 6196,
      "Ġclaimed": 6197,
      "Ġgives": 6198,
      "Ġperfection": 6199,
      "Ġsprings": 6200,
      "oured": 6201,
      "Ġcompleted": 6202,
      "atory": 6203,
      "Ġhits": 6204,
      "Ġelder": 6205,
      "fort": 6206,
      "mes": 6207,
      "Ġlim": 6208,
      "Ġskate": 6209,
      "Ġsharply": 6210,
      "Ġdread": 6211,
      "Commander": 6212,
      "Ġopp": 6213,
      "ĠTrail": 6214,
      "Ġfloorboard": 6215,
      "athed": 6216,
      "Ġmurdered": 6217,
      "ĠSun": 6218,
      "ĠCole": 6219,
      "ĠBarnaby": 6220,
      "Ġorders": 6221,
      "Ġwidened": 6222,
      "\\nThen": 6223,
      "ĠSc": 6224,
      "Ġapproaches": 6225,
      "Ġsigh": 6226,
      "Ġanger": 6227,
      "Ġrelease": 6228,
      "ĠNightw": 6229,
      "wl": 6230,
      "Ġreposit": 6231,
      "Ġrepository": 6232,
      "kb": 6233,
      "Ġanim": 6234,
      "Ġanomal": 6235,
      "print": 6236,
      "Ġwings": 6237,
      "Ġinh": 6238,
      "eker": 6239,
      "Ġhur": 6240,
      "Ġshoulders": 6241,
      "-seeker": 6242,
      "ork": 6243,
      "Ġdiary": 6244,
      "Ġexposed": 6245,
      "Ġabsurd": 6246,
      "ĠBridge": 6247,
      "Ġsenator": 6248,
      "ĠNightwraith": 6249,
      "Ġgaining": 6250,
      "Ġant": 6251,
      "Ġsins": 6252,
      "chime": 6253,
      "-day": 6254,
      "Ġoccur": 6255,
      "Ġdece": 6256,
      "rawled": 6257,
      "ĠSister": 6258,
      "Ġfascinated": 6259,
      "Ġcommunity": 6260,
      "Ġgust": 6261,
      "cShe": 6262,
      "ĠTree": 6263,
      "ertie": 6264,
      "aret": 6265,
      "Ġfoc": 6266,
      "Ġgrief": 6267,
      "âĢĶor": 6268,
      "allic": 6269,
      "external": 6270,
      "Ġmetallic": 6271,
      "Ġshowing": 6272,
      "Ġriddle": 6273,
      "Ġsummoned": 6274,
      "Ġprize": 6275,
      "Ġshown": 6276,
      "Ġwaits": 6277,
      "ĠUnseen": 6278,
      "Ġspect": 6279,
      "ĠConfession": 6280,
      "ĠUnwound": 6281,
      "Ġpreacher": 6282,
      "Ġoverthrow": 6283,
      "Ġgaslight": 6284,
      "ips": 6285,
      "onom": 6286,
      "Ġfilm": 6287,
      "ĠWithout": 6288,
      "Ġgrinding": 6289,
      "fact": 6290,
      "uci": 6291,
      "Ġcruci": 6292,
      "Ġcrucial": 6293,
      "ĠHad": 6294,
      "ĠRalph": 6295,
      "ironment": 6296,
      "Ġenvironment": 6297,
      "Ġcigaret": 6298,
      "CHAPTER": 6299,
      "Ġreally": 6300,
      "Ġcascade": 6301,
      "Ġhair": 6302,
      "Ġrefused": 6303,
      "Ġwarmth": 6304,
      "Name": 6305,
      "cely": 6306,
      "Ġdescend": 6307,
      "Ġfiercely": 6308,
      "_on": 6309,
      "Bot": 6310,
      "stled": 6311,
      "Ġnestled": 6312,
      "Ġseat": 6313,
      "oker": 6314,
      "ĠFox": 6315,
      "Ġweeps": 6316,
      "wise": 6317,
      "Ġmisch": 6318,
      "Ġprepares": 6319,
      "Ġprayer": 6320,
      "Ġstrict": 6321,
      "Ġflames": 6322,
      "Ġresearch": 6323,
      "Ġresponding": 6324,
      "cing": 6325,
      "gy": 6326,
      "Ġcraft": 6327,
      ".âĢĿĊ": 6328,
      "Ġresonated": 6329,
      "Ġgate": 6330,
      "akened": 6331,
      "Ġawakened": 6332,
      "Ġinsistent": 6333,
      "ĠTock": 6334,
      "_online": 6335,
      "Ġbasement": 6336,
      "mosp": 6337,
      "ĠMoonlit": 6338,
      "mosphere": 6339,
      "Ġbegs": 6340,
      "brary": 6341,
      "Ġcollapses": 6342,
      "Ġwondered": 6343,
      "Ġreaches": 6344,
      "Ġstair": 6345,
      "ulsion": 6346,
      "ĠLibrary": 6347,
      "ĠVorik": 6348,
      "Ġways": 6349,
      "Ġsends": 6350,
      "-l": 6351,
      "hus": 6352,
      "Ġatmosphere": 6353,
      "Ġstruggle": 6354,
      "alloway": 6355,
      "Ġdrowned": 6356,
      "elled": 6357,
      "Ġree": 6358,
      "Ġfeeding": 6359,
      "Ġraven": 6360,
      "_base": 6361,
      "_know": 6362,
      "_knowledge": 6363,
      "Ġpow": 6364,
      "Ġsoftened": 6365,
      "ĠCH": 6366,
      "Ġantic": 6367,
      "Ġanticip": 6368,
      "Ġceil": 6369,
      "Ġwandered": 6370,
      "Ġceiling": 6371,
      "Ġdissolved": 6372,
      "Ġtyran": 6373,
      "ĠBud": 6374,
      "Ġteapot": 6375,
      "ĠAgent": 6376,
      "Ġsurprised": 6377,
      "ĠGregor": 6378,
      "Ġfoggy": 6379,
      "Ġlinguist": 6380,
      "-old": 6381,
      "Ġrespect": 6382,
      "anches": 6383,
      "Ġswallows": 6384,
      "overy": 6385,
      "Ġcolor": 6386,
      "ĠSergeant": 6387,
      "avior": 6388,
      "Ġbehavior": 6389,
      "Ġdefiant": 6390,
      "antic": 6391,
      "ĠDiscovery": 6392,
      "ĠGra": 6393,
      "ĠZion": 6394,
      "Ġneighbor": 6395,
      "ĠGraves": 6396,
      "Ġscores": 6397,
      "sive": 6398,
      "Ġillusion": 6399,
      "Ġcany": 6400,
      "ĠMarina": 6401,
      "ĠKid": 6402,
      "ĠEmpire": 6403,
      "Ġquietly": 6404,
      "Ġflash": 6405,
      "Ġspeed": 6406,
      "Ġnearby": 6407,
      "Ġwitnesses": 6408,
      "Ġassassination": 6409,
      "iel": 6410,
      "ented": 6411,
      "ĠSyl": 6412,
      "Ġvisit": 6413,
      "Ġendlessly": 6414,
      "rer": 6415,
      "Ġconsuming": 6416,
      "husi": 6417,
      "Ġlink": 6418,
      "astic": 6419,
      "Ġchees": 6420,
      "Ġsick": 6421,
      "Ġoldest": 6422,
      "bound": 6423,
      "Ġcrate": 6424,
      "Ġhelping": 6425,
      "ĠRafe": 6426,
      "AR": 6427,
      "Ġrestoring": 6428,
      "Ġstore": 6429,
      "Ġgest": 6430,
      "Ġmanipulated": 6431,
      "Ġscanned": 6432,
      "Ġgreeted": 6433,
      "Ġcomposition": 6434,
      "ĠZyra": 6435,
      "Ġtransmitter": 6436,
      "elier": 6437,
      "Ġpropulsion": 6438,
      "Ġslid": 6439,
      "Ġvanishing": 6440,
      "Ġcellar": 6441,
      "Ġcigarette": 6442,
      "Ġyours": 6443,
      "Ġmend": 6444,
      "Ġthunder": 6445,
      "Ġhailed": 6446,
      "utes": 6447,
      "Ġrevolutionary": 6448,
      "Ġsuspects": 6449,
      "ĠBlood": 6450,
      "uster": 6451,
      "Ġrow": 6452,
      "Ġconvers": 6453,
      "Ġcauses": 6454,
      "\\nCharacters": 6455,
      "Ġalchemist": 6456,
      "ects": 6457,
      "Ġfreely": 6458,
      "Ġoperation": 6459,
      "Ġinternet": 6460,
      "Ġut": 6461,
      "inn": 6462,
      "ĠZorathians": 6463,
      "ĠSnackBot": 6464,
      "Ġpuffin": 6465,
      "Ġtests": 6466,
      "Ġsaying": 6467,
      "Ġfurrowed": 6468,
      "Ġsession": 6469,
      "Ġnotebook": 6470,
      "impse": 6471,
      "\\nH": 6472,
      "Ġembers": 6473,
      "Ġconse": 6474,
      "Ġsalvation": 6475,
      "Ġbranches": 6476,
      "alek": 6477,
      "Ġshelves": 6478,
      "ĠSingers": 6479,
      "ĠTomorrow": 6480,
      "clair": 6481,
      "ĠMontclair": 6482,
      "Ġtomb": 6483,
      "Ġmanages": 6484,
      "ĠLabyrinth": 6485,
      "Ġsailor": 6486,
      "hape": 6487,
      "Ġreshape": 6488,
      "Ġstarting": 6489,
      "Ġdescends": 6490,
      "_info": 6491,
      "Ġfootsteps": 6492,
      "Ġrely": 6493,
      "ĠDaren": 6494,
      "Ġconsumes": 6495,
      "spective": 6496,
      "Ġperformed": 6497,
      "ĠCrumb": 6498,
      "Ġintrospective": 6499,
      "Ġmuseum": 6500,
      "ĠForm": 6501,
      "\\nF": 6502,
      "ĠUse": 6503,
      "ctic": 6504,
      "ĠArctic": 6505,
      "Ġmournful": 6506,
      "zing": 6507,
      "Ġwounds": 6508,
      "ugged": 6509,
      "Ġblocked": 6510,
      "jar": 6511,
      "Ġpaid": 6512,
      "Ġsounds": 6513,
      "_fact": 6514,
      "ĠIS": 6515,
      "Ġfellow": 6516,
      "Ġvisible": 6517,
      "Ġhearing": 6518,
      "Ġsmell": 6519,
      "Ġunknow": 6520,
      "ancing": 6521,
      "Ġencounter": 6522,
      "Ġdirec": 6523,
      "Ġreputation": 6524,
      "Ġcybernetic": 6525,
      "Ġlady": 6526,
      "Ġstom": 6527,
      "Ġcheese": 6528,
      "arken": 6529,
      "ĠWhy": 6530,
      "que": 6531,
      "Ġsupport": 6532,
      "Ġspaceship": 6533,
      "Ġfeather": 6534,
      "Ġparts": 6535,
      "Ġsleeping": 6536,
      "Ġcommunication": 6537,
      "itchen": 6538,
      "Ġconclud": 6539,
      "Ġkitchen": 6540,
      "ĠNyxara": 6541,
      "ĠYork": 6542,
      "Ġsolved": 6543,
      "Ġevol": 6544,
      "Ġloud": 6545,
      "Ġavo": 6546,
      "Ġdial": 6547,
      "ĠRest": 6548,
      "ĠDes": 6549,
      "Ġrid": 6550,
      "Ġerases": 6551,
      "ĠMovement": 6552,
      "bast": 6553,
      "Ġminer": 6554,
      "bastian": 6555,
      "Ġanomalies": 6556,
      "ĠClue": 6557,
      "Ġcogs": 6558,
      "Ġatelier": 6559,
      "ĠPuddles": 6560,
      "Ġshared": 6561,
      "Ġdeser": 6562,
      "Ġoverwork": 6563,
      "ĠAsh": 6564,
      "encies": 6565,
      "Ġoverworked": 6566,
      "Not": 6567,
      "Ġdrawer": 6568,
      "Ġcross": 6569,
      "Ġfolded": 6570,
      "mo": 6571,
      "Ġthree": 6572,
      "Ġreprogramming": 6573,
      "Ġmerg": 6574,
      "Ġthresh": 6575,
      "oubt": 6576,
      "Ġthreshold": 6577,
      "yielding": 6578,
      "Ġfavor": 6579,
      "Ġwake": 6580,
      "Ġtrad": 6581,
      "phor": 6582,
      "Ġreflecting": 6583,
      "velo": 6584,
      "Ġchose": 6585,
      "Ġordered": 6586,
      "ĠScientist": 6587,
      "Ġmatter": 6588,
      "inking": 6589,
      "Ġunyielding": 6590,
      "Ġdraft": 6591,
      "arismatic": 6592,
      "Ġdared": 6593,
      "iri": 6594,
      "Ġintrigued": 6595,
      ".\"}<|": 6596,
      "-time": 6597,
      "Ġmaze": 6598,
      "espan": 6599,
      "Ġlifespan": 6600,
      "scape": 6601,
      "Eddie": 6602,
      "Ġbru": 6603,
      "sis": 6604,
      "ĠTalos": 6605,
      "ĠDeadman": 6606,
      "Ġedged": 6607,
      "ĠPe": 6608,
      "ĠRel": 6609,
      "Ġnights": 6610,
      "Ġnovel": 6611,
      "vada": 6612,
      "Ġtrouble": 6613,
      "ĠNevada": 6614,
      "ĠFormer": 6615,
      "Ġdissolving": 6616,
      "Ġpowers": 6617,
      "Ġsize": 6618,
      "Ġflinch": 6619,
      "Ġripple": 6620,
      "Ġmoonlight": 6621,
      "strous": 6622,
      "Ġmonstrous": 6623,
      "Ġrich": 6624,
      "leaner": 6625,
      "ĠWill": 6626,
      "Ġgardener": 6627,
      "Ġlearned": 6628,
      "weaver": 6629,
      "Ġticket": 6630,
      "Ġbed": 6631,
      "Ġfurious": 6632,
      "Ġsells": 6633,
      "Ġsalads": 6634,
      "Ġtea": 6635,
      "Ġdetermination": 6636,
      "Ġwonders": 6637,
      "Ġcave": 6638,
      "Ġneeds": 6639,
      "Ġimmediately": 6640,
      "Ġlarger": 6641,
      "ĠPaperclip": 6642,
      "Ġsend": 6643,
      "Ġdipped": 6644,
      "ĠAva": 6645,
      "Ġshore": 6646,
      "Ġglanced": 6647,
      "Ġdiscrep": 6648,
      "Ġemotional": 6649,
      "hou": 6650,
      "Ġfinger": 6651,
      "Ġuneasy": 6652,
      "yra": 6653,
      "nder": 6654,
      "Ġsched": 6655,
      "Ġdoom": 6656,
      "Ġencoded": 6657,
      "ĠRebirth": 6658,
      "Ġrealization": 6659,
      "ĠTimekeeper": 6660,
      "Ġanalysis": 6661,
      "New": 6662,
      "Ġunset": 6663,
      "Ġunsett": 6664,
      "ĠMer": 6665,
      "Ġexpect": 6666,
      "Ġnoticed": 6667,
      "Ġminor": 6668,
      "Ġpalace": 6669,
      "ĠRandy": 6670,
      "Ġlineage": 6671,
      "Ġawe": 6672,
      "Ġbu": 6673,
      "wave": 6674,
      ">Final": 6675,
      "As": 6676,
      "Ġhover": 6677,
      "ĠTarken": 6678,
      "ĠDreamweaver": 6679,
      "Ġbeat": 6680,
      "Ġactive": 6681,
      "Ġhighest": 6682,
      "ĠHound": 6683,
      "Ġorchestrated": 6684,
      "ĠMerrow": 6685,
      "Ġthreads": 6686,
      "Ġbrain": 6687,
      "Ġcarries": 6688,
      "ĠHalloway": 6689,
      "Ġstomach": 6690,
      "orescent": 6691,
      "Ġfluorescent": 6692,
      "Ġbypass": 6693,
      "ĠFlap": 6694,
      "ĠLame": 6695,
      "Ġrail": 6696,
      "struct": 6697,
      "Ġfrightened": 6698,
      "Ġcontrap": 6699,
      "ĠGardener": 6700,
      "Ġbuilding": 6701,
      "Ġability": 6702,
      "Ġbrighter": 6703,
      "Ġwavered": 6704,
      "Ġwhirred": 6705,
      "Ġslam": 6706,
      "Ġunlikely": 6707,
      "Ġmastered": 6708,
      "Ġfloorboards": 6709,
      "ĠDo": 6710,
      "Ġvengeful": 6711,
      "Ġtradition": 6712,
      "pion": 6713,
      "Ġrus": 6714,
      "Ġsim": 6715,
      "Ġajar": 6716,
      "Ġquant": 6717,
      "Ġplayer": 6718,
      "illing": 6719,
      "Ġremnant": 6720,
      "Ġmat": 6721,
      "ĠBertie": 6722,
      "Ġreaching": 6723,
      "Ġconfident": 6724,
      "ĠRelentless": 6725,
      "Ġmaker": 6726,
      "Ġblank": 6727,
      "Ġhoping": 6728,
      "Ġcollector": 6729,
      "Ġbrush": 6730,
      "Ġhappy": 6731,
      "Ġren": 6732,
      "actic": 6733,
      "ĠKorrin": 6734,
      "Ġshock": 6735,
      "Ġdeck": 6736,
      "Ġpassionate": 6737,
      "Ġhot": 6738,
      "ĠVorak": 6739,
      "ĠBrilliant": 6740,
      "ĠInquisitive": 6741,
      "ump": 6742,
      "ouded": 6743,
      "Ġdispl": 6744,
      "ford": 6745,
      "aff": 6746,
      "Ġensuring": 6747,
      "uing": 6748,
      "Ġsprin": 6749,
      "Ġache": 6750,
      "Ġcelebrates": 6751,
      "Ġsilhou": 6752,
      "Ġmystical": 6753,
      "Ġpassengers": 6754,
      "ĠFrance": 6755,
      "Ġerupts": 6756,
      "Ġwhirring": 6757,
      "ĠRoyal": 6758,
      "Ġprior": 6759,
      "To": 6760,
      "iring": 6761,
      "Pro": 6762,
      "arter": 6763,
      "Ġbag": 6764,
      "ĠMaris": 6765,
      "Ġsuddenly": 6766,
      "Ġgn": 6767,
      "Ġmeticulous": 6768,
      "Ġprocessing": 6769,
      "Ġdamaged": 6770,
      "Ġartificial": 6771,
      "cL": 6772,
      "Ġmiddle": 6773,
      "Ġgray": 6774,
      "ĠRalek": 6775,
      "Ġexposing": 6776,
      "itarian": 6777,
      "ĠAuthor": 6778,
      "husiastic": 6779,
      "ĠAuthoritarian": 6780,
      "ĠMilitary": 6781,
      "Ġdismisses": 6782,
      "olling": 6783,
      "Ġop": 6784,
      "ĠHere": 6785,
      "Ġintention": 6786,
      "Ġgue": 6787,
      "Ġguest": 6788,
      "Ġgasps": 6789,
      "Ġhovering": 6790,
      "Ġlured": 6791,
      "Ġdreamed": 6792,
      "ĠNeo": 6793,
      "onic": 6794,
      "irits": 6795,
      "ĠSpirits": 6796,
      "ievous": 6797,
      "Ġmischievous": 6798,
      "ST": 6799,
      "aging": 6800,
      "Ġworthy": 6801,
      "Ġinput": 6802,
      "ashing": 6803,
      "ĠMine": 6804,
      "Ġhaunt": 6805,
      "Ġstreetwise": 6806,
      "Ġgym": 6807,
      "Ġtamper": 6808,
      "like": 6809,
      "Ġflut": 6810,
      "Ġresponded": 6811,
      "Ġcontact": 6812,
      "Ġremaining": 6813,
      "\\nK": 6814,
      "Ġloved": 6815,
      "Ġgrin": 6816,
      "Ġmistakes": 6817,
      "ike": 6818,
      "'m": 6819,
      "gest": 6820,
      "Ġfaxes": 6821,
      "Ġveins": 6822,
      "Ġkeeps": 6823,
      "Ġsettles": 6824,
      "Ġbled": 6825,
      "Ġarmor": 6826,
      "yees": 6827,
      "eth": 6828,
      "Ġsolar": 6829,
      "Ġpassing": 6830,
      "storm": 6831,
      "Before": 6832,
      "Ġtend": 6833,
      "ette": 6834,
      "Ġlanded": 6835,
      "Ġtraitor": 6836,
      "\\nLira": 6837,
      "Ġbold": 6838,
      "Ġbuzz": 6839,
      "Ġexec": 6840,
      "stroph": 6841,
      "Ġinjury": 6842,
      "ysicist": 6843,
      "strophysicist": 6844,
      "lei": 6845,
      "Ġquantum": 6846,
      "cSo": 6847,
      "ĠCleaner": 6848,
      "ĠDu": 6849,
      "Ġloops": 6850,
      "ĠTessa": 6851,
      "Ġplanting": 6852,
      "kv": 6853,
      "ĠLangford": 6854,
      "writ": 6855,
      "Ġtreacher": 6856,
      "inter": 6857,
      "Ġpersonality": 6858,
      "Ġphrase": 6859,
      "Ġevolve": 6860,
      "ĠGloop": 6861,
      "Ġtang": 6862,
      "Ġess": 6863,
      "Ġdismant": 6864,
      "amiliar": 6865,
      "Ġessence": 6866,
      "ĠSoldier": 6867,
      "Ġcomfort": 6868,
      "Ġintellig": 6869,
      "Ġintelligence": 6870,
      "Ġcoiled": 6871,
      "Ġwitch": 6872,
      "Ġsignature": 6873,
      "Ġpicked": 6874,
      "ĠTupp": 6875,
      "ĠStart": 6876,
      "Ġrippled": 6877,
      "ĠTuppence": 6878,
      "ĠBread": 6879,
      "Ġinstruments": 6880,
      "Ġforming": 6881,
      "avier": 6882,
      "Ġpoetry": 6883,
      "irt": 6884,
      "Ġarrive": 6885,
      "Ġseas": 6886,
      "ĠPut": 6887,
      "Ġexpecting": 6888,
      "Ġengineers": 6889,
      "Ġshouted": 6890,
      "Ġgentle": 6891,
      "-re": 6892,
      "Ġhoard": 6893,
      "Ġcunning": 6894,
      "Ġmethods": 6895,
      "Ġbottle": 6896,
      "Ġdisturbed": 6897,
      "Ġclassified": 6898,
      "Ġfixing": 6899,
      "Ġquest": 6900,
      "ĠGina": 6901,
      "hind": 6902,
      "Ġguarding": 6903,
      "Ġrift": 6904,
      "Ġprototype": 6905,
      "ĠWithered": 6906,
      "bitious": 6907,
      "Ġscreaming": 6908,
      "Ġsuggest": 6909,
      "Ġrewriting": 6910,
      "Ġlikely": 6911,
      "Ġpiano": 6912,
      "Ġowners": 6913,
      "Ġbud": 6914,
      "Ġsharing": 6915,
      "Ġbudget": 6916,
      "Ġcit": 6917,
      "Need": 6918,
      "ĠNora": 6919,
      "âĢĶsomething": 6920,
      "Ġdoors": 6921,
      "Ġdimming": 6922,
      "Ġfootprint": 6923,
      "ĠTarnus": 6924,
      "ĠCult": 6925,
      "Ġaccept": 6926,
      "ĠRaven": 6927,
      "ounted": 6928,
      "Ġscramb": 6929,
      "ĠDiver": 6930,
      "oky": 6931,
      "Ġislands": 6932,
      "Ġdrifter": 6933,
      "goti": 6934,
      "elvet": 6935,
      "ĠVelvet": 6936,
      "wick": 6937,
      "definition": 6938,
      "ĠParis": 6939,
      "Ġsync": 6940,
      "Ġdisrupt": 6941,
      "?ĊĊ": 6942,
      "!\\\"": 6943,
      "Ġcomplet": 6944,
      "ĠWasteland": 6945,
      "ĠDemon": 6946,
      "Ġexisting": 6947,
      "Ġmanipulate": 6948,
      "mm": 6949,
      "NA": 6950,
      "Ġconstantly": 6951,
      "Ġbell": 6952,
      "Ġcalculations": 6953,
      "rows": 6954,
      "Ġwidow": 6955,
      "Ġleaf": 6956,
      "Ġsilhouette": 6957,
      "Ġstopping": 6958,
      "akers": 6959,
      "Ġsmir": 6960,
      "Ġaff": 6961,
      "Ġinner": 6962,
      "Ġpage": 6963,
      "Ġreturning": 6964,
      "agent": 6965,
      "Ġpatr": 6966,
      "Ġbruised": 6967,
      "Ġreasoning": 6968,
      "Ġspilled": 6969,
      "ek": 6970,
      "Ġimper": 6971,
      "Ġcontinues": 6972,
      "Ġsafety": 6973,
      "vil": 6974,
      "Ġworlds": 6975,
      "ĠLorelei": 6976,
      "wh": 6977,
      "Ġverse": 6978,
      "Ġtreacherous": 6979,
      "Ġintertw": 6980,
      "Ġcovered": 6981,
      "Ġintertwined": 6982,
      "Ġfuel": 6983,
      "ĠRynn": 6984,
      "Ġcasing": 6985,
      "ĠMarek": 6986,
      "_recall": 6987,
      "Ġsiphon": 6988,
      "Ġaloud": 6989,
      "olt": 6990,
      "Ġmater": 6991,
      "-finished": 6992,
      "io": 6993,
      "orious": 6994,
      "master": 6995,
      "Ġcrashed": 6996,
      "Ġfaltered": 6997,
      "\\nB": 6998,
      "Ġlocket": 6999,
      "ĠWasn": 7000,
      "Ġdroid": 7001,
      "urora": 7002,
      "omes": 7003,
      "Ġhat": 7004,
      "cles": 7005,
      "quid": 7006,
      "Ġliquid": 7007,
      "Ġfierce": 7008,
      "istic": 7009,
      "Ġscales": 7010,
      "Ġleaders": 7011,
      "ĠJavier": 7012,
      "umbling": 7013,
      "ĠSaved": 7014,
      "Ġwears": 7015,
      "Ġbought": 7016,
      "Ġdownfall": 7017,
      "Ġcircuit": 7018,
      "âĢĶand": 7019,
      "Ġcontrolling": 7020,
      "Oh": 7021,
      "yee": 7022,
      "Ġgripping": 7023,
      "Ġshipment": 7024,
      "dog": 7025,
      "Ġunderdog": 7026,
      "Ġemployee": 7027,
      "gress": 7028,
      "Ġdry": 7029,
      "Ġanvil": 7030,
      "Ġcloset": 7031,
      "ĠRob": 7032,
      "Ġdrifts": 7033,
      "Ġemotionally": 7034,
      "Ġlingering": 7035,
      "Ġrecover": 7036,
      "volent": 7037,
      "Ġreeked": 7038,
      "Ġtimelines": 7039,
      "ĠAND": 7040,
      "Ġtroub": 7041,
      "ĠFisher": 7042,
      "ĠPower": 7043,
      "Ġparaly": 7044,
      "Ġstudy": 7045,
      "Ġparalyzed": 7046,
      "Ġwaver": 7047,
      "Ġtroubled": 7048,
      "symbol": 7049,
      "Ġbrings": 7050,
      "Ġconversation": 7051,
      "Ġexposes": 7052,
      "Ġbased": 7053,
      "ĠBloom": 7054,
      "Ġcapture": 7055,
      "oaked": 7056,
      "zon": 7057,
      "-soaked": 7058,
      "aunting": 7059,
      "Ġwrist": 7060,
      "Ġmaid": 7061,
      "Ġkilling": 7062,
      "Ġpitch": 7063,
      "ĠChron": 7064,
      "Ġarmy": 7065,
      "Ġwinning": 7066,
      "ability": 7067,
      "rist": 7068,
      "Ġtampering": 7069,
      "Ġenter": 7070,
      "Ġgreedy": 7071,
      "ĠWords": 7072,
      "Ġable": 7073,
      "Ġfool": 7074,
      "ĠCaine": 7075,
      "Ġcybor": 7076,
      "obias": 7077,
      "Ġcyborg": 7078,
      "Ġculture": 7079,
      "Spe": 7080,
      "Your": 7081,
      "Jack": 7082,
      "Ġprisoner": 7083,
      "Ġport": 7084,
      "Ġensure": 7085,
      "Ġprotoc": 7086,
      "Ġdail": 7087,
      "Ġnegoti": 7088,
      "ĠFergus": 7089,
      "Ġdaily": 7090,
      "Ġcard": 7091,
      "ĠBlackthorne": 7092,
      "Ġwashed": 7093,
      "Ġflashlight": 7094,
      "Ġswept": 7095,
      "Ġhunts": 7096,
      "ĠZyphor": 7097,
      "_get": 7098,
      "memo": 7099,
      "aping": 7100,
      "pest": 7101,
      "vit": 7102,
      "Ġclinging": 7103,
      "met": 7104,
      "ĠVault": 7105,
      "repo": 7106,
      "shell": 7107,
      "_value": 7108,
      "_stored": 7109,
      "Ġchoices": 7110,
      "Ġbackroom": 7111,
      "Ġunknowingly": 7112,
      "There": 7113,
      "Ġcandle": 7114,
      "ais": 7115,
      "ĠBefore": 7116,
      "Ġrebuilds": 7117,
      "Ġmaterial": 7118,
      "Ġlaid": 7119,
      "stamp": 7120,
      "urning": 7121,
      "Ġcompet": 7122,
      "Ġcluttered": 7123,
      "Ġunless": 7124,
      "Ġindustrialist": 7125,
      "enny": 7126,
      "Ġinnocence": 7127,
      "Ġhunted": 7128,
      "ugging": 7129,
      "rift": 7130,
      "ardened": 7131,
      "-hardened": 7132,
      "Ġdue": 7133,
      "Ġview": 7134,
      "RE": 7135,
      "_stats": 7136,
      "while": 7137,
      "anitor": 7138,
      "Ġjanitor": 7139,
      "ĠFuture": 7140,
      "Ġflute": 7141,
      "Ġcorporation": 7142,
      "Ġtaught": 7143,
      "ites": 7144,
      "Ġhopes": 7145,
      "ĠBar": 7146,
      "Ġdecade": 7147,
      "?Ċ": 7148,
      "pended": 7149,
      "Ġsuspended": 7150,
      "ĠSnatcher": 7151,
      "Ġastr": 7152,
      "Ġrealizing": 7153,
      "Ġsailors": 7154,
      "Ġproduct": 7155,
      "ĠRises": 7156,
      "Ġrevel": 7157,
      "isis": 7158,
      "hor": 7159,
      "Ġclash": 7160,
      "ĠOF": 7161,
      "Ġsan": 7162,
      "Ġsanct": 7163,
      "Ġdeepens": 7164,
      "Ġstrikes": 7165,
      "ĠAlien": 7166,
      "Ġinte": 7167,
      "horvath": 7168,
      "Ġrestart": 7169,
      "Ġheight": 7170,
      "Ġskates": 7171,
      "_fetch": 7172,
      "aelis": 7173,
      "Ġdetailing": 7174,
      "Ġhous": 7175,
      "mere": 7176,
      "veral": 7177,
      "Ġsleepy": 7178,
      "Jax": 7179,
      "Ġforeign": 7180,
      "script": 7181,
      "Ġing": 7182,
      "Ġsneaks": 7183,
      "Ġcoinc": 7184,
      "Ġabandon": 7185,
      "Ġrelive": 7186,
      "ista": 7187,
      "Ġcharged": 7188,
      "Ġfaced": 7189,
      "Ġcovert": 7190,
      "Ġstain": 7191,
      "Ġsatc": 7192,
      "Ġsatchel": 7193,
      "ims": 7194,
      "ilk": 7195,
      "Ġlinger": 7196,
      "ĠFranklin": 7197,
      "Ġfing": 7198,
      "Ġfingert": 7199,
      "Ġitems": 7200,
      "_python": 7201,
      "Ġteaches": 7202,
      "inute": 7203,
      "-minute": 7204,
      "ĠCan": 7205,
      "Ġtired": 7206,
      "Ġvibrated": 7207,
      "was": 7208,
      "ĠBrave": 7209,
      "Ġteaching": 7210,
      "ique": 7211,
      "rontation": 7212,
      "ĠConfrontation": 7213,
      "Ġboardwalk": 7214,
      "Ġemployees": 7215,
      "ĠResult": 7216,
      "Ġverify": 7217,
      "\\nG": 7218,
      "Ġempires": 7219,
      "Ġpossibilities": 7220,
      "Ġmalevolent": 7221,
      "Ġgiving": 7222,
      "\\nS": 7223,
      "Ġslumbering": 7224,
      "Ġpianist": 7225,
      "nes": 7226,
      "Ġcomms": 7227,
      "ĠHaunting": 7228,
      "Ġsoldiers": 7229,
      "ĠVorath": 7230,
      "Ġgrace": 7231,
      "ĠIN": 7232,
      "Ġreads": 7233,
      ".âĢĿĊĊ": 7234,
      "ĠGl": 7235,
      "worm": 7236,
      "ules": 7237,
      "Ġbookworm": 7238,
      "Ġthese": 7239,
      "Ġanimal": 7240,
      "redibly": 7241,
      "Ġresilient": 7242,
      "-Spe": 7243,
      "ĠLeaf": 7244,
      "Ġexplorer": 7245,
      "-Speakers": 7246,
      "AN": 7247,
      "ĠAri": 7248,
      "ĠDurn": 7249,
      "Ġlayer": 7250,
      "zona": 7251,
      "ĠArizona": 7252,
      "-in": 7253,
      "ĠLilith": 7254,
      "ĠForbidden": 7255,
      "Ġstra": 7256,
      "ĠBrother": 7257,
      "Ġupward": 7258,
      "-space": 7259,
      "Ġwinds": 7260,
      "Ġintrod": 7261,
      "Ġheat": 7262,
      "Ġrulers": 7263,
      "Ġinhabit": 7264,
      "ĠChrona": 7265,
      "remony": 7266,
      "ĠMap": 7267,
      "Ġstays": 7268,
      "ĠJenny": 7269,
      "Ġpossibility": 7270,
      "Ġroar": 7271,
      "ĠSebastian": 7272,
      "Ġrelics": 7273,
      "izens": 7274,
      "Ġstartup": 7275,
      "Ġoutsmart": 7276,
      "Ġperforming": 7277,
      "sych": 7278,
      "Ġdisguise": 7279,
      "ĠLab": 7280,
      "Ġrumble": 7281,
      "Ġframed": 7282,
      "Ġexplains": 7283,
      "Ġambition": 7284,
      "ether": 7285,
      "elight": 7286,
      "Ġcups": 7287,
      "cTime": 7288,
      "Ġjournals": 7289,
      "ĠSaloon": 7290,
      "Ġaltern": 7291,
      "ĠFre": 7292,
      "Ġoutl": 7293,
      "Ġsurvives": 7294,
      "Ġchecked": 7295,
      "Ġseeing": 7296,
      "Ġcloak": 7297,
      "Evelyn": 7298,
      "Ġdrowning": 7299,
      "Kor": 7300,
      "Ġsurvivor": 7301,
      "Ġresol": 7302,
      "Ġobsc": 7303,
      "ĠBumblewick": 7304,
      "Ġunsettled": 7305,
      "Ġdil": 7306,
      "Ġworry": 7307,
      "Vor": 7308,
      "ĠBehind": 7309,
      "Ġfood": 7310,
      "ĠSho": 7311,
      "ĠTarek": 7312,
      "Ġparan": 7313,
      "ĠShore": 7314,
      "*,": 7315,
      "ĠAlchemist": 7316,
      "Ġcobbled": 7317,
      "Ġoverw": 7318,
      "Ġreluctantly": 7319,
      "Ġastronom": 7320,
      "ros": 7321,
      "life": 7322,
      "mail": 7323,
      "Ġadrift": 7324,
      "Ġfades": 7325,
      "Ġcandl": 7326,
      "Ġoutrun": 7327,
      "fetch": 7328,
      "_saved": 7329,
      "Ġdebates": 7330,
      "leet": 7331,
      "agedy": 7332,
      "Ġtragedy": 7333,
      "ĠFleet": 7334,
      "owned": 7335,
      "Ġdeepened": 7336,
      "Ġpride": 7337,
      "Ġclearly": 7338,
      "Ġrenowned": 7339,
      "rank": 7340,
      "Ġstarlight": 7341,
      "Ġopt": 7342,
      "Ġseveral": 7343,
      "Ġwindchime": 7344,
      "ĠAlley": 7345,
      "Ġfascination": 7346,
      "Ġmasked": 7347,
      "Ġgeneral": 7348,
      "_ex": 7349,
      "ĠCanvas": 7350,
      "ĠTank": 7351,
      "ĠKey": 7352,
      "Ġoverwhel": 7353,
      "Ġvaults": 7354,
      "ball": 7355,
      "ipes": 7356,
      "Ġangel": 7357,
      "owmere": 7358,
      "Ġweapons": 7359,
      "ĠWillowmere": 7360,
      "ĠInc": 7361,
      "Ġreporter": 7362,
      "_exec": 7363,
      "ĠUpr": 7364,
      "ĠUprising": 7365,
      "ĠTobias": 7366,
      "Ġstranded": 7367,
      "umbled": 7368,
      "Ġbutton": 7369,
      "ĠHole": 7370,
      "new": 7371,
      "Ġstudio": 7372,
      "Ġstormy": 7373,
      "Ġpoor": 7374,
      "Percy": 7375,
      "ĠDress": 7376,
      "ĠProp": 7377,
      "ipment": 7378,
      "Ġequipment": 7379,
      "ĠMe": 7380,
      "Ġobsessive": 7381,
      "Ġcry": 7382,
      "Ġpress": 7383,
      "udged": 7384,
      "Ġeventually": 7385,
      "Ġrout": 7386,
      "ĠDNA": 7387,
      "Ġdelete": 7388,
      "Ġpaperclips": 7389,
      "Ġrepeat": 7390,
      "Ġleaning": 7391,
      "Ġdisappearing": 7392,
      "ude": 7393,
      "Ġalliances": 7394,
      "Ġprogrammed": 7395,
      "Ġunclear": 7396,
      "Ġhelpful": 7397,
      "Ġrecording": 7398,
      "Ġinhabitants": 7399,
      "Ġpoints": 7400,
      "ĠSuit": 7401,
      "Ġfrantic": 7402,
      "ĠSuitcase": 7403,
      "Time": 7404,
      "Ġsigned": 7405,
      "Ġcloaked": 7406,
      "aky": 7407,
      "ĠKnight": 7408,
      "Ġwitnessed": 7409,
      "AL": 7410,
      "ĠSable": 7411,
      "Ġtraces": 7412,
      "Ġclick": 7413,
      "Ġrestless": 7414,
      "Ġreduced": 7415,
      "hool": 7416,
      "Ġjoke": 7417,
      "ĠIntern": 7418,
      "Ġschool": 7419,
      "cP": 7420,
      "ĠHonor": 7421,
      "Ġconc": 7422,
      "Ġplaces": 7423,
      "ĠEveryone": 7424,
      "Ġcritical": 7425,
      "Ġkings": 7426,
      "Ġdescribe": 7427,
      "ilized": 7428,
      "Ġutilized": 7429,
      "Ġdare": 7430,
      "Ġpredic": 7431,
      "Ġavoided": 7432,
      "ĠSorin": 7433,
      "ĠDiv": 7434,
      "Ġcheers": 7435,
      "Ġparanoid": 7436,
      "ĠDivide": 7437,
      "iat": 7438,
      "pted": 7439,
      "Ġinstall": 7440,
      "sychiat": 7441,
      "sychiatrist": 7442,
      "Ġexting": 7443,
      "Ġextingu": 7444,
      "Ġloose": 7445,
      "Ġexploring": 7446,
      "Ġadvice": 7447,
      "Ġprepared": 7448,
      "Ġseason": 7449,
      "Ġaged": 7450,
      "awed": 7451,
      "Ġgleamed": 7452,
      "ĠFestival": 7453,
      "aul": 7454,
      "evit": 7455,
      "Ġinevit": 7456,
      "Ġtugging": 7457,
      "Ġaud": 7458,
      "Ġmechanics": 7459,
      "Ġgoes": 7460,
      "iting": 7461,
      "Ġsauce": 7462,
      "Ġdarting": 7463,
      "Ġbend": 7464,
      "ĠNowhere": 7465,
      "ĠDoubt": 7466,
      "ĠPar": 7467,
      "Ġclimbed": 7468,
      "Ġembr": 7469,
      "Ġworker": 7470,
      "Ġoutlast": 7471,
      "-demon": 7472,
      "Ġobsession": 7473,
      "Ġceremony": 7474,
      "Ġhangs": 7475,
      "Ġsacrificing": 7476,
      "Ġblackmail": 7477,
      "Ġallows": 7478,
      "Ġexiled": 7479,
      "Ġastronomer": 7480,
      "nippet": 7481,
      "liance": 7482,
      "Ġlaced": 7483,
      "omaly": 7484,
      "ĠAnomaly": 7485,
      "Ġmasterpiece": 7486,
      "Ġclient": 7487,
      "izing": 7488,
      "Ġdestined": 7489,
      "ĠGang": 7490,
      "ĠOver": 7491,
      "Ġthreats": 7492,
      "ĠLeg": 7493,
      "Ġspecies": 7494,
      "Ġgreenhouse": 7495,
      "romise": 7496,
      "Ġjaded": 7497,
      "Ġrocket": 7498,
      "Ġstrain": 7499,
      "Ġpier": 7500,
      "Ġagent": 7501,
      "Ġevil": 7502,
      "Ġwouldn": 7503,
      "ĠManager": 7504,
      "Ġcoincidence": 7505,
      "Get": 7506,
      "Ġcatches": 7507,
      "ĠBody": 7508,
      "ĠMind": 7509,
      "Ġtitans": 7510,
      "faces": 7511,
      "Ġgamb": 7512,
      "ĠMiner": 7513,
      "-sh": 7514,
      "Ġmuttering": 7515,
      "AV": 7516,
      "Ġtyrannical": 7517,
      "Ġiv": 7518,
      "Ġprogress": 7519,
      "Ġtitan": 7520,
      "Ġivy": 7521,
      "Ġgestured": 7522,
      "ĠFrom": 7523,
      "Ġcandlelight": 7524,
      "Ġson": 7525,
      "itan": 7526,
      "ĠOriginal": 7527,
      "umph": 7528,
      "bris": 7529,
      "Ġpossible": 7530,
      "ĠSally": 7531,
      "ference": 7532,
      "Ġeff": 7533,
      "Ġlaughing": 7534,
      "mate": 7535,
      "isp": 7536,
      "Ġpreserving": 7537,
      "UT": 7538,
      "Ġpored": 7539,
      "Ġcovering": 7540,
      "\\nThat": 7541,
      "Ġwhims": 7542,
      "Ġwhimsical": 7543,
      "Ġsaves": 7544,
      "Ġscrawled": 7545,
      "ĠMaria": 7546,
      "Ġseize": 7547,
      "many": 7548,
      "blest": 7549,
      "Ġpuzzles": 7550,
      "Ġcobblest": 7551,
      "Ġdirectory": 7552,
      "aunch": 7553,
      "Ġbowl": 7554,
      "iling": 7555,
      "ĠMaelis": 7556,
      "-land": 7557,
      "Ġbi": 7558,
      "ĠKhorvath": 7559,
      "uitive": 7560,
      "Ġmarvel": 7561,
      "Ġannual": 7562,
      "Ġconclude": 7563,
      "Ġbuzzed": 7564,
      "idel": 7565,
      "Ġwield": 7566,
      "-g": 7567,
      "Ġglinting": 7568,
      "Ġreckoning": 7569,
      "ĠEscape": 7570,
      "Ġgroan": 7571,
      "Ġdevelo": 7572,
      "Ġfluct": 7573,
      "ĠClouds": 7574,
      "ĠGods": 7575,
      "Ġlaunch": 7576,
      "ĠGun": 7577,
      "Ġcreates": 7578,
      "Ġglob": 7579,
      "ĠMel": 7580,
      "amous": 7581,
      "Ġglobal": 7582,
      "ĠNotes": 7583,
      "ĠCrisis": 7584,
      "assembles": 7585,
      "Ġreplace": 7586,
      "Ġdilation": 7587,
      ",'": 7588,
      "Ġbending": 7589,
      "ĠMorvath": 7590,
      "Ġmonarchy": 7591,
      "Ġcitizens": 7592,
      "Ġtreat": 7593,
      "Ġcloses": 7594,
      "Ġdocstring": 7595,
      "Ġlooming": 7596,
      "quer": 7597,
      "Ġdisplay": 7598,
      "ĠCirc": 7599,
      "Ġsecure": 7600,
      "ĠCircuit": 7601,
      "Ġsidel": 7602,
      "ĠJune": 7603,
      "Ġsleeps": 7604,
      "cF": 7605,
      "ently": 7606,
      "ĠMire": 7607,
      "ĠCluster": 7608,
      "Ġexperi": 7609,
      "Ġtightening": 7610,
      "ĠLegacy": 7611,
      "Ġhars": 7612,
      "Ġengines": 7613,
      "Ġharsh": 7614,
      "ĠTim": 7615,
      "Ġtrapping": 7616,
      "Ġartifacts": 7617,
      "count": 7618,
      "_time": 7619,
      "ĠWalls": 7620,
      "ĠRedemption": 7621,
      "cM": 7622,
      "Ġshares": 7623,
      "Cluck": 7624,
      "bout": 7625,
      "Ġlevel": 7626,
      "Ġflicked": 7627,
      "Ġdocuments": 7628,
      "Ġdebris": 7629,
      "grep": 7630,
      "Ġobscured": 7631,
      "ĠBack": 7632,
      "bye": 7633,
      "Ġbetrayed": 7634,
      "Ġcam": 7635,
      "Ġwiped": 7636,
      "ĠOrder": 7637,
      "atest": 7638,
      "Ġgreatest": 7639,
      "Ġlocks": 7640,
      "Ġunpredictable": 7641,
      "Ġallerg": 7642,
      "Ġallergic": 7643,
      "ĠShow": 7644,
      "Ġsoy": 7645,
      "Ġafterlife": 7646,
      "ĠMaybe": 7647,
      "_many": 7648,
      "Ġshard": 7649,
      "One": 7650,
      "Ġdaring": 7651,
      "Ġtrusted": 7652,
      "cep": 7653,
      "Ġentered": 7654,
      "Ġforms": 7655,
      "ĠBridgekeeper": 7656,
      "ĠFree": 7657,
      "ĠStone": 7658,
      "Ġtraining": 7659,
      "Can": 7660,
      "Ġbark": 7661,
      "Ġgreed": 7662,
      "Ġgambling": 7663,
      "ĠOverly": 7664,
      "Ġdrinks": 7665,
      "Ġcapable": 7666,
      "Ġexpired": 7667,
      "ĠLoyal": 7668,
      "Ġhaze": 7669,
      "zil": 7670,
      "razil": 7671,
      "Ġswift": 7672,
      "lim": 7673,
      "Ġexpert": 7674,
      "Ġsurre": 7675,
      "limit": 7676,
      "ĠDance": 7677,
      "-tech": 7678,
      "rib": 7679,
      "Ġwearer": 7680,
      "ĠDark": 7681,
      "Ġinterference": 7682,
      "Ġemitting": 7683,
      "wen": 7684,
      "ler": 7685,
      "Ġdict": 7686,
      "Ġrage": 7687,
      "ĠRivalry": 7688,
      "Ġiniti": 7689,
      "'Kor": 7690,
      "Ġrode": 7691,
      "Ġoverrun": 7692,
      "erer": 7693,
      "quences": 7694,
      "Ġhapp": 7695,
      "Ġexecuted": 7696,
      "Ġtomes": 7697,
      "Ġraged": 7698,
      "Ġsinging": 7699,
      "ĠWinds": 7700,
      "Ġnaval": 7701,
      "Ġrefuse": 7702,
      "Ġdigs": 7703,
      "Ġchampion": 7704,
      "\\nZ": 7705,
      "Ġsav": 7706,
      "ĠBrazil": 7707,
      "ĠShowdown": 7708,
      "ĠSm": 7709,
      "Ġroots": 7710,
      "arewell": 7711,
      "Ġoccurren": 7712,
      "Ġfed": 7713,
      "Ġgates": 7714,
      "Ġbloodline": 7715,
      "_code": 7716,
      "ĠHorizon": 7717,
      "ĠInt": 7718,
      "aiting": 7719,
      "Ġbene": 7720,
      "Ġclone": 7721,
      "Ġencour": 7722,
      "Ġchoosing": 7723,
      "Ġwanderer": 7724,
      "Ġoverwhelm": 7725,
      "\\nEli": 7726,
      "Ġpressure": 7727,
      "Ġclearer": 7728,
      "Ġsens": 7729,
      "Ġfled": 7730,
      "Ġfills": 7731,
      "Ġsacred": 7732,
      "ivid": 7733,
      "ĠCloud": 7734,
      "Ġthreaten": 7735,
      "-sized": 7736,
      "ĠGift": 7737,
      "aper": 7738,
      "abelle": 7739,
      "Ġinstant": 7740,
      "ĠBreak": 7741,
      "Ġtranslate": 7742,
      ".]<|": 7743,
      "Ġobserv": 7744,
      "Ġsmirk": 7745,
      "Ġcage": 7746,
      "Ġbench": 7747,
      "Ġpolicy": 7748,
      "ners": 7749,
      "ĠBoard": 7750,
      "ĠBoardwalk": 7751,
      "gl": 7752,
      "ĠPark": 7753,
      "aisy": 7754,
      "exist": 7755,
      "Ġcoexist": 7756,
      "Ġresonance": 7757,
      "ĠAlliance": 7758,
      "\\nJack": 7759,
      "bids": 7760,
      "dated": 7761,
      "Ġlower": 7762,
      "Ġforbids": 7763,
      "Ġmyth": 7764,
      "Ġmanipulates": 7765,
      "uary": 7766,
      "Ġance": 7767,
      "Ġweary": 7768,
      "Ġsanctuary": 7769,
      "Ġoccurrences": 7770,
      "ĠOwl": 7771,
      "Ġremembering": 7772,
      "Ġconscience": 7773,
      "Ġinjured": 7774,
      "Ġwits": 7775,
      "Ġsparks": 7776,
      "Ġfacts": 7777,
      "ĠTheory": 7778,
      "Ġkm": 7779,
      "Ġoverview": 7780,
      "Ġfrees": 7781,
      "Ġhealer": 7782,
      "Ġtur": 7783,
      "Ġhandwrit": 7784,
      "âĢĶthey": 7785,
      "Process": 7786,
      "enry": 7787,
      "Ġresilience": 7788,
      "try": 7789,
      "Ġhar": 7790,
      "Ġsolution": 7791,
      "bser": 7792,
      "Ġcalms": 7793,
      "Ġtravels": 7794,
      "Ġsweat": 7795,
      "ĠThalric": 7796,
      "Grep": 7797,
      "pson": 7798,
      "Ġliteral": 7799,
      "ĠThompson": 7800,
      "Echoes": 7801,
      "-U": 7802,
      "Ġfamous": 7803,
      "Ġstitched": 7804,
      "oodbye": 7805,
      "Ġring": 7806,
      "ĠGrange": 7807,
      "ĠMarge": 7808,
      "Ġassault": 7809,
      "Ġelect": 7810,
      "Ġminutes": 7811,
      "Ġdiscovering": 7812,
      "Ġcomposing": 7813,
      "ĠTarnis": 7814,
      "ĠExiled": 7815,
      "gment": 7816,
      "Ġsandboxed": 7817,
      "mind": 7818,
      "Ġlur": 7819,
      "ĠTrees": 7820,
      "ĠIsabelle": 7821,
      "ced": 7822,
      "ĠJoker": 7823,
      "Ġdoubts": 7824,
      "Ġnavigates": 7825,
      "ĠTech": 7826,
      "Ġsmaller": 7827,
      "Ġfaction": 7828,
      "ĠWarlord": 7829,
      "uces": 7830,
      "Ġgloom": 7831,
      "Ġlegends": 7832,
      "ĠMarcel": 7833,
      "sif": 7834,
      "ĠFirewall": 7835,
      "cSome": 7836,
      "ĠKaela": 7837,
      "-Up": 7838,
      "elcome": 7839,
      "ĠObser": 7840,
      "Ġfluctu": 7841,
      "ĠObservant": 7842,
      "Ġaccep": 7843,
      "Ġuniforms": 7844,
      "Ġaccepting": 7845,
      "Ġcount": 7846,
      "Ġdrones": 7847,
      "Ġmutated": 7848,
      "Ġrevelation": 7849,
      "ĠMelody": 7850,
      "Ġfriends": 7851,
      "ĠJourney": 7852,
      "-r": 7853,
      "Ġsket": 7854,
      "ĠTension": 7855,
      "Ġcharismatic": 7856,
      "Ġrather": 7857,
      "Ġloaves": 7858,
      "ĠTeapot": 7859,
      "Ġmastermind": 7860,
      "Ġboat": 7861,
      "IS": 7862,
      "Ġlam": 7863,
      "Ġnobles": 7864,
      "Ġlawman": 7865,
      "Ġdomin": 7866,
      "ams": 7867,
      "illage": 7868,
      "ĠVillage": 7869,
      "ĠBoat": 7870,
      "Ġdoll": 7871,
      "Ġrepeats": 7872,
      "ĠEuropean": 7873,
      "Ġil": 7874,
      "Ġshaky": 7875,
      "\\nO": 7876,
      "ĠBy": 7877,
      "âĢĶthis": 7878,
      "Ġadmitted": 7879,
      "ĠExpan": 7880,
      "ĠExpanse": 7881,
      "onym": 7882,
      "Ġanonym": 7883,
      "Ġsearches": 7884,
      "Ġanonymous": 7885,
      "Ġbore": 7886,
      "only": 7887,
      "Ġvibration": 7888,
      "Ġclimactic": 7889,
      "ils": 7890,
      "ĠJournal": 7891,
      "Ġfarewell": 7892,
      "Ġcrops": 7893,
      "foot": 7894,
      "Ġpracticed": 7895,
      "Ġvivid": 7896,
      "ucent": 7897,
      "Ġstained": 7898,
      "formed": 7899,
      "legal": 7900,
      "Ġillegal": 7901,
      "Ġdro": 7902,
      "vern": 7903,
      "ĠPike": 7904,
      "\\nAt": 7905,
      "Ġcavern": 7906,
      "ĠArchitect": 7907,
      "ĠDuring": 7908,
      "Ġoutdated": 7909,
      "ĠMarie": 7910,
      "Ġsugar": 7911,
      "ĠHarmony": 7912,
      "Ext": 7913,
      "Ġskill": 7914,
      "Extend": 7915,
      "Ġducked": 7916,
      "Ġunity": 7917,
      "Ġadv": 7918,
      "Ġenforces": 7919,
      "ĠCost": 7920,
      "Ġnegl": 7921,
      "In": 7922,
      "ĠFather": 7923,
      "Ġtexts": 7924,
      "ĠReve": 7925,
      "Ġfaked": 7926,
      "Ġmultiple": 7927,
      "Ġforges": 7928,
      "ĠCond": 7929,
      "Ġscribe": 7930,
      "ĠConductor": 7931,
      "Ġflees": 7932,
      "ĠScream": 7933,
      "Ġbust": 7934,
      "Ġmonit": 7935,
      "\\nMr": 7936,
      "Ġauthority": 7937,
      "min": 7938,
      "ux": 7939,
      "vi": 7940,
      "Ġmort": 7941,
      "Ġawake": 7942,
      "Ġcounts": 7943,
      "Ġsignals": 7944,
      "itement": 7945,
      "Ġdepends": 7946,
      "Ġexcitement": 7947,
      "ĠGoodbye": 7948,
      "attle": 7949,
      "Ġpatient": 7950,
      "Ġreigniting": 7951,
      "Ġinterest": 7952,
      "ĠAurora": 7953,
      "Ġcrowned": 7954,
      "Ġquickening": 7955,
      "Ġantique": 7956,
      "Ġexperiences": 7957,
      "izer": 7958,
      "orched": 7959,
      "ĠHenry": 7960,
      "Ġscorched": 7961,
      "Ġlegs": 7962,
      "Ġobservatory": 7963,
      "apel": 7964,
      "Ġchapel": 7965,
      "ichard": 7966,
      "resent": 7967,
      "ĠST": 7968,
      "lison": 7969,
      "ĠEllison": 7970,
      "strel": 7971,
      "ĠBaker": 7972,
      "Ġoutlaws": 7973,
      "Ġminstrel": 7974,
      "'.ĊĊ": 7975,
      "uis": 7976,
      "Ġfocus": 7977,
      "Nira": 7978,
      "Ġrumored": 7979,
      "),": 7980,
      "Kaelen": 7981,
      "Ġgetting": 7982,
      "Ġswirled": 7983,
      "olicy": 7984,
      "ĠJar": 7985,
      "ĠPolicy": 7986,
      "\\nIns": 7987,
      "Ġsitting": 7988,
      "Ġconfronted": 7989,
      "Ġsunken": 7990,
      "Ġflew": 7991,
      "Ġbird": 7992,
      "istorian": 7993,
      "ĠHistorian": 7994,
      "Ġbanana": 7995,
      "vitation": 7996,
      "ĠInvitation": 7997,
      "ago": 7998,
      "Ġhiss": 7999,
      "Ġcalculated": 8000,
      "Ġcriminal": 8001,
      "lier": 8002,
      "Ġkick": 8003,
      "Ġaftermath": 8004,
      "ĠKaelor": 8005,
      "Ġcontraptions": 8006,
      "Ġmentioned": 8007,
      "hift": 8008,
      "Ġill": 8009,
      "Ġmakeshift": 8010,
      "Ġsmog": 8011,
      "Ġanswering": 8012,
      "Ġexploded": 8013,
      "Ġcautiously": 8014,
      "Ġbottom": 8015,
      "Ġstands": 8016,
      "Ġlimbs": 8017,
      "anging": 8018,
      "Ġperforms": 8019,
      "Ġexchanged": 8020,
      "ĠBreaks": 8021,
      "Clara": 8022,
      "ĠDaisy": 8023,
      "Ġrevol": 8024,
      "Ġunw": 8025,
      "ĠMrs": 8026,
      "Ġancest": 8027,
      "Ġbid": 8028,
      "Ġwandering": 8029,
      "ĠBoy": 8030,
      "ologist": 8031,
      "Ġtangle": 8032,
      "Ġless": 8033,
      "Ġwrath": 8034,
      "Ġreported": 8035,
      "Ġreception": 8036,
      "Ġje": 8037,
      "ĠElianor": 8038,
      "Ġuneven": 8039,
      "Ġcycles": 8040,
      "Ġsidearm": 8041,
      "ĠChorus": 8042,
      "Ġconstell": 8043,
      "ancies": 8044,
      "Ġswallowing": 8045,
      "Ġtampered": 8046,
      "Ġencrypted": 8047,
      "Ġdiscrepancies": 8048,
      "ially": 8049,
      "Ġmonument": 8050,
      "yer": 8051,
      "Ġcounterp": 8052,
      "Ġfit": 8053,
      "Ġproud": 8054,
      "ĠMo": 8055,
      "Ġurges": 8056,
      "lian": 8057,
      "intered": 8058,
      "Ġtasting": 8059,
      "togr": 8060,
      "apher": 8061,
      "Ġchoked": 8062,
      "ĠBlueprint": 8063,
      "tographer": 8064,
      "Ġgrim": 8065,
      "Ġtor": 8066,
      "Ġflows": 8067,
      "Ġdancing": 8068,
      "lease": 8069,
      "Ġunfamiliar": 8070,
      "Ġshroud": 8071,
      "BI": 8072,
      "Ġdragged": 8073,
      "Ġrevolutionaries": 8074,
      "Ġunexp": 8075,
      "Ġtranslucent": 8076,
      "eze": 8077,
      "Ġbone": 8078,
      "Ġbreeze": 8079,
      "ĠDeb": 8080,
      "-de": 8081,
      "Ġsubway": 8082,
      "Ġshattering": 8083,
      "iff": 8084,
      "ngel": 8085,
      "Ġshapes": 8086,
      "Ġele": 8087,
      "ĠPuff": 8088,
      "ĠRefl": 8089,
      "Ġtends": 8090,
      "Ġlot": 8091,
      "Chain": 8092,
      "anwhile": 8093,
      "Ġden": 8094,
      "Ġcrashing": 8095,
      "ĠMeanwhile": 8096,
      "ivist": 8097,
      "Ġbustling": 8098,
      "ĠReflection": 8099,
      "Ġchurned": 8100,
      "wner": 8101,
      "ĠOwner": 8102,
      "Ġscreams": 8103,
      "Ġrelative": 8104,
      "grown": 8105,
      "Ġarea": 8106,
      "Ġstead": 8107,
      "ny": 8108,
      "ĠGamble": 8109,
      "ĠAstrophysicist": 8110,
      "ince": 8111,
      "Ġtearing": 8112,
      "Ġsmells": 8113,
      "Ġunus": 8114,
      "Ġrif": 8115,
      "Ġdarkens": 8116,
      "Ġoverhears": 8117,
      "Lit": 8118,
      "Ġdials": 8119,
      "Or": 8120,
      "Ġincons": 8121,
      "Ġmatched": 8122,
      "Ġspires": 8123,
      "Ġnoodles": 8124,
      "Ġsickly": 8125,
      "fire": 8126,
      "ĠAngel": 8127,
      "Ġvials": 8128,
      "ĠLos": 8129,
      "ĠAngeles": 8130,
      "Ġflowing": 8131,
      "Ġforgive": 8132,
      "Ġperfectionist": 8133,
      "AT": 8134,
      "Ġdiagr": 8135,
      "Ġhunt": 8136,
      "Ġflipped": 8137,
      "etired": 8138,
      "ĠRetired": 8139,
      "Ġskyline": 8140,
      "Ġwhite": 8141,
      "ĠNexus": 8142,
      "Ġsealing": 8143,
      "Ġdismissed": 8144,
      "itching": 8145,
      "ioc": 8146,
      "Ġfilling": 8147,
      "Ġtrade": 8148,
      "Ġbakes": 8149,
      "Ġozone": 8150,
      "istress": 8151,
      "pers": 8152,
      "Ġshone": 8153,
      "Ġnarrowing": 8154,
      "Literal": 8155,
      "Ġjoints": 8156,
      "oved": 8157,
      "Ġwast": 8158,
      "Ġwhiskey": 8159,
      "Ġfollowers": 8160,
      "Ġuncertainty": 8161,
      "Ġpist": 8162,
      "Ġarr": 8163,
      "rence": 8164,
      "Ġarchivist": 8165,
      "Ġsoil": 8166,
      "Ġdeceive": 8167,
      "Ġshaken": 8168,
      "Ġdisbel": 8169,
      "Ġdisbelief": 8170,
      "\\nEl": 8171,
      "Ġneuro": 8172,
      "ĠFBI": 8173,
      "Ġsnapped": 8174,
      "Nova": 8175,
      "Ġdecl": 8176,
      "Ġdevour": 8177,
      "Ġunmistakable": 8178,
      "Text": 8179,
      "ĠRichard": 8180,
      "Ġfruit": 8181,
      "Ġinvestigating": 8182
    },
    "merges": [
      [
        "h",
        "e"
      ],
      [
        "Ġ",
        "t"
      ],
      [
        "i",
        "n"
      ],
      [
        "Ġ",
        "a"
      ],
      [
        "r",
        "e"
      ],
      [
        "s",
        "t"
      ],
      [
        "Ġt",
        "he"
      ],
      [
        "e",
        "r"
      ],
      [
        "e",
        "n"
      ],
      [
        "o",
        "n"
      ],
      [
        "Ġ",
        "w"
      ],
      [
        "Ġ",
        "s"
      ],
      [
        "a",
        "r"
      ],
      [
        "Ġ",
        "c"
      ],
      [
        "i",
        "m"
      ],
      [
        "Ġ",
        "b"
      ],
      [
        "Ġ",
        "f"
      ],
      [
        "i",
        "t"
      ],
      [
        "in",
        "g"
      ],
      [
        "a",
        "n"
      ],
      [
        "a",
        "l"
      ],
      [
        "a",
        "t"
      ],
      [
        "e",
        "d"
      ],
      [
        "o",
        "r"
      ],
      [
        "\"",
        ":"
      ],
      [
        "o",
        "l"
      ],
      [
        "i",
        "s"
      ],
      [
        "<",
        "|"
      ],
      [
        "|",
        ">"
      ],
      [
        "Ġ",
        "h"
      ],
      [
        "Ġ",
        "o"
      ],
      [
        "e",
        "s"
      ],
      [
        "Ġ",
        "\""
      ],
      [
        "Ġ",
        "m"
      ],
      [
        "Ġt",
        "o"
      ],
      [
        "T",
        "he"
      ],
      [
        "o",
        "u"
      ],
      [
        "t",
        "o"
      ],
      [
        "a",
        "s"
      ],
      [
        "Ġ",
        "d"
      ],
      [
        "n",
        "d"
      ],
      [
        "to",
        "ol"
      ],
      [
        "Ġo",
        "f"
      ],
      [
        "Ġ",
        "The"
      ],
      [
        "Ġ",
        "l"
      ],
      [
        "Ġ",
        "he"
      ],
      [
        "Ġ",
        "p"
      ],
      [
        "i",
        "l"
      ],
      [
        "ar",
        "t"
      ],
      [
        "Ġ",
        "in"
      ],
      [
        "i",
        "on"
      ],
      [
        "r",
        "o"
      ],
      [
        "en",
        "d"
      ],
      [
        "Ġ",
        "n"
      ],
      [
        "Ġa",
        "nd"
      ],
      [
        "m",
        "e"
      ],
      [
        "a",
        "d"
      ],
      [
        "en",
        "t"
      ],
      [
        "{",
        "\""
      ],
      [
        "i",
        "c"
      ],
      [
        "s",
        "e"
      ],
      [
        "u",
        "t"
      ],
      [
        "al",
        "l"
      ],
      [
        "st",
        "art"
      ],
      [
        "a",
        "c"
      ],
      [
        "_",
        "end"
      ],
      [
        "_",
        "start"
      ],
      [
        "Ġt",
        "h"
      ],
      [
        "|>",
        "Ċ"
      ],
      [
        "Ġ",
        "re"
      ],
      [
        ">",
        "Ċ"
      ],
      [
        "i",
        "st"
      ],
      [
        "Ġ",
        "st"
      ],
      [
        "<",
        "/"
      ],
      [
        ".",
        "Ċ"
      ],
      [
        "t",
        "er"
      ],
      [
        "it",
        "h"
      ],
      [
        "re",
        "s"
      ],
      [
        "\"",
        ","
      ],
      [
        "e",
        "c"
      ],
      [
        "o",
        "w"
      ],
      [
        "u",
        "s"
      ],
      [
        "e",
        "t"
      ],
      [
        "u",
        "n"
      ],
      [
        "a",
        "me"
      ],
      [
        "i",
        "d"
      ],
      [
        "v",
        "e"
      ],
      [
        "_",
        "c"
      ],
      [
        "Ġ",
        "g"
      ],
      [
        "Ġw",
        "ith"
      ],
      [
        "Ġ",
        "A"
      ],
      [
        "Ġ",
        "S"
      ],
      [
        "_c",
        "all"
      ],
      [
        "o",
        "t"
      ],
      [
        "i",
        "r"
      ],
      [
        "Ġ",
        "it"
      ],
      [
        "e",
        "l"
      ],
      [
        "a",
        "p"
      ],
      [
        "an",
        "t"
      ],
      [
        "Ġ",
        "is"
      ],
      [
        "h",
        "o"
      ],
      [
        "<",
        "tool"
      ],
      [
        "\\",
        "u"
      ],
      [
        "Ġhe",
        "r"
      ],
      [
        "p",
        "on"
      ],
      [
        ">",
        "<|"
      ],
      [
        "t",
        "ion"
      ],
      [
        "i",
        "g"
      ],
      [
        "Ġb",
        "e"
      ],
      [
        "pon",
        "se"
      ],
      [
        "_",
        "res"
      ],
      [
        "_res",
        "ponse"
      ],
      [
        "u",
        "m"
      ],
      [
        "'",
        "s"
      ],
      [
        "u",
        "r"
      ],
      [
        "t",
        "h"
      ],
      [
        "Ġ",
        "e"
      ],
      [
        "as",
        "s"
      ],
      [
        "Ġ",
        "{\""
      ],
      [
        "v",
        "er"
      ],
      [
        "}",
        "}"
      ],
      [
        "Ġ",
        "\\"
      ],
      [
        "Ġw",
        "as"
      ],
      [
        "Ġ",
        "E"
      ],
      [
        "r",
        "i"
      ],
      [
        "l",
        "e"
      ],
      [
        "Ġf",
        "or"
      ],
      [
        "us",
        "er"
      ],
      [
        "a",
        "g"
      ],
      [
        "ist",
        "ant"
      ],
      [
        "m",
        "d"
      ],
      [
        ".",
        "md"
      ],
      [
        "p",
        "e"
      ],
      [
        "ass",
        "istant"
      ],
      [
        "Ġc",
        "h"
      ],
      [
        "o",
        "m"
      ],
      [
        "Ġ",
        "on"
      ],
      [
        "c",
        "e"
      ],
      [
        "Ġ",
        "H"
      ],
      [
        "n",
        "ame"
      ],
      [
        "Ġth",
        "at"
      ],
      [
        "Ġ",
        "v"
      ],
      [
        "re",
        "d"
      ],
      [
        "Ġb",
        "ut"
      ],
      [
        "Ġh",
        "is"
      ],
      [
        "l",
        "o"
      ],
      [
        "Ġh",
        "ad"
      ],
      [
        "c",
        "h"
      ],
      [
        "\"",
        "}}"
      ],
      [
        "h",
        "t"
      ],
      [
        "u",
        "l"
      ],
      [
        "ent",
        "s"
      ],
      [
        "un",
        "c"
      ],
      [
        "Ġ",
        "L"
      ],
      [
        "Ġ",
        "C"
      ],
      [
        "Ġ",
        "M"
      ],
      [
        "Ġb",
        "y"
      ],
      [
        "ar",
        "g"
      ],
      [
        "l",
        "d"
      ],
      [
        "a",
        "y"
      ],
      [
        "in",
        "e"
      ],
      [
        "l",
        "y"
      ],
      [
        "um",
        "ents"
      ],
      [
        "\":",
        "\""
      ],
      [
        "Ġ",
        "I"
      ],
      [
        "at",
        "h"
      ],
      [
        "o",
        "re"
      ],
      [
        "an",
        "d"
      ],
      [
        "Ġs",
        "he"
      ],
      [
        "Ġs",
        "h"
      ],
      [
        "Ġn",
        "ot"
      ],
      [
        "a",
        "st"
      ],
      [
        "in",
        "d"
      ],
      [
        "in",
        "k"
      ],
      [
        "Ġt",
        "r"
      ],
      [
        "ig",
        "ht"
      ],
      [
        "c",
        "k"
      ],
      [
        "unc",
        "tion"
      ],
      [
        "k",
        "e"
      ],
      [
        "t",
        "y"
      ],
      [
        "Ġd",
        "e"
      ],
      [
        "ap",
        "ter"
      ],
      [
        "arg",
        "uments"
      ],
      [
        "a",
        "in"
      ],
      [
        "l",
        "i"
      ],
      [
        "Ġ",
        "r"
      ],
      [
        "ic",
        "e"
      ],
      [
        "u",
        "st"
      ],
      [
        "C",
        "h"
      ],
      [
        "ty",
        "pe"
      ],
      [
        "q",
        "u"
      ],
      [
        "Ġ",
        "T"
      ],
      [
        "Ġw",
        "or"
      ],
      [
        "\\",
        "n"
      ],
      [
        "i",
        "f"
      ],
      [
        "a",
        "m"
      ],
      [
        "w",
        "n"
      ],
      [
        "e",
        "p"
      ],
      [
        "â",
        "Ģ"
      ],
      [
        "e",
        "m"
      ],
      [
        "Ġa",
        "n"
      ],
      [
        "th",
        "ink"
      ],
      [
        "Ġw",
        "ho"
      ],
      [
        "Ġn",
        "e"
      ],
      [
        "Ġa",
        "s"
      ],
      [
        "ĠH",
        "e"
      ],
      [
        "ĠS",
        "he"
      ],
      [
        "\"}}",
        "Ċ"
      ],
      [
        "il",
        "l"
      ],
      [
        "ec",
        "t"
      ],
      [
        "Ġc",
        "on"
      ],
      [
        "Ġl",
        "o"
      ],
      [
        "a",
        "k"
      ],
      [
        "o",
        "d"
      ],
      [
        "Ġs",
        "a"
      ],
      [
        "il",
        "e"
      ],
      [
        ".",
        "\\"
      ],
      [
        "Ġs",
        "e"
      ],
      [
        "Ġ",
        "k"
      ],
      [
        "o",
        "me"
      ],
      [
        "p",
        "er"
      ],
      [
        "he",
        "r"
      ],
      [
        "es",
        "s"
      ],
      [
        ".",
        "<|"
      ],
      [
        "Ġw",
        "e"
      ],
      [
        "es",
        "c"
      ],
      [
        "Ġw",
        "h"
      ],
      [
        "Ġ",
        "B"
      ],
      [
        "im",
        "e"
      ],
      [
        "ri",
        "p"
      ],
      [
        "Ġw",
        "he"
      ],
      [
        "an",
        "g"
      ],
      [
        "Ġ",
        "W"
      ],
      [
        "Ġ",
        "y"
      ],
      [
        "ac",
        "k"
      ],
      [
        "ro",
        "m"
      ],
      [
        "Ch",
        "apter"
      ],
      [
        "ou",
        "t"
      ],
      [
        "at",
        "ion"
      ],
      [
        "Ġ",
        "R"
      ],
      [
        "at",
        "e"
      ],
      [
        "f",
        "unction"
      ],
      [
        "it",
        "y"
      ],
      [
        "ou",
        "nd"
      ],
      [
        "ro",
        "t"
      ],
      [
        "lo",
        "ck"
      ],
      [
        "ar",
        "s"
      ],
      [
        ":",
        "Ċ"
      ],
      [
        "ou",
        "ld"
      ],
      [
        "i",
        "es"
      ],
      [
        "\",",
        "\""
      ],
      [
        "d",
        "esc"
      ],
      [
        "rip",
        "tion"
      ],
      [
        "desc",
        "ription"
      ],
      [
        "ol",
        "d"
      ],
      [
        "Ġh",
        "im"
      ],
      [
        "Ġl",
        "e"
      ],
      [
        "on",
        "g"
      ],
      [
        "Ġit",
        "s"
      ],
      [
        "Ġ",
        "j"
      ],
      [
        "Ġ",
        "D"
      ],
      [
        "Y",
        "ou"
      ],
      [
        "ter",
        "s"
      ],
      [
        "ac",
        "h"
      ],
      [
        "Ġ",
        "N"
      ],
      [
        "Ġf",
        "rom"
      ],
      [
        "en",
        "ce"
      ],
      [
        "Ġ",
        "K"
      ],
      [
        "a",
        "ve"
      ],
      [
        "Ġa",
        "l"
      ],
      [
        "e",
        "x"
      ],
      [
        "Ġt",
        "ime"
      ],
      [
        "ou",
        "g"
      ],
      [
        "er",
        "s"
      ],
      [
        "o",
        "k"
      ],
      [
        "ar",
        "d"
      ],
      [
        "th",
        "ing"
      ],
      [
        "Ġ",
        "F"
      ],
      [
        "or",
        "y"
      ],
      [
        "Ġl",
        "i"
      ],
      [
        "Ġa",
        "r"
      ],
      [
        "Ġ",
        "V"
      ],
      [
        "ur",
        "n"
      ],
      [
        "ĠE",
        "li"
      ],
      [
        "y",
        "st"
      ],
      [
        "Ġ",
        "or"
      ],
      [
        "Ġv",
        "o"
      ],
      [
        "ir",
        "a"
      ],
      [
        "Ġ",
        "u"
      ],
      [
        "ag",
        "e"
      ],
      [
        "Ġk",
        "n"
      ],
      [
        "ou",
        "s"
      ],
      [
        "i",
        "e"
      ],
      [
        "Ġo",
        "ut"
      ],
      [
        "i",
        "p"
      ],
      [
        "o",
        "p"
      ],
      [
        "Ġs",
        "p"
      ],
      [
        "l",
        "ine"
      ],
      [
        "Ġd",
        "is"
      ],
      [
        "o",
        "ver"
      ],
      [
        "Ġm",
        "e"
      ],
      [
        "Ġa",
        "t"
      ],
      [
        "f",
        "ile"
      ],
      [
        "v",
        "ed"
      ],
      [
        "o",
        "s"
      ],
      [
        "u",
        "re"
      ],
      [
        "ac",
        "e"
      ],
      [
        "he",
        "d"
      ],
      [
        "j",
        "ect"
      ],
      [
        "re",
        "t"
      ],
      [
        "t",
        "es"
      ],
      [
        "Ġby",
        "tes"
      ],
      [
        "Ġwhe",
        "re"
      ],
      [
        "Ġ",
        "un"
      ],
      [
        "Ġy",
        "ou"
      ],
      [
        "Ġe",
        "x"
      ],
      [
        "o",
        "b"
      ],
      [
        "st",
        "r"
      ],
      [
        ".",
        "\","
      ],
      [
        "id",
        "e"
      ],
      [
        "Ġs",
        "ome"
      ],
      [
        "Ġin",
        "to"
      ],
      [
        "l",
        "ed"
      ],
      [
        "a",
        "el"
      ],
      [
        "ic",
        "k"
      ],
      [
        "t",
        "ing"
      ],
      [
        "id",
        "d"
      ],
      [
        "on",
        "e"
      ],
      [
        "<",
        "think"
      ],
      [
        "Ġ",
        "G"
      ],
      [
        "ec",
        "ret"
      ],
      [
        "i",
        "ve"
      ],
      [
        "qu",
        "i"
      ],
      [
        "l",
        "ow"
      ],
      [
        "Ġc",
        "lock"
      ],
      [
        "Ġvo",
        "ice"
      ],
      [
        "oug",
        "h"
      ],
      [
        "ĠEli",
        "as"
      ],
      [
        "r",
        "it"
      ],
      [
        "Ġon",
        "e"
      ],
      [
        "Ġa",
        "g"
      ],
      [
        "Ġw",
        "ar"
      ],
      [
        "Ġ",
        "-"
      ],
      [
        "c",
        "i"
      ],
      [
        "t",
        "en"
      ],
      [
        "Ġth",
        "is"
      ],
      [
        "idd",
        "en"
      ],
      [
        "Ġf",
        "ind"
      ],
      [
        "Ġa",
        "b"
      ],
      [
        "Ġp",
        "l"
      ],
      [
        "in",
        "al"
      ],
      [
        "ar",
        "a"
      ],
      [
        "r",
        "a"
      ],
      [
        "Ġ",
        "if"
      ],
      [
        ">Ċ",
        "Ċ"
      ],
      [
        "Ġth",
        "r"
      ],
      [
        "Ġc",
        "l"
      ],
      [
        "\":",
        "{\""
      ],
      [
        "Ġc",
        "om"
      ],
      [
        "Ġbe",
        "en"
      ],
      [
        "Ġbe",
        "g"
      ],
      [
        "ĠK",
        "ael"
      ],
      [
        "ou",
        "r"
      ],
      [
        "u",
        "e"
      ],
      [
        "re",
        "m"
      ],
      [
        "Ġd",
        "o"
      ],
      [
        "g",
        "e"
      ],
      [
        "Ġm",
        "ore"
      ],
      [
        "Ġwor",
        "ld"
      ],
      [
        "ig",
        "n"
      ],
      [
        "âĢ",
        "Ļ"
      ],
      [
        "Ġto",
        "wn"
      ],
      [
        "Ġf",
        "unction"
      ],
      [
        "ob",
        "ject"
      ],
      [
        "is",
        "e"
      ],
      [
        "Ġm",
        "ust"
      ],
      [
        "t",
        "r"
      ],
      [
        "ĠE",
        "l"
      ],
      [
        "i",
        "v"
      ],
      [
        ".Ċ",
        "Ċ"
      ],
      [
        "Ġ",
        "("
      ],
      [
        "Ġb",
        "re"
      ],
      [
        "Ġa",
        "re"
      ],
      [
        "Ġsome",
        "thing"
      ],
      [
        "}",
        "Ċ"
      ],
      [
        "Ġa",
        "c"
      ],
      [
        "ut",
        "h"
      ],
      [
        "Ġp",
        "ast"
      ],
      [
        "a",
        "b"
      ],
      [
        "Ġre",
        "ve"
      ],
      [
        "or",
        "m"
      ],
      [
        "n",
        "ing"
      ],
      [
        "Ġkn",
        "ow"
      ],
      [
        "in",
        "s"
      ],
      [
        "p",
        "ro"
      ],
      [
        "re",
        "n"
      ],
      [
        "\"}}",
        ","
      ],
      [
        "Ġ",
        "ro"
      ],
      [
        "Ġthr",
        "ough"
      ],
      [
        "Ġs",
        "il"
      ],
      [
        "Ġreve",
        "al"
      ],
      [
        "Ġh",
        "idden"
      ],
      [
        "_",
        "file"
      ],
      [
        "Ġ",
        "J"
      ],
      [
        "Ġn",
        "ow"
      ],
      [
        "Ġ",
        "<"
      ],
      [
        "s",
        "ion"
      ],
      [
        "Ġon",
        "ly"
      ],
      [
        "Ġc",
        "o"
      ],
      [
        "str",
        "ing"
      ],
      [
        "ĠI",
        "n"
      ],
      [
        "Ġs",
        "ecret"
      ],
      [
        "Ġthe",
        "n"
      ],
      [
        "Ġ",
        "P"
      ],
      [
        "ir",
        "st"
      ],
      [
        "Ġli",
        "ke"
      ],
      [
        "Ġn",
        "o"
      ],
      [
        "Ġp",
        "ro"
      ],
      [
        "i",
        "ous"
      ],
      [
        "Ġ",
        "en"
      ],
      [
        "on",
        "t"
      ],
      [
        "Ġst",
        "r"
      ],
      [
        "p",
        "ed"
      ],
      [
        "ter",
        "n"
      ],
      [
        "d",
        "s"
      ],
      [
        "ac",
        "t"
      ],
      [
        "ag",
        "on"
      ],
      [
        "over",
        "s"
      ],
      [
        "ul",
        "t"
      ],
      [
        "ad",
        "ow"
      ],
      [
        "d",
        "d"
      ],
      [
        "ĠI",
        "t"
      ],
      [
        "Ġs",
        "k"
      ],
      [
        "Ġre",
        "t"
      ],
      [
        "agon",
        "ist"
      ],
      [
        "Ġag",
        "ain"
      ],
      [
        "out",
        "line"
      ],
      [
        "Ġdis",
        "c"
      ],
      [
        "rot",
        "agonist"
      ],
      [
        "Ġm",
        "an"
      ],
      [
        ",",
        "\\"
      ],
      [
        "Ġc",
        "ity"
      ],
      [
        "Ġs",
        "c"
      ],
      [
        "a",
        "v"
      ],
      [
        "Ġc",
        "ould"
      ],
      [
        "i",
        "z"
      ],
      [
        "er",
        "y"
      ],
      [
        "qui",
        "red"
      ],
      [
        "Ġwh",
        "at"
      ],
      [
        "re",
        "ad"
      ],
      [
        "Ġj",
        "ust"
      ],
      [
        "Ġd",
        "ec"
      ],
      [
        "p",
        "ar"
      ],
      [
        "Ġc",
        "r"
      ],
      [
        "Ċ",
        "Ċ"
      ],
      [
        "s",
        "ed"
      ],
      [
        "e",
        "ars"
      ],
      [
        "Ġthe",
        "ir"
      ],
      [
        "Ġthe",
        "m"
      ],
      [
        "p",
        "ath"
      ],
      [
        "et",
        "ting"
      ],
      [
        "Ġm",
        "ach"
      ],
      [
        "e",
        "red"
      ],
      [
        "Ġm",
        "em"
      ],
      [
        "Ġtr",
        "uth"
      ],
      [
        "Ġ",
        "qu"
      ],
      [
        "per",
        "t"
      ],
      [
        "Ġc",
        "all"
      ],
      [
        "Ġof",
        "f"
      ],
      [
        "h",
        "is"
      ],
      [
        "Ġh",
[...]
