{
  "version": "1.0",
  "truncation": null,
  "padding": null,
  "added_tokens": [
    {
      "id": 4087,
      "content": "<|endoftext|>",
      "single_word": false,
      "lstrip": false,
      "rstrip": false,
      "normalized": false,
      "special": true
    },
    {
      "id": 4088,
      "content": "<|im_start|>",
      "single_word": false,
      "lstrip": false,
      "rstrip": false,
      "normalized": false,
      "special": true
    },
    {
      "id": 4089,
      "content": "<|im_end|>",
      "single_word": false,
      "lstrip": false,
      "rstrip": false,
      "normalized": false,
      "special": true
    },
    {
      "id": 4090,
      "content": "<think>",
      "single_word": false,
      "lstrip": false,
      "rstrip": false,
      "normalized": false,
      "special": true
    },
    {
      "id": 4091,
      "content": "</think>",
      "single_word": false,
      "lstrip": false,
      "rstrip": false,
      "normalized": false,
      "special": true
    },
    {
      "id": 4092,
      "content": "<tool_call>",
      "single_word": false,
      "lstrip": false,
      "rstrip": false,
      "normalized": false,
      "special": true
    },
    {
      "id": 4093,
      "content": "</tool_call>",
      "single_word": false,
      "lstrip": false,
      "rstrip": false,
      "normalized": false,
      "special": true
    },
    {
      "id": 4094,
      "content": "<tool_response>",
      "single_word": false,
      "lstrip": false,
      "rstrip": false,
      "normalized": false,
      "special": true
    },
    {
      "id": 4095,
      "content": "</tool_response>",
      "single_word": false,
      "lstrip": false,
      "rstrip": false,
      "normalized": false,
      "special": true
    }
  ],
  "normalizer": null,
  "pre_tokenizer": {
    "type": "Sequence",
    "pretokenizers": [
      {
        "type": "Split",
        "pattern": {
          "Regex": "(?i:'s|'t|'re|'ve|'m|'ll|'d)|[^\\r\\n\\p{L}\\p{N}]?\\p{L}+|\\p{N}| ?[^\\s\\p{L}\\p{N}]+[\\r\\n]*|\\s*[\\r\\n]+|\\s+(?!\\S)|\\s+"
        },
        "behavior": "Isolated",
        "invert": false
      },
      {
        "type": "ByteLevel",
        "add_prefix_space": false,
        "trim_offsets": true,
        "use_regex": false
      }
    ]
  },
  "post_processor": null,
  "decoder": {
    "type": "ByteLevel",
    "add_prefix_space": true,
    "trim_offsets": true,
    "use_regex": true
  },
  "model": {
    "type": "BPE",
    "dropout": null,
    "unk_token": null,
    "continuing_subword_prefix": null,
    "end_of_word_suffix": null,
    "fuse_unk": false,
    "byte_fallback": false,
    "ignore_merges": false,
    "vocab": {
      "!": 0,
      "\"": 1,
      "#": 2,
      "$": 3,
      "%": 4,
      "&": 5,
      "'": 6,
      "(": 7,
      ")": 8,
      "*": 9,
      "+": 10,
      ",": 11,
      "-": 12,
      ".": 13,
      "/": 14,
      "0": 15,
      "1": 16,
      "2": 17,
      "3": 18,
      "4": 19,
      "5": 20,
      "6": 21,
      "7": 22,
      "8": 23,
      "9": 24,
      ":": 25,
      ";": 26,
      "<": 27,
      "=": 28,
      ">": 29,
      "?": 30,
      "@": 31,
      "A": 32,
      "B": 33,
      "C": 34,
      "D": 35,
      "E": 36,
      "F": 37,
      "G": 38,
      "H": 39,
      "I": 40,
      "J": 41,
      "K": 42,
      "L": 43,
      "M": 44,
      "N": 45,
      "O": 46,
      "P": 47,
      "Q": 48,
      "R": 49,
      "S": 50,
      "T": 51,
      "U": 52,
      "V": 53,
      "W": 54,
      "X": 55,
      "Y": 56,
      "Z": 57,
      "[": 58,
      "\\": 59,
      "]": 60,
      "^": 61,
      "_": 62,
      "`": 63,
      "a": 64,
      "b": 65,
      "c": 66,
      "d": 67,
      "e": 68,
      "f": 69,
      "g": 70,
      "h": 71,
      "i": 72,
      "j": 73,
      "k": 74,
      "l": 75,
      "m": 76,
      "n": 77,
      "o": 78,
      "p": 79,
      "q": 80,
      "r": 81,
      "s": 82,
      "t": 83,
      "u": 84,
      "v": 85,
      "w": 86,
      "x": 87,
      "y": 88,
      "z": 89,
      "{": 90,
      "|": 91,
      "}": 92,
      "~": 93,
      "¡": 94,
      "¢": 95,
      "£": 96,
      "¤": 97,
      "¥": 98,
      "¦": 99,
      "§": 100,
      "¨": 101,
      "©": 102,
      "ª": 103,
      "«": 104,
      "¬": 105,
      "®": 106,
      "¯": 107,
      "°": 108,
      "±": 109,
      "²": 110,
      "³": 111,
      "´": 112,
      "µ": 113,
      "¶": 114,
      "·": 115,
      "¸": 116,
      "¹": 117,
      "º": 118,
      "»": 119,
      "¼": 120,
      "½": 121,
      "¾": 122,
      "¿": 123,
      "À": 124,
      "Á": 125,
      "Â": 126,
      "Ã": 127,
      "Ä": 128,
      "Å": 129,
      "Æ": 130,
      "Ç": 131,
      "È": 132,
      "É": 133,
      "Ê": 134,
      "Ë": 135,
      "Ì": 136,
      "Í": 137,
      "Î": 138,
      "Ï": 139,
      "Ð": 140,
      "Ñ": 141,
      "Ò": 142,
      "Ó": 143,
      "Ô": 144,
      "Õ": 145,
      "Ö": 146,
      "×": 147,
      "Ø": 148,
      "Ù": 149,
      "Ú": 150,
      "Û": 151,
      "Ü": 152,
      "Ý": 153,
      "Þ": 154,
      "ß": 155,
      "à": 156,
      "á": 157,
      "â": 158,
      "ã": 159,
      "ä": 160,
      "å": 161,
      "æ": 162,
      "ç": 163,
      "è": 164,
      "é": 165,
      "ê": 166,
      "ë": 167,
      "ì": 168,
      "í": 169,
      "î": 170,
      "ï": 171,
      "ð": 172,
      "ñ": 173,
      "ò": 174,
      "ó": 175,
      "ô": 176,
      "õ": 177,
      "ö": 178,
      "÷": 179,
      "ø": 180,
      "ù": 181,
      "ú": 182,
      "û": 183,
      "ü": 184,
      "ý": 185,
      "þ": 186,
      "ÿ": 187,
      "Ā": 188,
      "ā": 189,
      "Ă": 190,
      "ă": 191,
      "Ą": 192,
      "ą": 193,
      "Ć": 194,
      "ć": 195,
      "Ĉ": 196,
      "ĉ": 197,
      "Ċ": 198,
      "ċ": 199,
      "Č": 200,
      "č": 201,
      "Ď": 202,
      "ď": 203,
      "Đ": 204,
      "đ": 205,
      "Ē": 206,
      "ē": 207,
      "Ĕ": 208,
      "ĕ": 209,
      "Ė": 210,
      "ė": 211,
      "Ę": 212,
      "ę": 213,
      "Ě": 214,
      "ě": 215,
      "Ĝ": 216,
      "ĝ": 217,
      "Ğ": 218,
      "ğ": 219,
      "Ġ": 220,
      "ġ": 221,
      "Ģ": 222,
      "ģ": 223,
      "Ĥ": 224,
      "ĥ": 225,
      "Ħ": 226,
      "ħ": 227,
      "Ĩ": 228,
      "ĩ": 229,
      "Ī": 230,
      "ī": 231,
      "Ĭ": 232,
      "ĭ": 233,
      "Į": 234,
      "į": 235,
      "İ": 236,
      "ı": 237,
      "Ĳ": 238,
      "ĳ": 239,
      "Ĵ": 240,
      "ĵ": 241,
      "Ķ": 242,
      "ķ": 243,
      "ĸ": 244,
      "Ĺ": 245,
      "ĺ": 246,
      "Ļ": 247,
      "ļ": 248,
      "Ľ": 249,
      "ľ": 250,
      "Ŀ": 251,
      "ŀ": 252,
      "Ł": 253,
      "ł": 254,
      "Ń": 255,
      "\":": 256,
      "to": 257,
      "th": 258,
      ">Ċ": 259,
      "Ġ\"": 260,
      "on": 261,
      "ol": 262,
      "tool": 263,
      "ar": 264,
      "re": 265,
      "im": 266,
      "st": 267,
      "<|": 268,
      "en": 269,
      "er": 270,
      "{\"": 271,
      "ti": 272,
      "al": 273,
      "in": 274,
      "</": 275,
      "cal": 276,
      "tion": 277,
      "me": 278,
      "call": 279,
      "\",": 280,
      "|>": 281,
      "art": 282,
      "res": 283,
      "_call": 284,
      "thin": 285,
      "end": 286,
      "ame": 287,
      "start": 288,
      "_end": 289,
      "_start": 290,
      "se": 291,
      "Ġth": 292,
      "|>Ċ": 293,
      "an": 294,
      "Ġ{\"": 295,
      "<tool": 296,
      "}}": 297,
      "think": 298,
      "><|": 299,
      "si": 300,
      "un": 301,
      "name": 302,
      "pr": 303,
      "ction": 304,
      "pon": 305,
      "respon": 306,
      "response": 307,
      "_response": 308,
      "fun": 309,
      "function": 310,
      "es": 311,
      "\"}}": 312,
      "ex": 313,
      "as": 314,
      "pe": 315,
      "ty": 316,
      "type": 317,
      "arg": 318,
      "um": 319,
      "Ġthe": 320,
      "us": 321,
      "ent": 322,
      "\":\"": 323,
      "sist": 324,
      "assist": 325,
      "user": 326,
      "qu": 327,
      "ents": 328,
      "ct": 329,
      "uments": 330,
      "arguments": 331,
      "Ġa": 332,
      "ant": 333,
      "ri": 334,
      "assistant": 335,
      "Ġw": 336,
      "Ġto": 337,
      "or": 338,
      "expr": 339,
      "Ġm": 340,
      "ed": 341,
      "is": 342,
      "<think": 343,
      "cri": 344,
      "crip": 345,
      "des": 346,
      "Ġwi": 347,
      "descrip": 348,
      "description": 349,
      "\"}}Ċ": 350,
      ">ĊĊ": 351,
      "Ġs": 352,
      "pro": 353,
      "ul": 354,
      "at": 355,
      ".Ċ": 356,
      "ect": 357,
      "ob": 358,
      "Ġn": 359,
      "ject": 360,
      "object": 361,
      "\",\"": 362,
      "Ġf": 363,
      "ter": 364,
      "Ġan": 365,
      "Ġfunction": 366,
      "red": 367,
      "Ġc": 368,
      "ou": 369,
      "Ġ<": 370,
      "ery": 371,
      "Ġthen": 372,
      "requ": 373,
      "}Ċ": 374,
      "requi": 375,
      "val": 376,
      "Ġwith": 377,
      "query": 378,
      "ing": 379,
      "\"}},": 380,
      "\":{\"": 381,
      "per": 382,
      ".\",": 383,
      "Ġt": 384,
      "required": 385,
      "Ġis": 386,
      "ch": 387,
      "Ġb": 388,
      "tools": 389,
      "proper": 390,
      "str": 391,
      "par": 392,
      "ters": 393,
      "et": 394,
      "parame": 395,
      "parameters": 396,
      "ties": 397,
      "properties": 398,
      "eed": 399,
      "string": 400,
      "valu": 401,
      "],": 402,
      "ste": 403,
      "he": 404,
      "[\"": 405,
      "pl": 406,
      "if": 407,
      "Ġe": 408,
      "Ġneed": 409,
      "sion": 410,
      "om": 411,
      "ur": 412,
      "Ġcall": 413,
      "\"],": 414,
      "Ġin": 415,
      "Ġd": 416,
      "Ġpro": 417,
      "ag": 418,
      "Ġ+": 419,
      "You": 420,
      "ma": 421,
      "dd": 422,
      "ate": 423,
      "Ġadd": 424,
      "ke": 425,
      "Ġre": 426,
      "act": 427,
      "Ġif": 428,
      "ther": 429,
      "Ġor": 430,
      ":Ċ": 431,
      "son": 432,
      "ut": 433,
      "json": 434,
      "Ġtag": 435,
      "ML": 436,
      "></": 437,
      "XML": 438,
      "ĠXML": 439,
      "Ġwithin": 440,
      "Ġtags": 441,
      "Ġthis": 442,
      "Ġl": 443,
      "Ġand": 444,
      "ay": 445,
      "key": 446,
      "\"}Ċ": 447,
      "arch": 448,
      "calc": 449,
      "oo": 450,
      ".</": 451,
      "Ġby": 452,
      "ook": 453,
      "up": 454,
      "Ġo": 455,
      "ulti": 456,
      "ultipl": 457,
      "valuate": 458,
      "vi": 459,
      "pres": 460,
      "Ġmo": 461,
      "Ġar": 462,
      "Ġsu": 463,
      "other": 464,
      "tic": 465,
      "Ġ[\"": 466,
      "thme": 467,
      "thmetic": 468,
      "ĊĊ": 469,
      "step": 470,
      "Ġstep": 471,
      "put": 472,
      "Ġquery": 473,
      "search": 474,
      "Ġex": 475,
      "pression": 476,
      "Ġmultipl": 477,
      "urn": 478,
      "Ġmore": 479,
      "tr": 480,
      "Ġsh": 481,
      "Ġof": 482,
      "Ġ*": 483,
      "Ġsi": 484,
      "ult": 485,
      "btr": 486,
      "Ġret": 487,
      "Ġme": 488,
      "Ġsubtr": 489,
      "Ġmay": 490,
      "Ġname": 491,
      "de": 492,
      "Ġres": 493,
      "Ġmultiply": 494,
      "Ġreturn": 495,
      "Ġresult": 496,
      "math": 497,
      "Ġtool": 498,
      "com": 499,
      "Ġ-": 500,
      "gh": 501,
      "oul": 502,
      "ould": 503,
      "Ġbe": 504,
      "Ġon": 505,
      "Ġp": 506,
      "ext": 507,
      "ve": 508,
      "Ġsubtract": 509,
      "Ġare": 510,
      "il": 511,
      ".\",\"": 512,
      "Ġexpression": 513,
      "Ġup": 514,
      ".ĊĊ": 515,
      "The": 516,
      "Ġfin": 517,
      "value": 518,
      "sy": 519,
      "Ġsearch": 520,
      "tern": 521,
      "ll": 522,
      "ver": 523,
      "}}}Ċ": 524,
      "ded": 525,
      "ĠI": 526,
      "ow": 527,
      "ces": 528,
      "stem": 529,
      "Ġprovi": 530,
      "pute": 531,
      "ĠT": 532,
      "Ġuser": 533,
      "\":[\"": 534,
      "Ġprovided": 535,
      "ach": 536,
      "Ġone": 537,
      "Ġfor": 538,
      "ool": 539,
      "ures": 540,
      "Ġeach": 541,
      "For": 542,
      "ĠTool": 543,
      "Ġfunctions": 544,
      "gn": 545,
      "Ġjson": 546,
      "Ġobject": 547,
      "args": 548,
      "Ġarguments": 549,
      "Ġsign": 550,
      "-name": 551,
      "-object": 552,
      "-json": 553,
      ">,": 554,
      ">}Ċ": 555,
      "Ġassist": 556,
      "<tools": 557,
      "atures": 558,
      "system": 559,
      "ĠTools": 560,
      "Ġsignatures": 561,
      "Ġevaluate": 562,
      "and": 563,
      "cess": 564,
      "Ġnext": 565,
      "Ġanother": 566,
      "Ġvalue": 567,
      "Let": 568,
      "ght": 569,
      "_e": 570,
      "_eval": 571,
      "_math": 572,
      "ck": 573,
      "calcul": 574,
      "'s": 575,
      "for": 576,
      "compute": 577,
      "ari": 578,
      "ight": 579,
      "Ġshould": 580,
      "calcula": 581,
      "sw": 582,
      "Ġansw": 583,
      "Ġanswer": 584,
      "get": 585,
      "Ġfil": 586,
      ".<|": 587,
      "ask": 588,
      "ly": 589,
      "ce": 590,
      ".\"}}": 591,
      "\"],\"": 592,
      ".\"}}}}}Ċ": 593,
      "ode": 594,
      "Ġcon": 595,
      "Ari": 596,
      "Arithmetic": 597,
      "ort": 598,
      "Ġneeded": 599,
      "Fin": 600,
      "ath": 601,
      "Ġtask": 602,
      "Ġmight": 603,
      "out": 604,
      "ot": 605,
      "Ġthere": 606,
      "Ġcom": 607,
      "An": 608,
      "his": 609,
      "ad": 610,
      "version": 611,
      "ha": 612,
      "mand": 613,
      "tored": 614,
      "tor": 615,
      "Ġche": 616,
      "Ġcheck": 617,
      "hat": 618,
      "Another": 619,
      "our": 620,
      "This": 621,
      "Ġnot": 622,
      "olve": 623,
      "Per": 624,
      "ir": 625,
      "Look": 626,
      "Ġlook": 627,
      "Ġkey": 628,
      "Ġstored": 629,
      "Ġfact": 630,
      "ber": 631,
      "ternal": 632,
      "Ġshort": 633,
      "Ġlin": 634,
      "Ġprocess": 635,
      "Ġget": 636,
      "eb": 637,
      "Ġnum": 638,
      "Ġnumber": 639,
      "fin": 640,
      "ource": 641,
      "mation": 642,
      "formation": 643,
      "Ġinformation": 644,
      "ic": 645,
      "it": 646,
      "ĠN": 647,
      "},": 648,
      "ĠNo": 649,
      "Ġdo": 650,
      "?<|": 651,
      "now": 652,
      "Final": 653,
      "Ġsteps": 654,
      "Ġpart": 655,
      "Ġper": 656,
      "Ġsource": 657,
      "calculator": 658,
      "ren": 659,
      "Re": 660,
      "ition": 661,
      "Ġrequi": 662,
      "mor": 663,
      "mory": 664,
      "rect": 665,
      "Ġk": 666,
      "code": 667,
      "_s": 668,
      "orrect": 669,
      "op": 670,
      "Ġcorrect": 671,
      "_calc": 672,
      "zx": 673,
      "_compute": 674,
      "fn": 675,
      "hap": 676,
      ">I": 677,
      "_ex": 678,
      "Perhap": 679,
      "Perhaps": 680,
      "ation": 681,
      "yth": 682,
      "ython": 683,
      "xq": 684,
      "_expr": 685,
      "solve": 686,
      "ithmetic": 687,
      "Ġarithmetic": 688,
      "look": 689,
      "lookup": 690,
      "ba": 691,
      "ata": 692,
      "Ġde": 693,
      "What": 694,
      "Ġfur": 695,
      "Ġfurther": 696,
      "Ġfind": 697,
      "Ġpl": 698,
      "Ġse": 699,
      "evaluate": 700,
      "Ġmy": 701,
      "Ġfinal": 702,
      "Ġout": 703,
      "Ġit": 704,
      "do": 705,
      "ec": 706,
      "rent": 707,
      "Ġaction": 708,
      "Ġr": 709,
      "ayer": 710,
      "_ari": 711,
      "_arithmetic": 712,
      "_expression": 713,
      "ĠA": 714,
      "Ġdata": 715,
      "Ġplayer": 716,
      "Ġrequired": 717,
      "te": 718,
      "ceed": 719,
      "Ġproceed": 720,
      "attern": 721,
      "Ġfile": 722,
      "Ġrequire": 723,
      "Ġcould": 724,
      "find": 725,
      "Ġel": 726,
      "Ġweb": 727,
      "Ġhe": 728,
      "Ġside": 729,
      "arith": 730,
      "Ġoutput": 731,
      "Ġinternal": 732,
      "command": 733,
      "plet": 734,
      "Ġsee": 735,
      "ved": 736,
      "oun": 737,
      "Ġ\"-": 738,
      "ĠĊ": 739,
      "Ġac": 740,
      "Ġversion": 741,
      "hell": 742,
      "Ġaddition": 743,
      "Python": 744,
      "Ġu": 745,
      "mb": 746,
      "Ġknow": 747,
      "ĠAll": 748,
      "ger": 749,
      "ecut": 750,
      "Ġcommand": 751,
      "Ġplayers": 752,
      "ough": 753,
      "_f": 754,
      "Ġcalcula": 755,
      "pattern": 756,
      "Ġcalculation": 757,
      "path": 758,
      "ime": 759,
      "thing": 760,
      "po": 761,
      "\"},": 762,
      "inte": 763,
      "integer": 764,
      "ish": 765,
      "Ġlines": 766,
      "ge": 767,
      "Ġany": 768,
      "Ġfinish": 769,
      "[],": 770,
      "Ġen": 771,
      "bout": 772,
      "Ġthat": 773,
      "ecute": 774,
      "ine": 775,
      "Ġthink": 776,
      "Ġelse": 777,
      "Ġanything": 778,
      "Ġabout": 779,
      "ary": 780,
      "Ġcomplet": 781,
      "ass": 782,
      "Ġcode": 783,
      "Ġy": 784,
      "Ġdi": 785,
      "]}}}Ċ": 786,
      "form": 787,
      "Ġmemory": 788,
      "Ġline": 789,
      ">Let": 790,
      "Ġuse": 791,
      "Ġend": 792,
      "ual": 793,
      "etch": 794,
      "base": 795,
      "ĊĊĊ": 796,
      "Ġne": 797,
      "fir": 798,
      "Ġconfir": 799,
      "Ġso": 800,
      "Ġfactual": 801,
      "Evaluate": 802,
      "Ret": 803,
      "Ġrun": 804,
      "cur": 805,
      "cessary": 806,
      "fe": 807,
      "\"]}}}Ċ": 808,
      ".\"}},": 809,
      ".\"}},\"": 810,
      "lass": 811,
      "Ġnecessary": 812,
      "Find": 813,
      "Ġwhat": 814,
      "_search": 815,
      "{},": 816,
      "bo": 817,
      "led": 818,
      "ledge": 819,
      "box": 820,
      "\":\"-": 821,
      "Ġdif": 822,
      "ferent": 823,
      "Ġdifferent": 824,
      "Ġsand": 825,
      "Ġsandbox": 826,
      "Ġenough": 827,
      "mbol": 828,
      "Ġhere": 829,
      "est": 830,
      "Ġtime": 831,
      "En": 832,
      "iter": 833,
      "_lookup": 834,
      "rom": 835,
      "_find": 836,
      "li": 837,
      "Ġtext": 838,
      "Ġfiles": 839,
      "ss": 840,
      "Ġfrom": 841,
      "Ġpath": 842,
      "Ġmath": 843,
      "Com": 844,
      "iteral": 845,
      "web": 846,
      "irst": 847,
      "be": 848,
      "term": 849,
      "Read": 850,
      "ound": 851,
      "ication": 852,
      "Ġ[],": 853,
      "Ġ{},": 854,
      "Ġits": 855,
      "Ġsy": 856,
      "ĠFinal": 857,
      "Compute": 858,
      "lo": 859,
      "Perform": 860,
      "Su": 861,
      "Ġmultiplication": 862,
      "Ġread": 863,
      "Ġwe": 864,
      "_me": 865,
      "_memory": 866,
      ">Another": 867,
      ">This": 868,
      "ast": 869,
      "_query": 870,
      "aved": 871,
      "ema": 872,
      "Ġfound": 873,
      "read": 874,
      "tive": 875,
      "action": 876,
      "Solve": 877,
      "Ġdeterm": 878,
      "tical": 879,
      "Ġmathema": 880,
      "Ġmathematical": 881,
      "Ġsubtraction": 882,
      "Ġcomplete": 883,
      "ous": 884,
      ">The": 885,
      "vision": 886,
      "Ġdivision": 887,
      "Ġqu": 888,
      "ain": 889,
      "der": 890,
      "Ġcur": 891,
      "tore": 892,
      "Se": 893,
      "Search": 894,
      "revi": 895,
      "revious": 896,
      "ion": 897,
      "Ġdefin": 898,
      "le": 899,
      "la": 900,
      "pan": 901,
      "Ġaccur": 902,
      "Ġaccurate": 903,
      "err": 904,
      "lin": 905,
      "estion": 906,
      "Ġquestion": 907,
      "Class": 908,
      "Ġlast": 909,
      "ient": 910,
      "Ġman": 911,
      "Ġj": 912,
      "fo": 913,
      "lines": 914,
      "How": 915,
      "Shell": 916,
      "Ġwere": 917,
      "Ġerr": 918,
      "Ġerror": 919,
      "port": 920,
      "bstring": 921,
      "Ġfilter": 922,
      "Substring": 923,
      "ile": 924,
      "Run": 925,
      "rie": 926,
      "vol": 927,
      "Ġexecute": 928,
      "Ġmany": 929,
      "Ġerrors": 930,
      "Ġri": 931,
      "sider": 932,
      "Ġprevious": 933,
      "Ġconsider": 934,
      "fic": 935,
      "Literal": 936,
      "am": 937,
      "ĠPython": 938,
      "-re": 939,
      "First": 940,
      "Repo": 941,
      "lative": 942,
      "-relative": 943,
      "Ġdet": 944,
      "Ġadditional": 945,
      "Return": 946,
      "Ġwill": 947,
      "End": 948,
      "ffic": 949,
      "Ġconfirm": 950,
      "ci": 951,
      "Ġcurrent": 952,
      "recall": 953,
      "Ġcalculator": 954,
      "ated": 955,
      "fficient": 956,
      "Ġus": 957,
      "Ġsymbol": 958,
      "Ġjob": 959,
      "id": 960,
      "Ġusing": 961,
      "'ll": 962,
      "Ġas": 963,
      "ro": 964,
      "Ġdetermine": 965,
      "Ġsufficient": 966,
      "hain": 967,
      "bly": 968,
      "ully": 969,
      "Ġ</": 970,
      "Ġproba": 971,
      "Ġprobably": 972,
      "Ġknown": 973,
      "lock": 974,
      "}}Ċ": 975,
      "Ġfully": 976,
      "Ġaf": 977,
      "rieve": 978,
      "Ġyou": 979,
      "sess": 980,
      "Ġassess": 981,
      "Ġafter": 982,
      "low": 983,
      "Ġready": 984,
      "_store": 985,
      "tory": 986,
      "Ġval": 987,
      "Ġinvol": 988,
      "Ġinvolved": 989,
      "Ġvalid": 990,
      "Ġknowledge": 991,
      "Ġexternal": 992,
      ".\"},": 993,
      ".\"},\"": 994,
      "ollow": 995,
      "Ġfollow": 996,
      ">Perhaps": 997,
      "line": 998,
      "Ġtools": 999,
      "lu": 1000,
      "med": 1001,
      "verif": 1002,
      "Ġwh": 1003,
      "ze": 1004,
      "Qu": 1005,
      "su": 1006,
      "Query": 1007,
      "Ġnow": 1008,
      "Ġverif": 1009,
      "St": 1010,
      "ĠWhat": 1011,
      "Start": 1012,
      "ase": 1013,
      "ected": 1014,
      "Ġtop": 1015,
      "ew": 1016,
      "Ġlen": 1017,
      "run": 1018,
      "Ġh": 1019,
      "gth": 1020,
      "Ġg": 1021,
      "Ġlength": 1022,
      "Ġdetected": 1023,
      "Ġtopic": 1024,
      "Ġwas": 1025,
      "ie": 1026,
      "Ġissu": 1027,
      "Ġissues": 1028,
      "Ġinternally": 1029,
      "Multipl": 1030,
      "Ġdefinition": 1031,
      "Ġmat": 1032,
      "_k": 1033,
      "Multiply": 1034,
      "Ġshell": 1035,
      "ard": 1036,
      "Ġpreviously": 1037,
      "py": 1038,
      "Ġproper": 1039,
      "ount": 1040,
      "_in": 1041,
      "Ġcodebase": 1042,
      "Ġmatch": 1043,
      "Ġriver": 1044,
      "olated": 1045,
      "Ġisolated": 1046,
      "Ġpa": 1047,
      "Ġproperly": 1048,
      "Ġsaved": 1049,
      "_web": 1050,
      "list": 1051,
      "Ġreme": 1052,
      "ered": 1053,
      "Fetch": 1054,
      "mbered": 1055,
      "Ġremembered": 1056,
      "Ġpair": 1057,
      "Ex": 1058,
      "external": 1059,
      "rough": 1060,
      "Ġthrough": 1061,
      "Ġconfirmed": 1062,
      "tin": 1063,
      "/value": 1064,
      "Execute": 1065,
      "{}}": 1066,
      "\":[],": 1067,
      "\":{}}": 1068,
      "\":[],\"": 1069,
      "\":{}}}}Ċ": 1070,
      "_base": 1071,
      "nowledge": 1072,
      "_knowledge": 1073,
      "_fact": 1074,
      "clu": 1075,
      "rep": 1076,
      "Ġrequires": 1077,
      "espan": 1078,
      "ifespan": 1079,
      "Ġlifespan": 1080,
      "cies": 1081,
      "Report": 1082,
      "wz": 1083,
      "ĠU": 1084,
      "ĠUse": 1085,
      "ome": 1086,
      "Ġconclu": 1087,
      "_on": 1088,
      "_online": 1089,
      "Ġli": 1090,
      "Retrieve": 1091,
      "Ġcompleted": 1092,
      "_file": 1093,
      "stat": 1094,
      "fact": 1095,
      "cript": 1096,
      "ue": 1097,
      "ars": 1098,
      ">Final": 1099,
      "mo": 1100,
      "all": 1101,
      ".py": 1102,
      "kb": 1103,
      "python": 1104,
      "umm": 1105,
      "ĠR": 1106,
      "view": 1107,
      "Ġchain": 1108,
      "Ġintern": 1109,
      "Ġinternet": 1110,
      "erate": 1111,
      "zed": 1112,
      "Ġinput": 1113,
      "verview": 1114,
      "umerate": 1115,
      "Need": 1116,
      "here": 1117,
      "Ġlike": 1118,
      "time": 1119,
      "ang": 1120,
      "Ġpie": 1121,
      "Ġpiece": 1122,
      "ving": 1123,
      "Ġassistant": 1124,
      "kv": 1125,
      "ment": 1126,
      "ward": 1127,
      "Ġpr": 1128,
      "_info": 1129,
      "_recall": 1130,
      "oning": 1131,
      "asoning": 1132,
      "Ġreasoning": 1133,
      "Ġbefo": 1134,
      "Ġbefore": 1135,
      "ap": 1136,
      "fetch": 1137,
      "Ġcont": 1138,
      "_saved": 1139,
      "ust": 1140,
      "Ġta": 1141,
      "esult": 1142,
      "sing": 1143,
      "Ġdon": 1144,
      "ail": 1145,
      "Ġha": 1146,
      "Ġbase": 1147,
      "_list": 1148,
      "Ġye": 1149,
      "_value": 1150,
      "_stored": 1151,
      "ron": 1152,
      "peed": 1153,
      "Ġrepo": 1154,
      "Ġheight": 1155,
      "Ġmoving": 1156,
      "Ġsure": 1157,
      "Ġforward": 1158,
      "Ġcomput": 1159,
      "ip": 1160,
      "present": 1161,
      "_source": 1162,
      "Ġlo": 1163,
      "Ġhave": 1164,
      "ĠResult": 1165,
      "Ġcome": 1166,
      "sis": 1167,
      "Ġverify": 1168,
      "ball": 1169,
      "mm": 1170,
      "Ġpri": 1171,
      "Ġprior": 1172,
      "amp": 1173,
      "Ġbased": 1174,
      "ive": 1175,
      "Ġlikely": 1176,
      "ĠThe": 1177,
      "symbol": 1178,
      "Ġcomes": 1179,
      "stamp": 1180,
      "Ġyears": 1181,
      "_get": 1182,
      "memo": 1183,
      "sitory": 1184,
      "Ġbut": 1185,
      "Ġrepository": 1186,
      "Ġpresent": 1187,
      "aly": 1188,
      "Ġmis": 1189,
      "Ġproject": 1190,
      "ure": 1191,
      "_fetch": 1192,
      "Ġspeed": 1193,
      "pet": 1194,
      "Ġprocessing": 1195,
      "uct": 1196,
      "Ġtake": 1197,
      "Ġanaly": 1198,
      "nip": 1199,
      "Ġmissing": 1200,
      "nippet": 1201,
      "Ġconclude": 1202,
      "Ġanalysis": 1203,
      "tili": 1204,
      "Ġutili": 1205,
      "Ġutilized": 1206,
      "Ġcontin": 1207,
      "Ġclock": 1208,
      "Ġaccess": 1209,
      "ab": 1210,
      "Ġseem": 1211,
      "-up": 1212,
      "repo": 1213,
      "age": 1214,
      "May": 1215,
      "Ġseems": 1216,
      "Maybe": 1217,
      "cre": 1218,
      "Ġcontinue": 1219,
      "Ġincom": 1220,
      "Ġmaybe": 1221,
      "plete": 1222,
      "Ġincomplete": 1223,
      "ist": 1224,
      "con": 1225,
      "Ġwhere": 1226,
      "Ġkm": 1227,
      "Ġdate": 1228,
      "Ġcount": 1229,
      "Ġdis": 1230,
      "ange": 1231,
      "ph": 1232,
      "Ġdoc": 1233,
      "clock": 1234,
      "Ġstr": 1235,
      "_python": 1236,
      "pancies": 1237,
      "crepancies": 1238,
      "Ġdiscrepancies": 1239,
      "Ġ'": 1240,
      "_stat": 1241,
      "_stats": 1242,
      "Ġfacts": 1243,
      "'t": 1244,
      "ose": 1245,
      "agent": 1246,
      "ord": 1247,
      "Ġdocstring": 1248,
      "Ġperform": 1249,
      "Ġscript": 1250,
      "Ġdefined": 1251,
      "Pro": 1252,
      "_time": 1253,
      "sc": 1254,
      "Process": 1255,
      "Ġmatches": 1256,
      "Ġev": 1257,
      "Ġfollowed": 1258,
      "Ġevery": 1259,
      "ied": 1260,
      "Ġat": 1261,
      "_exec": 1262,
      "rences": 1263,
      "Enumerate": 1264,
      "ally": 1265,
      "Ġoc": 1266,
      "Sh": 1267,
      "currences": 1268,
      "Ġoccurrences": 1269,
      "Show": 1270,
      "iles": 1271,
      "Ġele": 1272,
      "_files": 1273,
      "Ġclass": 1274,
      "Ġcan": 1275,
      "Ġstruct": 1276,
      "Ġacro": 1277,
      "Ġacross": 1278,
      "_code": 1279,
      "ption": 1280,
      "Ġrec": 1281,
      "Ġsize": 1282,
      "Ġstructure": 1283,
      "Chain": 1284,
      "rec": 1285,
      "List": 1286,
      "ash": 1287,
      "Ġstring": 1288,
      "viron": 1289,
      "Ġrange": 1290,
      "Ġenviron": 1291,
      "Ġenvironment": 1292,
      "gr": 1293,
      "Ġmust": 1294,
      "Ġcontents": 1295,
      "pen": 1296,
      "Give": 1297,
      "Ġoverview": 1298,
      "Ġoption": 1299,
      "Ġfilte": 1300,
      "Ġoptionally": 1301,
      "Ġfiltered": 1302,
      "Ġhel": 1303,
      "Ġdirec": 1304,
      "Open": 1305,
      "vation": 1306,
      "arize": 1307,
      "Ġyour": 1308,
      "ummarize": 1309,
      "ords": 1310,
      "Summarize": 1311,
      "Ġtimestamp": 1312,
      "Ġcounts": 1313,
      "Ġdirectory": 1314,
      "Ġsandboxed": 1315,
      "Can": 1316,
      "grep": 1317,
      "unit": 1318,
      "Ġelevation": 1319,
      "uth": 1320,
      "ac": 1321,
      "file": 1322,
      "Ġsnippet": 1323,
      "Ġhelp": 1324,
      "Ġended": 1325,
      "Ġcalculations": 1326,
      "Ġrecords": 1327,
      "Ġpattern": 1328,
      "Ġwhose": 1329,
      "_symbol": 1330,
      "Get": 1331,
      "project": 1332,
      "Ġfirst": 1333,
      "_de": 1334,
      "Ġcomputation": 1335,
      "Grep": 1336,
      "Ġliteral": 1337,
      "There": 1338,
      "Ġsystem": 1339,
      ">End": 1340,
      "Ġwhen": 1341,
      "cise": 1342,
      "Ġverified": 1343,
      "_read": 1344,
      "ays": 1345,
      "_now": 1346,
      "Ġstore": 1347,
      "les": 1348,
      "ple": 1349,
      "Ġsearching": 1350,
      "uman": 1351,
      "ought": 1352,
      "ser": 1353,
      "plain": 1354,
      "bash": 1355,
      "ten": 1356,
      "ĠĠ": 1357,
      "ca": 1358,
      "uage": 1359,
      "Ġretrieve": 1360,
      "anguage": 1361,
      "ined": 1362,
      "Ġinstr": 1363,
      "Ġdetermined": 1364,
      "able": 1365,
      "ful": 1366,
      "Ġcalc": 1367,
      "ind": 1368,
      "Ġright": 1369,
      "Ġhelpful": 1370,
      "bit": 1371,
      "'.ĊĊ": 1372,
      "_clock": 1373,
      "lw": 1374,
      "thought": 1375,
      "Ġexplain": 1376,
      "ĠAlw": 1377,
      "Ġquestions": 1378,
      "ĠAlways": 1379,
      "Ġal": 1380,
      "ained": 1381,
      "Ġconcise": 1382,
      "Ġcap": 1383,
      "Ġreport": 1384,
      "Ġorbit": 1385,
      "ell": 1386,
      "Ġincon": 1387,
      "Ġinconsist": 1388,
      "Ġacc": 1389,
      "Ġcalcul": 1390,
      "Ġob": 1391,
      "_shell": 1392,
      "Ġ/": 1393,
      "Ġdetail": 1394,
      "cy": 1395,
      "_run": 1396,
      "execute": 1397,
      "Ġrequ": 1398,
      "encies": 1399,
      "Ġmph": 1400,
      "ital": 1401,
      "Ġcapital": 1402,
      "Ġrequest": 1403,
      "Ġinconsistencies": 1404,
      "ounted": 1405,
      "Ġaccounted": 1406,
      "Ġloc": 1407,
      "rea": 1408,
      "Ġtr": 1409,
      "ummary": 1410,
      "Ġch": 1411,
      "Ġlog": 1412,
      "Add": 1413,
      "ne": 1414,
      "Ġcrea": 1415,
      "Ġcreator": 1416,
      "oot": 1417,
      "ls": 1418,
      "Ġfam": 1419,
      "ily": 1420,
      "Ġfamily": 1421,
      "Ġdevi": 1422,
      "Ġrequested": 1423,
      "Ġinstruments": 1424,
      "ug": 1425,
      "Ġauth": 1426,
      "Ġrot": 1427,
      "[]}}}Ċ": 1428,
      "_o": 1429,
      "\":{},": 1430,
      "\":[]}}}Ċ": 1431,
      "_overview": 1432,
      "\":{},\"": 1433,
      "tained": 1434,
      "Ġobtained": 1435,
      "Ġauthor": 1436,
      "btract": 1437,
      "Subtract": 1438,
      "tention": 1439,
      "ence": 1440,
      "Ġshar": 1441,
      "Ġrotation": 1442,
      "User": 1443,
      "status": 1444,
      "Ġv": 1445,
      "Ġ{": 1446,
      "ton": 1447,
      "codebase": 1448,
      "_summary": 1449,
      "Ġlocate": 1450,
      "quence": 1451,
      "ople": 1452,
      "Ġst": 1453,
      "people": 1454,
      "orm": 1455,
      "Ġsequence": 1456,
      "Ġdone": 1457,
      "script": 1458,
      "Now": 1459,
      "Ġmass": 1460,
      "Ġ{}}Ċ": 1461,
      "new": 1462,
      "llm": 1463,
      "ader": 1464,
      "newllm": 1465,
      "Ġchecked": 1466,
      "ĠThis": 1467,
      "grug": 1468,
      "Ġlanguage": 1469,
      "Ġsome": 1470,
      "mode": 1471,
      "Ġexecut": 1472,
      "model": 1473,
      "lf": 1474,
      "enumerate": 1475,
      "ud": 1476,
      "stant": 1477,
      "Ġonline": 1478,
      "Ġconstant": 1479,
      "active": 1480,
      "ations": 1481,
      "Ġcomputed": 1482,
      "try": 1483,
      "rency": 1484,
      "ountry": 1485,
      "Ġcurrency": 1486,
      "_d": 1487,
      "scan": 1488,
      "Ġexecuted": 1489,
      "\"\"": 1490,
      "ready": 1491,
      "Ġconcluded": 1492,
      "Ġalready": 1493,
      "Ġlogic": 1494,
      "set": 1495,
      "ribe": 1496,
      "vepeople": 1497,
      "cavepeople": 1498,
      "Ġgi": 1499,
      "Ple": 1500,
      "rs": 1501,
      "Please": 1502,
      "Ġad": 1503,
      "And": 1504,
      "Ġma": 1505,
      "cribe": 1506,
      "ld": 1507,
      "finition": 1508,
      "ataset": 1509,
      "_definition": 1510,
      "dir": 1511,
      "Ġ<|": 1512,
      "Ġno": 1513,
      "_listing": 1514,
      "cat": 1515,
      "Ġav": 1516,
      "_grep": 1517,
      "gent": 1518,
      "ling": 1519,
      "ra": 1520,
      "el": 1521,
      "train": 1522,
      "open": 1523,
      "Ġwithout": 1524,
      "ting": 1525,
      "Ġhas": 1526,
      "ailable": 1527,
      "Ġavailable": 1528,
      "describe": 1529,
      "cud": 1530,
      "amm": 1531,
      "cuda": 1532,
      "day": 1533,
      "Ġagent": 1534,
      ">Need": 1535,
      "tk": 1536,
      "Ġsolve": 1537,
      "ains": 1538,
      "Ġadj": 1539,
      "ga": 1540,
      "oc": 1541,
      "_def": 1542,
      "_bash": 1543,
      "gy": 1544,
      "Ġask": 1545,
      "Ġwant": 1546,
      "Ġdeviations": 1547,
      "Ġasking": 1548,
      "nis": 1549,
      "Ġfoot": 1550,
      "ince": 1551,
      "Ġap": 1552,
      "come": 1553,
      "human": 1554,
      "Ġhuman": 1555,
      "Cal": 1556,
      "bles": 1557,
      "cul": 1558,
      "shell": 1559,
      "ply": 1560,
      "Ġfootball": 1561,
      "Calcul": 1562,
      "Ġstart": 1563,
      "Ġmain": 1564,
      "Ġle": 1565,
      "Ġdid": 1566,
      "(n": 1567,
      "today": 1568,
      "etball": 1569,
      "mind": 1570,
      "rf": 1571,
      "Ġresponse": 1572,
      "Remind": 1573,
      "ustment": 1574,
      "Ġadjustment": 1575,
      "ken": 1576,
      "ali": 1577,
      "Ġdou": 1578,
      "pt": 1579,
      "attention": 1580,
      "Ġcontains": 1581,
      "Ġvari": 1582,
      "sh": 1583,
      "ale": 1584,
      "Ġprovide": 1585,
      "ield": 1586,
      "Ġshare": 1587,
      "Ġgiv": 1588,
      "Ġdoubles": 1589,
      "Ġreturned": 1590,
      "load": 1591,
      "Ġinter": 1592,
      "Ġcalculate": 1593,
      "_dataset": 1594,
      "Could": 1595,
      "Ġsomething": 1596,
      "..": 1597,
      "class": 1598,
      "_snippet": 1599,
      "Ġcalculated": 1600,
      "ergy": 1601,
      "Ġbear": 1602,
      "Ġenergy": 1603,
      ">Process": 1604,
      "current": 1605,
      "_timestamp": 1606,
      "_command": 1607,
      ">Maybe": 1608,
      "Previous": 1609,
      "ig": 1610,
      "Ġten": 1611,
      "ble": 1612,
      "une": 1613,
      "Ġexact": 1614,
      "Ġkg": 1615,
      "ptune": 1616,
      "use": 1617,
      "rb": 1618,
      "Ġun": 1619,
      "px": 1620,
      "inal": 1621,
      "del": 1622,
      "Ġtruth": 1623,
      "Ġstatus": 1624,
      "norm": 1625,
      "main": 1626,
      "ables": 1627,
      "co": 1628,
      "iate": 1629,
      "mediate": 1630,
      "Ġintermediate": 1631,
      "import": 1632,
      "terminal": 1633,
      "Ġing": 1634,
      "redient": 1635,
      "Ġfinished": 1636,
      "Ġused": 1637,
      "Ġvariables": 1638,
      "Ġingredient": 1639,
      ">Chain": 1640,
      "Last": 1641,
      "ans": 1642,
      "Ġmodel": 1643,
      "sp": 1644,
      "ĠJ": 1645,
      "Ġfield": 1646,
      "Ġwhale": 1647,
      "int": 1648,
      ">There": 1649,
      "Ġtell": 1650,
      "...Ċ": 1651,
      "Val": 1652,
      "Ġvol": 1653,
      "vers": 1654,
      "Value": 1655,
      "Ġunit": 1656,
      "ree": 1657,
      "ectron": 1658,
      "training": 1659,
      "yu": 1660,
      "Ġequ": 1661,
      "\\u": 1662,
      "olar": 1663,
      "Ġsol": 1664,
      "ood": 1665,
      "head": 1666,
      "Ġtennis": 1667,
      "cer": 1668,
      "ich": 1669,
      "Ġdetails": 1670,
      "ours": 1671,
      "Ġhours": 1672,
      "ized": 1673,
      "rich": 1674,
      "Ġrest": 1675,
      "Ġretrie": 1676,
      "former": 1677,
      "mosp": 1678,
      "ansformer": 1679,
      "mosphere": 1680,
      "the": 1681,
      "Ġnumbers": 1682,
      "leader": 1683,
      "Ġleader": 1684,
      "Ġretrieved": 1685,
      "yd": 1686,
      "Ġfinalized": 1687,
      "(s": 1688,
      "ution": 1689,
      "ĠS": 1690,
      "Ġstor": 1691,
      "Ġgr": 1692,
      "Ġapply": 1693,
      "Ġstorage": 1694,
      "arth": 1695,
      "Ġatmosphere": 1696,
      "country": 1697,
      "Ġcountry": 1698,
      "Ġmultiplying": 1699,
      "one": 1700,
      "anda": 1701,
      "Tell": 1702,
      "duct": 1703,
      "tribe": 1704,
      "Ġtribe": 1705,
      "Ġga": 1706,
      "):": 1707,
      "jun": 1708,
      "enjun": 1709,
      "chenjun": 1710,
      "Ġhand": 1711,
      "angchenjun": 1712,
      "Ġgiven": 1713,
      "angchenjunga": 1714,
      "_version": 1715,
      "Ġcl": 1716,
      "atest": 1717,
      "Ġlatest": 1718,
      "rope": 1719,
      "Me": 1720,
      "_attention": 1721,
      "language": 1722,
      "ere": 1723,
      "Ġpre": 1724,
      "ĠĠĠĠ": 1725,
      "),": 1726,
      "ump": 1727,
      "Ġprogr": 1728,
      "back": 1729,
      "amming": 1730,
      "Ġprogramming": 1731,
      "Ġ\\": 1732,
      "kal": 1733,
      "Ġwor": 1734,
      "Ġconvers": 1735,
      "Ġconversation": 1736,
      "_head": 1737,
      "nap": 1738,
      "arge": 1739,
      "ris": 1740,
      "agle": 1741,
      "Ġref": 1742,
      "Ġoyu": 1743,
      "urna": 1744,
      "aph": 1745,
      "Ġcharge": 1746,
      "umpback": 1747,
      "napurna": 1748,
      "_norm": 1749,
      "uto": 1750,
      "rest": 1751,
      "assi": 1752,
      "Ġisn": 1753,
      "vice": 1754,
      "device": 1755,
      "Ġbeca": 1756,
      "Ġpanda": 1757,
      "verest": 1758,
      "andard": 1759,
      "Ġgive": 1760,
      "Ġdevice": 1761,
      "kalu": 1762,
      "_heads": 1763,
      "Ġbecause": 1764,
      "qk": 1765,
      "Ġarch": 1766,
      "ance": 1767,
      ".m": 1768,
      "cus": 1769,
      "mic": 1770,
      "Â²": 1771,
      "Time": 1772,
      "caled": 1773,
      "/s": 1774,
      "Out": 1775,
      "Task": 1776,
      "mp": 1777,
      "min": 1778,
      "os": 1779,
      "yball": 1780,
      "ĠOut": 1781,
      "kel": 1782,
      "asketball": 1783,
      "lear": 1784,
      "leyball": 1785,
      "ĠSince": 1786,
      "ĠOutcome": 1787,
      "sult": 1788,
      "omb": 1789,
      "Ġconsult": 1790,
      "Ġdoes": 1791,
      ".md": 1792,
      "Do": 1793,
      "br": 1794,
      "fication": 1795,
      "ia": 1796,
      "ium": 1797,
      "Â·": 1798,
      "âĢ": 1799,
      "uran": 1800,
      "admin": 1801,
      "log": 1802,
      "scripts": 1803,
      "ockey": 1804,
      "Ġclassi": 1805,
      "âĢĻ": 1806,
      "adminton": 1807,
      "Ġclassification": 1808,
      "/rich": 1809,
      "Gr": 1810,
      "zer": 1811,
      "Ġoutcome": 1812,
      "Ġra": 1813,
      "_kv": 1814,
      "\"\"\"": 1815,
      "(log": 1816,
      "ity": 1817,
      "vin": 1818,
      "Ġ`": 1819,
      "olf": 1820,
      "ern": 1821,
      "aslu": 1822,
      "Ġsince": 1823,
      "hapang": 1824,
      "ĠThere": 1825,
      "ammar": 1826,
      "kelvin": 1827,
      "uranus": 1828,
      "hapangma": 1829,
      "Using": 1830,
      "mars": 1831,
      "Ġ|": 1832,
      "ana": 1833,
      "transformer": 1834,
      "Calculation": 1835,
      "Ġgave": 1836,
      "iri": 1837,
      "jar": 1838,
      "len": 1839,
      "tomic": 1840,
      "sed": 1841,
      "ric": 1842,
      "ulag": 1843,
      "owling": 1844,
      "haulag": 1845,
      "Ġstar": 1846,
      "haulagiri": 1847,
      "man": 1848,
      "PE": 1849,
      "af": 1850,
      "ier": 1851,
      "mer": 1852,
      "oPE": 1853,
      "Ġrespon": 1854,
      "olo": 1855,
      "Ġnail": 1856,
      "Ġrecall": 1857,
      "Ġmost": 1858,
      "ources": 1859,
      "lue": 1860,
      "cussion": 1861,
      "Ġrespond": 1862,
      ")Ċ": 1863,
      "Data": 1864,
      "_lo": 1865,
      "ding": 1866,
      "ress": 1867,
      "Ġeagle": 1868,
      "Ġlist": 1869,
      "_loss": 1870,
      "(r": 1871,
      "Norm": 1872,
      "gen": 1873,
      "Ġvi": 1874,
      "ong": 1875,
      "sition": 1876,
      "Ġway": 1877,
      "Ġoper": 1878,
      "Ġbest": 1879,
      "berg": 1880,
      "Ġsolution": 1881,
      "ydberg": 1882,
      ")\"}}Ċ": 1883,
      "Ġsources": 1884,
      "percussion": 1885,
      "cho": 1886,
      "Ġpo": 1887,
      "Ġneptune": 1888,
      "Ġchange": 1889,
      "neptune": 1890,
      "Ġmake": 1891,
      "-e": 1892,
      ".r": 1893,
      "/train": 1894,
      "\\\\": 1895,
      "ease": 1896,
      "ki": 1897,
      "ustr": 1898,
      "Ġtor": 1899,
      "aturn": 1900,
      "Ġremain": 1901,
      "cket": 1902,
      "Ġplease": 1903,
      "Ġsection": 1904,
      "phant": 1905,
      "Ġstarting": 1906,
      "(root": 1907,
      "Ġoperation": 1908,
      "ustrali": 1909,
      "Here": 1910,
      "izer": 1911,
      "ĠK": 1912,
      "product": 1913,
      "oulomb": 1914,
      "Ġhockey": 1915,
      "kenizer": 1916,
      "hind": 1917,
      "ray": 1918,
      "Ġred": 1919,
      "iman": 1920,
      "tio": 1921,
      "ins": 1922,
      "ork": 1923,
      "ectric": 1924,
      "Ġdr": 1925,
      "Ġlight": 1926,
      "Ġmultiplier": 1927,
      "iliman": 1928,
      "ican": 1929,
      "Ġratio": 1930,
      "jaro": 1931,
      "ilimanjaro": 1932,
      "_rope": 1933,
      "od": 1934,
      "uc": 1935,
      "ĠMe": 1936,
      "Ġmars": 1937,
      "Ġsa": 1938,
      "Ġdol": 1939,
      "mpty": 1940,
      "ĠMeV": 1941,
      "/n": 1942,
      ">User": 1943,
      "ft": 1944,
      "umin": 1945,
      "otes": 1946,
      "iraf": 1947,
      "Ġran": 1948,
      "cond": 1949,
      "Ġtrain": 1950,
      "Ġremaining": 1951,
      "/notes": 1952,
      "iraffe": 1953,
      "Found": 1954,
      "Ġhis": 1955,
      "ark": 1956,
      "Ġbowling": 1957,
      "Ġeverest": 1958,
      "Ġshared": 1959,
      "Ġstate": 1960,
      "electron": 1961,
      "Ġtraining": 1962,
      "Ġhistory": 1963,
      "/pro": 1964,
      "_product": 1965,
      "gress": 1966,
      "hot": 1967,
      "pin": 1968,
      "ry": 1969,
      "ume": 1970,
      "ĠRead": 1971,
      "ald": 1972,
      "rig": 1973,
      "ates": 1974,
      "Ġind": 1975,
      "agne": 1976,
      "upiter": 1977,
      "ott": 1978,
      "test": 1979,
      "Ġvalidated": 1980,
      "_dot": 1981,
      "Ġvolume": 1982,
      "ustralian": 1983,
      "/progress": 1984,
      "hotse": 1985,
      "ĠReady": 1986,
      "ack": 1987,
      "pi": 1988,
      "rain": 1989,
      "Ġbo": 1990,
      "Ġlet": 1991,
      "Ġelectron": 1992,
      "Ġdirect": 1993,
      "Work": 1994,
      "about": 1995,
      "ccer": 1996,
      "soc": 1997,
      "Ġkelvin": 1998,
      "print": 1999,
      "ater": 2000,
      "Ġbehind": 2001,
      "Ġpolo": 2002,
      "Ġsoccer": 2003,
      "phin": 2004,
      "Calculate": 2005,
      "rigins": 2006,
      "soccer": 2007,
      "That": 2008,
      "vant": 2009,
      "Ġnon": 2010,
      "Ġclear": 2011,
      "strained": 2012,
      "Ġrele": 2013,
      "Ġmoon": 2014,
      "erring": 2015,
      "Ġwhich": 2016,
      "constrained": 2017,
      "ĠĠĠ": 2018,
      "Ġreferring": 2019,
      "-empty": 2020,
      "Ġdolphin": 2021,
      "Ġrelevant": 2022,
      "',": 2023,
      "ah": 2024,
      "go": 2025,
      "hine": 2026,
      "ĠValue": 2027,
      "riz": 2028,
      "Ġtoken": 2029,
      "ules": 2030,
      "Ġreli": 2031,
      "Ġrules": 2032,
      "Enco": 2033,
      "Ġtable": 2034,
      "Grammar": 2035,
      "lenose": 2036,
      "ottlenose": 2037,
      "gi": 2038,
      "gard": 2039,
      "Ġ(": 2040,
      "Ġ=": 2041,
      "Ġti": 2042,
      "ctual": 2043,
      "Ġactual": 2044,
      "Ġregard": 2045,
      "Ġresults": 2046,
      "apply": 2047,
      "Ġgiant": 2048,
      "igure": 2049,
      "Ġreliable": 2050,
      "Ġregarding": 2051,
      "``": 2052,
      "iger": 2053,
      "kes": 2054,
      "ming": 2055,
      "pa": 2056,
      "tze": 2057,
      "olved": 2058,
      "enti": 2059,
      "cricket": 2060,
      "Ġinto": 2061,
      "Ġinser": 2062,
      "Ġresolved": 2063,
      "cken": 2064,
      "Ġcompl": 2065,
      "angtze": 2066,
      "elic": 2067,
      "Ġequal": 2068,
      "ftball": 2069,
      "Ġinsert": 2070,
      "))\"}}Ċ": 2071,
      "MS": 2072,
      "ON": 2073,
      "SON": 2074,
      "kangchenjunga": 2075,
      "Ġearth": 2076,
      "Ġshow": 2077,
      "vered": 2078,
      "Ġprovides": 2079,
      "Ġkangchenjunga": 2080,
      "Ġstandard": 2081,
      "ĠJSON": 2082,
      "cling": 2083,
      "gle": 2084,
      "pend": 2085,
      "polar": 2086,
      "so": 2087,
      "tal": 2088,
      "zie": 2089,
      "Ġ\"\"\"": 2090,
      "arate": 2091,
      "imple": 2092,
      "quash": 2093,
      "urray": 2094,
      "Ġpolar": 2095,
      "loth": 2096,
      "Ġaccurately": 2097,
      "amus": 2098,
      "ĠRoPE": 2099,
      "Ġgives": 2100,
      "uminous": 2101,
      "Ġdirectly": 2102,
      "ckenzie": 2103,
      "-to": 2104,
      "_agent": 2105,
      "du": 2106,
      "earth": 2107,
      "og": 2108,
      "scaled": 2109,
      "wood": 2110,
      "\",Ċ": 2111,
      "proton": 2112,
      "chat": 2113,
      "Ġproton": 2114,
      "Ġcomplex": 2115,
      "-pin": 2116,
      "car": 2117,
      "eur": 2118,
      "hn": 2119,
      "jo": 2120,
      "land": 2121,
      "pu": 2122,
      "sse": 2123,
      "ssist": 2124,
      "uction": 2125,
      "ym": 2126,
      "âģ": 2127,
      "Ġz": 2128,
      "Ġimport": 2129,
      "are": 2130,
      "unt": 2131,
      "antum": 2132,
      "antGrammar": 2133,
      "Ġtotal": 2134,
      "edding": 2135,
      "Ġcour": 2136,
      "Ġtree": 2137,
      "Ġproble": 2138,
      "Ġmount": 2139,
      "Ġmeth": 2140,
      "mbedding": 2141,
      "Ġquantum": 2142,
      "Ġinstruction": 2143,
      "euro": 2144,
      "ssistantGrammar": 2145,
      "Ġproblem": 2146,
      "/chat": 2147,
      "av": 2148,
      "dataset": 2149,
      "humpback": 2150,
      "ial": 2151,
      "ttention": 2152,
      "that": 2153,
      "annapurna": 2154,
      "argest": 2155,
      "Ġannapurna": 2156,
      "sure": 2157,
      "Ġhumpback": 2158,
      "Ġattention": 2159,
      "Ġcho": 2160,
      ")<|": 2161,
      "/constrained": 2162,
      "Call": 2163,
      "kon": 2164,
      "lood": 2165,
      "speed": 2166,
      "wo": 2167,
      "zly": 2168,
      "ĠL": 2169,
      "impan": 2170,
      "arts": 2171,
      "ames": 2172,
      "Ġatomic": 2173,
      "Ġsort": 2174,
      "Ġcame": 2175,
      "Ġblood": 2176,
      "etah": 2177,
      "makalu": 2178,
      "Ġresist": 2179,
      "Ġbeen": 2180,
      "ico": 2181,
      "Ġsecond": 2182,
      "zee": 2183,
      "Ġmakalu": 2184,
      "Ġmakes": 2185,
      "ality": 2186,
      "Ġvia": 2187,
      "rizzly": 2188,
      "Calling": 2189,
      "impanzee": 2190,
      "Ġresistance": 2191,
      "/attention": 2192,
      "Multi": 2193,
      "ers": 2194,
      "Ġco": 2195,
      "pluto": 2196,
      "Ġpluto": 2197,
      "Ġequation": 2198,
      "Ġprecise": 2199,
      "/k": 2200,
      ">Last": 2201,
      "basketball": 2202,
      "ji": 2203,
      "mount": 2204,
      "odo": 2205,
      "ube": 2206,
      "xico": 2207,
      "ĠC": 2208,
      "ency": 2209,
      "anube": 2210,
      "Ġmagne": 2211,
      "Ġbasketball": 2212,
      "omodo": 2213,
      "agon": 2214,
      "utron": 2215,
      "Ġlayer": 2216,
      "vity": 2217,
      "Ġmean": 2218,
      "Ġmeters": 2219,
      "illi": 2220,
      "cel": 2221,
      "adi": 2222,
      "Compu": 2223,
      "volleyball": 2224,
      "Ġgas": 2225,
      "ards": 2226,
      "Ġcontext": 2227,
      "Ġperforming": 2228,
      "Ġvolleyball": 2229,
      "âĢĻd": 2230,
      "Ġdragon": 2231,
      "âģ»": 2232,
      "/kg": 2233,
      "illiards": 2234,
      "Computing": 2235,
      "_b": 2236,
      "badminton": 2237,
      "ick": 2238,
      "Ġpar": 2239,
      "Ġthese": 2240,
      "Ġbadminton": 2241,
      "Ġdatabase": 2242,
      "Ġelectric": 2243,
      "amer": 2244,
      "/dataset": 2245,
      "ban": 2246,
      "ked": 2247,
      "mit": 2248,
      "shis": 2249,
      "table": 2250,
      "wind": 2251,
      "ĠF": 2252,
      "Ġuranus": 2253,
      "imate": 2254,
      "ention": 2255,
      "anck": 2256,
      "sia": 2257,
      "sius": 2258,
      "una": 2259,
      "Ġaver": 2260,
      "ishapangma": 2261,
      "Ġcol": 2262,
      "Ġtuna": 2263,
      "urling": 2264,
      "Ġexec": 2265,
      "Ġshishapangma": 2266,
      "Ġmanaslu": 2267,
      "rogen": 2268,
      "rosse": 2269,
      "ĠRMS": 2270,
      "ipp": 2271,
      "Ġallow": 2272,
      "(no": 2273,
      "ydrogen": 2274,
      "Ġhandle": 2275,
      "âĢĻs": 2276,
      "manaslu": 2277,
      "Ġnails": 2278,
      "luefin": 2279,
      "shishapangma": 2280,
      "Ġaverage": 2281,
      "Attention": 2282,
      "dhaulagiri": 2283,
      "hydrogen": 2284,
      "lar": 2285,
      "ner": 2286,
      "ub": 2287,
      "standard": 2288,
      "ulation": 2289,
      "che": 2290,
      "Ġdhaulagiri": 2291,
      "Ġlargest": 2292,
      "trol": 2293,
      "graph": 2294,
      "tennis": 2295,
      "rack": 2296,
      "Ġgraph": 2297,
      "Ġprepar": 2298,
      "ĠĠĠĠĠĠĠĠ": 2299,
      "giant": 2300,
      "Ġcomplexity": 2301,
      "Ġexecution": 2302,
      "'m": 2303,
      ",Ċ": 2304,
      "/rope": 2305,
      "don": 2306,
      "date": 2307,
      "ise": 2308,
      "kine": 2309,
      "mis": 2310,
      "nook": 2311,
      "nast": 2312,
      "uch": 2313,
      "uil": 2314,
      "Â°": 2315,
      "Ġtin": 2316,
      "tori": 2317,
      "toise": 2318,
      "ane": 2319,
      "ascal": 2320,
      "Ġair": 2321,
      "Ġmuch": 2322,
      "ison": 2323,
      "Ġsound": 2324,
      "Ġscaled": 2325,
      "Ġspa": 2326,
      "Ġfing": 2327,
      "Ġcoulomb": 2328,
      "Ġluminous": 2329,
      "Ġmess": 2330,
      "extEnco": 2331,
      "ics": 2332,
      "oph": 2333,
      "Ġheli": 2334,
      "baseball": 2335,
      "bee": 2336,
      "Ġgra": 2337,
      "Ġbaseball": 2338,
      "acy": 2339,
      "Ġunder": 2340,
      "ernail": 2341,
      "/trainer": 2342,
      "Ġtortoise": 2343,
      "Ġrankine": 2344,
      "nooker": 2345,
      "nastics": 2346,
      "Ġfingernail": 2347,
      "extEncoder": 2348,
      "Ġhelium": 2349,
      "'.<|": 2350,
      "mol": 2351,
      "ransformer": 2352,
      "rydberg": 2353,
      "Ġid": 2354,
      "tokenizer": 2355,
      "Ġcy": 2356,
      "Ġte": 2357,
      "plied": 2358,
      "Ġproces": 2359,
      "Ġrydberg": 2360,
      "ĠAssistantGrammar": 2361,
      "Ġreported": 2362,
      "Ġtelling": 2363,
      "Memory": 2364,
      "entif": 2365,
      "woodwind": 2366,
      "Ġtiny": 2367,
      "Ġidentif": 2368,
      "Ġprocessed": 2369,
      "/(": 2370,
      "/agent": 2371,
      ">Previous": 2372,
      "\\n": 2373,
      "col": 2374,
      "ele": 2375,
      "lki": 2376,
      "ppi": 2377,
      "saturn": 2378,
      "uji": 2379,
      "vate": 2380,
      "we": 2381,
      "wi": 2382,
      "zon": 2383,
      "imming": 2384,
      "tivate": 2385,
      "sippi": 2386,
      "Ġtoe": 2387,
      "Ġtolki": 2388,
      "Ġsaturn": 2389,
      "Ġfris": 2390,
      "Ġfuji": 2391,
      "Ġdays": 2392,
      "mazon": 2393,
      "Ġrepresent": 2394,
      "Ġsub": 2395,
      "ultimate": 2396,
      "otamus": 2397,
      "Ġcompute": 2398,
      "ebra": 2399,
      "opotamus": 2400,
      "Ġactivate": 2401,
      "sissippi": 2402,
      "Ġelephant": 2403,
      "Ġworth": 2404,
      "Ġcourt": 2405,
      "banana": 2406,
      "ippopotamus": 2407,
      "elephant": 2408,
      "Ġtolkien": 2409,
      "Ġfrisbee": 2410,
      "Result": 2411,
      "australian": 2412,
      "ccess": 2413,
      "king": 2414,
      "kilimanjaro": 2415,
      "ense": 2416,
      "Ġmask": 2417,
      "Ġmention": 2418,
      "Ġsw": 2419,
      "Ġreality": 2420,
      "Ġoffic": 2421,
      "Ġresulted": 2422,
      "Ġpi": 2423,
      "Ġpascal": 2424,
      "Ġkilimanjaro": 2425,
      "Ġdeli": 2426,
      "Ġhar": 2427,
      "Ġprint": 2428,
      "Ġunco": 2429,
      "Ġofficial": 2430,
      "Ġdeliver": 2431,
      "Ġuncovered": 2432,
      "/norm": 2433,
      "In": 2434,
      "atomic": 2435,
      "fly": 2436,
      "giraffe": 2437,
      "ker": 2438,
      "pha": 2439,
      "Ġqk": 2440,
      "ert": 2441,
      "eration": 2442,
      "eso": 2443,
      "Ġthey": 2444,
      "rice": 2445,
      "Ġsummary": 2446,
      "Ġsense": 2447,
      "terfly": 2448,
      "Ġembedding": 2449,
      "archive": 2450,
      "Ġpeso": 2451,
      "ache": 2452,
      "Ġconduct": 2453,
      "Ġdepend": 2454,
      "position": 2455,
      "Ġgiraffe": 2456,
      "control": 2457,
      "Ġrefers": 2458,
      "Ġarchive": 2459,
      "brass": 2460,
      "Â·K": 2461,
      "Ġtorch": 2462,
      "Ġstatement": 2463,
      "Ġmethod": 2464,
      "ophone": 2465,
      "controls": 2466,
      "/test": 2467,
      "He": 2468,
      "coulomb": 2469,
      "jupiter": 2470,
      "lhotse": 2471,
      "zation": 2472,
      "Ġsend": 2473,
      "Ġspl": 2474,
      "Ġlhotse": 2475,
      "upport": 2476,
      "vert": 2477,
      "adAttention": 2478,
      "Ġjupiter": 2479,
      "Querying": 2480,
      "Ġshark": 2481,
      "alization": 2482,
      "shark": 2483,
      "john": 2484,
      "MultiHe": 2485,
      "Ġspace": 2486,
      "MultiHeadAttention": 2487,
      "/tools": 2488,
      "Figure": 2489,
      "niger": 2490,
      "origins": 2491,
      "water": 2492,
      "strich": 2493,
      "inary": 2494,
      "sic": 2495,
      "rian": 2496,
      "Ġwater": 2497,
      "Ġsay": 2498,
      "Ġcell": 2499,
      "Ġtwo": 2500,
      "Ġneeds": 2501,
      "ages": 2502,
      "Ġrel": 2503,
      "Ġorigins": 2504,
      "Ġcomposition": 2505,
      "icate": 2506,
      "Ġro": 2507,
      "anges": 2508,
      "istan": 2509,
      "acency": 2510,
      "versal": 2511,
      "Ġposition": 2512,
      "Ġmagneton": 2513,
      "ubble": 2514,
      "Ġmessages": 2515,
      "Ġpascals": 2516,
      "Ġconducted": 2517,
      "/b": 2518,
      ">Using": 2519,
      "Block": 2520,
      "Wh": 2521,
      "bottlenose": 2522,
      "dates": 2523,
      "everest": 2524,
      "gu": 2525,
      "rue": 2526,
      "rhine": 2527,
      "ta": 2528,
      "ted": 2529,
      "ĠQ": 2530,
      "Ġpeople": 2531,
      "alking": 2532,
      "pect": 2533,
      "Ġamer": 2534,
      "Ġaustralian": 2535,
      "Ġtalking": 2536,
      "Ġbottlenose": 2537,
      "Ġrefe": 2538,
      "Ġexpect": 2539,
      "ility": 2540,
      "Ġupdates": 2541,
      "ĠTextEncoder": 2542,
      "Ġlooking": 2543,
      "Ġlinked": 2544,
      "Ġplanck": 2545,
      "Ġrhine": 2546,
      "Ġquick": 2547,
      "Ġsolid": 2548,
      "american": 2549,
      "ransformerBlock": 2550,
      "upports": 2551,
      "Which": 2552,
      "Ġamerican": 2553,
      "(d": 2554,
      "-me": 2555,
      ">Time": 2556,
      "Count": 2557,
      "avi": 2558,
      "bon": 2559,
      "bald": 2560,
      "cu": 2561,
      "cure": 2562,
      "fish": 2563,
      "field": 2564,
      "gg": 2565,
      "ical": 2566,
      "ian": 2567,
      "james": 2568,
      "let": 2569,
      "tation": 2570,
      "tree": 2571,
      "xy": 2572,
      "yell": 2573,
      "yangtze": 2574,
      "Ġcricket": 2575,
      "tocol": 2576,
      "olin": 2577,
      "mexico": 2578,
      "Ġthree": 2579,
      "anc": 2580,
      "anne": 2581,
      "obert": 2582,
      "Ġca": 2583,
      "Ġba": 2584,
      "Ġbald": 2585,
      "eedFor": 2586,
      "Ġeffic": 2587,
      "Ġprodu": 2588,
      "Ġprotocol": 2589,
      "Ġpop": 2590,
      "llow": 2591,
      "ceCom": 2592,
      "hello": 2593,
      "poser": 2594,
      "Ġyangtze": 2595,
      "Ġsoftball": 2596,
      "Ġyellow": 2597,
      "Ġlocation": 2598,
      "raceCom": 2599,
      "gaelic": 2600,
      "used": 2601,
      "Ġgaelic": 2602,
      "uclear": 2603,
      "Ġsafe": 2604,
      "Ġmoons": 2605,
      "softball": 2606,
      "tational": 2607,
      "yellow": 2608,
      "eedForward": 2609,
      "Ġefficacy": 2610,
      "Ġpopulation": 2611,
      "raceComposer": 2612,
      "-head": 2613,
      "-date": 2614,
      ".\"\"\"": 2615,
      "/C": 2616,
      ">An": 2617,
      "Res": 2618,
      "Where": 2619,
      "by": 2620,
      "correct": 2621,
      "hr": 2622,
      "ide": 2623,
      "karate": 2624,
      "murray": 2625,
      "nile": 2626,
      "squash": 2627,
      "sloth": 2628,
      "wn": 2629,
      "Â¹": 2630,
      "side": 2631,
      "ponse": 2632,
      "Ġmurray": 2633,
      "Ġscal": 2634,
      "Ġsquash": 2635,
      "Ġsloth": 2636,
      "Ġnile": 2637,
      "Ġfigure": 2638,
      "Ġcr": 2639,
      "Ġincorrect": 2640,
      "mackenzie": 2641,
      "Ġown": 2642,
      "ĠToolbox": 2643,
      "ird": 2644,
      "Ġkarate": 2645,
      "Ġhead": 2646,
      "Ġgo": 2647,
      "cycling": 2648,
      "Ġmackenzie": 2649,
      "electric": 2650,
      "Ġwants": 2651,
      "Â·m": 2652,
      "Â·s": 2653,
      "Ġboth": 2654,
      "uild": 2655,
      "Ġcycling": 2656,
      "Ġbasic": 2657,
      "Response": 2658,
      ".scaled": 2659,
      "/f": 2660,
      "/m": 2661,
      "RoPE": 2662,
      "Track": 2663,
      "echo": 2664,
      "ff": 2665,
      "hand": 2666,
      "ias": 2667,
      "iversal": 2668,
      "jose": 2669,
      "mun": 2670,
      "netball": 2671,
      "nuclear": 2672,
      "sures": 2673,
      "tan": 2674,
      "tur": 2675,
      "Î©": 2676,
      "Ġed": 2677,
      "Ġpres": 2678,
      "ĠMultiHeadAttention": 2679,
      "ĠÎ©": 2680,
      "ara": 2681,
      "arn": 2682,
      "ina": 2683,
      "ressed": 2684,
      "Ġtheor": 2685,
      "proach": 2686,
      "Ġnetball": 2687,
      "Ġniger": 2688,
      "Ġcere": 2689,
      "outh": 2690,
      "ings": 2691,
      "Ġbal": 2692,
      "Ġbig": 2693,
      "Ġbrain": 2694,
      "Ġbias": 2695,
      "Ġinclu": 2696,
      "Ġaddressed": 2697,
      "Ġreally": 2698,
      "Ġlord": 2699,
      "oop": 2700,
      "Ġcommun": 2701,
      "Ġdose": 2702,
      "Ġru": 2703,
      "Ġrings": 2704,
      "Ġaccel": 2705,
      "Ġensures": 2706,
      "cury": 2707,
      "board": 2708,
      "volt": 2709,
      "Ġvalidation": 2710,
      "Ġapproach": 2711,
      "Ġgrammar": 2712,
      "Ġ``": 2713,
      "ernest": 2714,
      "rainer": 2715,
      "','": 2716,
      "-token": 2717,
      "ĠRMSNorm": 2718,
      "Ġallowed": 2719,
      "Ġproduces": 2720,
      "Tracks": 2721,
      "Ġpressure": 2722,
      "Ġtheory": 2723,
      "Ġacceleration": 2724,
      ">Here": 2725,
      "Che": 2726,
      "darts": 2727,
      "grizzly": 2728,
      "hen": 2729,
      "rus": 2730,
      "ukon": 2731,
      "alog": 2732,
      "seq": 2733,
      "quare": 2734,
      "chimpanzee": 2735,
      "Ġefficient": 2736,
      "Ġneeding": 2737,
      "Ġinside": 2738,
      "Ġdarts": 2739,
      "Ġcheetah": 2740,
      "ayerNorm": 2741,
      "Ġensure": 2742,
      "Ġyukon": 2743,
      "Ġdialog": 2744,
      "Ġgrizzly": 2745,
      "abb": 2746,
      "Ġrecent": 2747,
      "Ġchimpanzee": 2748,
      "neutron": 2749,
      "Ġvariable": 2750,
      "yukon": 2751,
      "cheetah": 2752,
      "Ġdepends": 2753,
      "Ġquickly": 2754,
      "Check": 2755,
      "Ġdialogue": 2756,
      "/tokenizer": 2757,
      ">Task": 2758,
      "Clock": 2759,
      "Des": 2760,
      "It": 2761,
      "To": 2762,
      "_en": 2763,
      "ape": 2764,
      "billiards": 2765,
      "danube": 2766,
      "from": 2767,
      "fig": 2768,
      "golf": 2769,
      "ies": 2770,
      "komodo": 2771,
      "mper": 2772,
      "mark": 2773,
      "nected": 2774,
      "text": 2775,
      "way": 2776,
      "xing": 2777,
      "yle": 2778,
      "arli": 2779,
      "tiger": 2780,
      "als": 2781,
      "ped": 2782,
      "ument": 2783,
      "ush": 2784,
      "ria": 2785,
      "Ġwc": 2786,
      "produ": 2787,
      "att": 2788,
      "Ġfetch": 2789,
      "Ġcel": 2790,
      "Ġbilliards": 2791,
      "Ġdanube": 2792,
      "mamm": 2793,
      "Ġlion": 2794,
      "keyboard": 2795,
      "Ġshape": 2796,
      "Ġbel": 2797,
      "Ġpen": 2798,
      "Ġpot": 2799,
      "ĠTransformerBlock": 2800,
      "Ġconnected": 2801,
      "Ġkomodo": 2802,
      "boxing": 2803,
      "lion": 2804,
      "loris": 2805,
      "Ġweight": 2806,
      "Ġjust": 2807,
      "Ġconfirms": 2808,
      "Ġgolf": 2809,
      "Ġgland": 2810,
      "apple": 2811,
      "Ġloris": 2812,
      "Ġtra": 2813,
      "Ġvs": 2814,
      "udi": 2815,
      "Ġworst": 2816,
      "kiwi": 2817,
      "Ġboxing": 2818,
      "Ġtiger": 2819,
      "Ġgravity": 2820,
      "Ġharp": 2821,
      "Ġsplit": 2822,
      "Ġrelay": 2823,
      "Ġexpectations": 2824,
      "Ġscale": 2825,
      "Ġcommunicate": 2826,
      "Describe": 2827,
      "Tokenizer": 2828,
      "_enco": 2829,
      "Ġcelsius": 2830,
      "mammal": 2831,
      "(\"": 2832,
      "=[": 2833,
      "_l": 2834,
      "_we": 2835,
      "ak": 2836,
      "ace": 2837,
      "bluefin": 2838,
      "cf": 2839,
      "crosse": 2840,
      "clar": 2841,
      "eagle": 2842,
      "fully": 2843,
      "hurling": 2844,
      "radi": 2845,
      "Ġall": 2846,
      "ĠÂ°": 2847,
      "inting": 2848,
      "ponents": 2849,
      "Ġcase": 2850,
      "Ġbluefin": 2851,
      "parse": 2852,
      "Ġlon": 2853,
      "Ġlac": 2854,
      "archery": 2855,
      "Ġph": 2856,
      "ĠTraceComposer": 2857,
      "ights": 2858,
      "Ġcomponents": 2859,
      "Ġko": 2860,
      "Ġcorrectly": 2861,
      "Ġset": 2862,
      "Ġneutron": 2863,
      "lacrosse": 2864,
      "Ġhurling": 2865,
      "ability": 2866,
      "gram": 2867,
      "Ġlead": 2868,
      "(sum": 2869,
      "Ġarchery": 2870,
      "Ġpointing": 2871,
      "ĠFeedForward": 2872,
      "Ġprepared": 2873,
      "mission": 2874,
      "Ġidentify": 2875,
      "Ġreferen": 2876,
      "_weights": 2877,
      "Ġlacrosse": 2878,
      ".ap": 2879,
      "/text": 2880,
      "Base": 2881,
      "Hg": 2882,
      "True": 2883,
      "['": 2884,
      "__": 2885,
      "`Ċ": 2886,
      "bla": 2887,
      "den": 2888,
      "dan": 2889,
      "evert": 2890,
      "egg": 2891,
      "goo": 2892,
      "ival": 2893,
      "ices": 2894,
      "ido": 2895,
      "ks": 2896,
      "kistan": 2897,
      "lophone": 2898,
      "mnastics": 2899,
      "oac": 2900,
      "robert": 2901,
      "sup": 2902,
      "snooker": 2903,
      "tmp": 2904,
      "uous": 2905,
      "wolf": 2906,
      "ye": 2907,
      "Ġet": 2908,
      "olate": 2909,
      "stand": 2910,
      "entin": 2911,
      "tized": 2912,
      "tivity": 2913,
      "inet": 2914,
      "second": 2915,
      "argentin": 2916,
      "Ġam": 2917,
      "Ġamor": 2918,
      "Ġaust": 2919,
      "Ġwolf": 2920,
      "orn": 2921,
      "Ġmol": 2922,
      "Ġmin": 2923,
      "Ġsnooker": 2924,
      "Ġnorm": 2925,
      "Ġfused": 2926,
      "Ġcar": 2927,
      "Ġtest": 2928,
      "chi": 2929,
      "Ġbra": 2930,
      "parana": 2931,
      "ticle": 2932,
      "ĠTrainer": 2933,
      "formed": 2934,
      "cell": 2935,
      "Ġcongo": 2936,
      "adro": 2937,
      "Looking": 2938,
      "Ġlookup": 2939,
      "its": 2940,
      "Ġkron": 2941,
      "Ġdef": 2942,
      "ssum": 2943,
      "Ġquich": 2944,
      "aint": 2945,
      "Ġgu": 2946,
      "Ġgos": 2947,
      "Ġgym": 2948,
      "iel": 2949,
      "Ġcontinuous": 2950,
      "congo": 2951,
      "actori": 2952,
      "indone": 2953,
      "Ġchoc": 2954,
      "necessary": 2955,
      "Ġvan": 2956,
      "Ġadjacency": 2957,
      "gymnastics": 2958,
      "Ġunnecessary": 2959,
      "Ġequival": 2960,
      "Ġhandball": 2961,
      "ongs": 2962,
      "Ġdrum": 2963,
      "Ġindices": 2964,
      "acks": 2965,
      "printf": 2966,
      "Encodes": 2967,
      "ogadro": 2968,
      "carbon": 2969,
      "ava": 2970,
      "ĠLayerNorm": 2971,
      "Ġcovered": 2972,
      "celsius": 2973,
      "Ġparana": 2974,
      "Ġparticle": 2975,
      "tories": 2976,
      "Ġunderstand": 2977,
      "Ġrepresentations": 2978,
      "Ġsubmission": 2979,
      "Ġrossum": 2980,
      "guido": 2981,
      "xylophone": 2982,
      "handball": 2983,
      "Ġedge": 2984,
      "produce": 2985,
      "Ġbelongs": 2986,
      "_encoder": 2987,
      ".append": 2988,
      "Based": 2989,
      "eggs": 2990,
      "google": 2991,
      "oactivity": 2992,
      "supplied": 2993,
      "Ġamortized": 2994,
      "Ġkrone": 2995,
      "Ġquiche": 2996,
      "Ġgosling": 2997,
      "Ġgymnastics": 2998,
      "actorial": 2999,
      "Ġchocolate": 3000,
      "Ġequivalent": 3001,
      ".get": 3002,
      "/K": 3003,
      "/T": 3004,
      "/transformer": 3005,
      "=cf": 3006,
      ">Value": 3007,
      ">Calculation": 3008,
      ">Data": 3009,
      "Ok": 3010,
      "];": 3011,
      "amazon": 3012,
      "blue": 3013,
      "cr": 3014,
      "hippopotamus": 3015,
      "vent": 3016,
      "zebra": 3017,
      "Ġimple": 3018,
      "Ġultimate": 3019,
      "old": 3020,
      "tie": 3021,
      "tiber": 3022,
      "alpha": 3023,
      "seine": 3024,
      "Ġamazon": 3025,
      "Ġtoday": 3026,
      "Ġsimple": 3027,
      "Ġflu": 3028,
      "Ġcache": 3029,
      "Ġblue": 3030,
      "Ġbinary": 3031,
      "Ġsuccess": 3032,
      "Ġmultiplied": 3033,
      "Ġpound": 3034,
      "own": 3035,
      "swimming": 3036,
      "itect": 3037,
      "Ġseine": 3038,
      "Ġradi": 3039,
      "Ġcalculating": 3040,
      "Ġwell": 3041,
      "volga": 3042,
      "Ġhippopotamus": 3043,
      "Ġgen": 3044,
      "aps": 3045,
      "Ġyear": 3046,
      "Ġmississippi": 3047,
      "indus": 3048,
      "Ġapplied": 3049,
      "...<|": 3050,
      "Ġvolga": 3051,
      "),Ċ": 3052,
      "Ġarchitect": 3053,
      "Grabb": 3054,
      "ĠKV": 3055,
      "Ġindus": 3056,
      "Ġtiber": 3057,
      "ential": 3058,
      "Ġzebra": 3059,
      "mississippi": 3060,
      "Â°C": 3061,
      "Ġswimming": 3062,
      "Ġcause": 3063,
      "Checking": 3064,
      "Ġpotential": 3065,
      "=cfg": 3066,
      "Okay": 3067,
      "Ġsuccessfully": 3068,
      "Grabbing": 3069,
      "']": 3070,
      "(f": 3071,
      ",\"": 3072,
      "-s": 3073,
      "-ch": 3074,
      "//": 3075,
      "/M": 3076,
      ">Calling": 3077,
      ">Computing": 3078,
      "Access": 3079,
      "Mg": 3080,
      "Root": 3081,
      "Scal": 3082,
      "Simple": 3083,
      "Ti": 3084,
      "Un": 3085,
      "ating": 3086,
      "but": 3087,
      "bra": 3088,
      "bison": 3089,
      "bird": 3090,
      "cl": 3091,
      "ctor": 3092,
      "di": 3093,
      "eks": 3094,
      "fil": 3095,
      "four": 3096,
      "gan": 3097,
      "ged": 3098,
      "her": 3099,
      "jet": 3100,
      "lvi": 3101,
      "nn": 3102,
      "nood": 3103,
      "oe": 3104,
      "ox": 3105,
      "pc": 3106,
      "spl": 3107,
      "tz": 3108,
      "Ġve": 3109,
      "toy": 3110,
      "ones": 3111,
      "oltz": 3112,
      "imal": 3113,
      "ena": 3114,
      "titan": 3115,
      "Ġthought": 3116,
      "sium": 3117,
      "ungle": 3118,
      "Ġab": 3119,
      "rix": 3120,
      "Ġtols": 3121,
      "orge": 3122,
      "Ġmar": 3123,
      "ull": 3124,
      "ature": 3125,
      "Ġangle": 3126,
      "Ġtale": 3127,
      "chema": 3128,
      "Ġbison": 3129,
      "plies": 3130,
      "ĠeV": 3131,
      "Ġemit": 3132,
      "mad": 3133,
      "atelet": 3134,
      "Ġorgan": 3135,
      "Ġlym": 3136,
      "Ġexce": 3137,
      "Ġmexico": 3138,
      "otlin": 3139,
      "ado": 3140,
      "iron": 3141,
      "itar": 3142,
      "Ġperformed": 3143,
      "Ġkid": 3144,
      "Ġplatelet": 3145,
      "mbod": 3146,
      "poker": 3147,
      "geon": 3148,
      "george": 3149,
      "Ġdiving": 3150,
      "lision": 3151,
      "like": 3152,
      "Ġweeks": 3153,
      "leo": 3154,
      "Ġjungle": 3155,
      "Ġgain": 3156,
      "Ġmatrix": 3157,
      "Ġbutterfly": 3158,
      "Ġdocument": 3159,
      "Ġhelena": 3160,
      "united": 3161,
      "cambod": 3162,
      "Ġtrack": 3163,
      "ney": 3164,
      "ugby": 3165,
      "udal": 3166,
      "Ġadvent": 3167,
      "Ġapplies": 3168,
      "Ġlearn": 3169,
      "reece": 3170,
      "Timestamp": 3171,
      "/sparse": 3172,
      "brum": 3173,
      "brains": 3174,
      "mann": 3175,
      "Ġpoker": 3176,
      "uced": 3177,
      "Ġtokens": 3178,
      "carry": 3179,
      "Ġmethane": 3180,
      "mitted": 3181,
      "Ġcollision": 3182,
      "Ġprepare": 3183,
      "Ġtemper": 3184,
      "Ġidentified": 3185,
      "Ġrepresentation": 3186,
      "Ġsubmitted": 3187,
      "Ġcells": 3188,
      "-mean": 3189,
      "anced": 3190,
      "annel": 3191,
      "/mla": 3192,
      "Ġcerebrum": 3193,
      "Ġbalanced": 3194,
      "Ġpenh": 3195,
      "Ġtraces": 3196,
      "_loop": 3197,
      "Ġnormalization": 3198,
      "Ġflux": 3199,
      "-square": 3200,
      "-channel": 3201,
      "/Mpc": 3202,
      "Accessing": 3203,
      "Scales": 3204,
      "Unlike": 3205,
      "butterfly": 3206,
      "clot": 3207,
      "diving": 3208,
      "jetbrains": 3209,
      "noodles": 3210,
      "Ġvector": 3211,
      "oltzmann": 3212,
      "Ġtolstoy": 3213,
      "Ġlymph": 3214,
      "Ġexception": 3215,
      "Ġkidney": 3216,
      "Ġplatelets": 3217,
      "cambodia": 3218,
      "Ġadventures": 3219,
      "Ġlearned": 3220,
      "Ġtemperature": 3221,
      "'d": 3222,
      "/W": 3223,
      "_tokenizer": 3224,
      "ault": 3225,
      "bowling": 3226,
      "cing": 3227,
      "ganges": 3228,
      "hockey": 3229,
      "hubble": 3230,
      "ko": 3231,
      "ments": 3232,
      "ostrich": 3233,
      "tu": 3234,
      "Ġke": 3235,
      "enn": 3236,
      "erated": 3237,
      "Ġwri": 3238,
      "Ġword": 3239,
      "Ġmer": 3240,
      "Ġsm": 3241,
      "Ġfar": 3242,
      "ural": 3243,
      "Ġint": 3244,
      "Ġreview": 3245,
      "Ġlm": 3246,
      "Ġlong": 3247,
      "Ġostrich": 3248,
      "Ġmod": 3249,
      "Ġmoder": 3250,
      "cketball": 3251,
      "Ġdeclar": 3252,
      "ective": 3253,
      "Ġuses": 3254,
      "amur": 3255,
      "Ġhubble": 3256,
      "Ġganges": 3257,
      "Explain": 3258,
      "Ġalpha": 3259,
      "Ġinconsistent": 3260,
      "Calculating": 3261,
      "Ġracketball": 3262,
      "Ġletter": 3263,
      "racketball": 3264,
      "Ġlondon": 3265,
      "Ġreferencing": 3266,
      "Ġamur": 3267,
      "Ġdefault": 3268,
      "Ġdocumentation": 3269,
      "Ġmodern": 3270,
      "(\\": 3271,
      "(k": 3272,
      "):Ċ": 3273,
      "-verif": 3274,
      "-gen": 3275,
      ".nn": 3276,
      ">Result": 3277,
      "Build": 3278,
      "Each": 3279,
      "GL": 3280,
      "Rn": 3281,
      "Swi": 3282,
      "_w": 3283,
      "au": 3284,
      "dr": 3285,
      "davi": 3286,
      "evi": 3287,
      "fli": 3288,
      "gits": 3289,
      "luminous": 3290,
      "marg": 3291,
      "na": 3292,
      "ni": 3293,
      "ramer": 3294,
      "sa": 3295,
      "south": 3296,
      "tch": 3297,
      "xophone": 3298,
      "Ġi": 3299,
      "Ġpe": 3300,
      "Ġxylophone": 3301,
      "toma": 3302,
      "ola": 3303,
      "aret": 3304,
      "aroo": 3305,
      "arinet": 3306,
      "imba": 3307,
      "erical": 3308,
      "secure": 3309,
      "pee": 3310,
      "umen": 3311,
      "orne": 3312,
      "orld": 3313,
      "isual": 3314,
      "isra": 3315,
      "Ġsc": 3316,
      "Ġsim": 3317,
      "Ġsupports": 3318,
      "Ġstoma": 3319,
      "Ġfr": 3320,
      "Ġfour": 3321,
      "Ġcla": 3322,
      "Ġcity": 3323,
      "Ġcevi": 3324,
      "china": 3325,
      "Ġbet": 3326,
      "Ġbook": 3327,
      "Ġbad": 3328,
      "Ġincre": 3329,
      "maid": 3330,
      "Ġreve": 3331,
      "Ġla": 3332,
      "Ġlacks": 3333,
      "upial": 3334,
      "vitational": 3335,
      "Ġmochi": 3336,
      "stephen": 3337,
      "Ġnamed": 3338,
      "Ġbeing": 3339,
      "Ġpull": 3340,
      "vel": 3341,
      "acher": 3342,
      "adon": 3343,
      "Ġnumerical": 3344,
      "Ġkramer": 3345,
      "Ġsecure": 3346,
      "Ġheming": 3347,
      "Ġdiox": 3348,
      "Ġdigits": 3349,
      "Ġdiffli": 3350,
      "Ġcurry": 3351,
      "Ġritch": 3352,
      "Ġhorm": 3353,
      "aller": 3354,
      "angaroo": 3355,
      "Ġprime": 3356,
      "ailand": 3357,
      "Ġdiscus": 3358,
      "Ġatwood": 3359,
      "Ġrecor": 3360,
      "gray": 3361,
      "gravi": 3362,
      "Ġalso": 3363,
      "Ġlocated": 3364,
      "Ġlogical": 3365,
      "Calculated": 3366,
      "Ġgray": 3367,
      "Ġgrad": 3368,
      "Ġhandmaid": 3369,
      "Ġclarinet": 3370,
      "Ġworld": 3371,
      "marsupial": 3372,
      "meric": 3373,
      "Ġviolin": 3374,
      "Ġcourage": 3375,
      "Ġmountain": 3376,
      "_big": 3377,
      "Ġallows": 3378,
      "Ġgravitational": 3379,
      "Ġteacher": 3380,
      "Ġmentioned": 3381,
      "Information": 3382,
      "Ġcello": 3383,
      "Ġcrane": 3384,
      "turmeric": 3385,
      "Ġrupee": 3386,
      "russia": 3387,
      "dennis": 3388,
      "Ġimplement": 3389,
      "Ġarchitecture": 3390,
      "Ġsmaller": 3391,
      "(kn": 3392,
      "-verified": 3393,
      "-generated": 3394,
      "Builds": 3395,
      "GLU": 3396,
      "SwiGLU": 3397,
      "_world": 3398,
      "drum": 3399,
      "david": 3400,
      "margaret": 3401,
      "Ġstomach": 3402,
      "Ġclaim": 3403,
      "Ġceviche": 3404,
      "Ġbadge": 3405,
      "Ġreveal": 3406,
      "Ġhemingway": 3407,
      "Ġdioxide": 3408,
      "Ġdifflib": 3409,
      "Ġritchie": 3410,
      "Ġhormones": 3411,
      "Ġdiscussed": 3412,
      "gravitational": 3413,
      "(Ċ": 3414,
      ")\\": 3415,
      ".d": 3416,
      "AssistantGrammar": 3417,
      "Con": 3418,
      "Cur": 3419,
      "Cache": 3420,
      "MP": 3421,
      "RMS": 3422,
      "Tool": 3423,
      "Train": 3424,
      "binary": 3425,
      "can": 3426,
      "cimal": 3427,
      "saint": 3428,
      "tri": 3429,
      "Ġparame": 3430,
      "universal": 3431,
      "umulation": 3432,
      "que": 3433,
      "Ġsam": 3434,
      "Ġstories": 3435,
      "ulner": 3436,
      "atch": 3437,
      "Ġfast": 3438,
      "Ġcos": 3439,
      "Ġblock": 3440,
      "planck": 3441,
      "oules": 3442,
      "verse": 3443,
      "Reverse": 3444,
      "ops": 3445,
      ">It": 3446,
      "Ġdeco": 3447,
      "Ġplus": 3448,
      "ĠAgent": 3449,
      "ĠAMP": 3450,
      "Ġruntime": 3451,
      "bohr": 3452,
      "Ġdiffic": 3453,
      "Ġjoules": 3454,
      "Ġgall": 3455,
      "mental": 3456,
      "Ġcaptu": 3457,
      "Ġaccumulation": 3458,
      "Ġoboe": 3459,
      "Ġvulner": 3460,
      "Ġuniversal": 3461,
      "Ġwork": 3462,
      "\"\"\"ĊĊ": 3463,
      "mercury": 3464,
      "Ġbohr": 3465,
      "ĠLR": 3466,
      "_buil": 3467,
      "ĠĠĠĠĠĠĠĠĠĠĠĠĠĠĠĠ": 3468,
      "Ġharder": 3469,
      ".\"\"\"ĊĊ": 3470,
      "Ġincluded": 3471,
      "Ġcases": 3472,
      "Ġmercury": 3473,
      "Ġdeclared": 3474,
      "Ġincremental": 3475,
      "Ġgradient": 3476,
      "Convert": 3477,
      "Current": 3478,
      "RMSNorm": 3479,
      "Ġparameter": 3480,
      "Ġsample": 3481,
      "Ġfaster": 3482,
      "Ġcosine": 3483,
      "Ġdecoding": 3484,
      "Ġdifficult": 3485,
      "Ġcaptured": 3486,
      "_builder": 3487,
      "'re": 3488,
      ");": 3489,
      "**": 3490,
      "++": 3491,
      "/con": 3492,
      ":apply": 3493,
      "Al": 3494,
      "By": 3495,
      "Embedding": 3496,
      "Po": 3497,
      "Rot": 3498,
      "Supports": 3499,
      "]Ċ": 3500,
      "]<|": 3501,
      "ai": 3502,
      "bjar": 3503,
      "btree": 3504,
      "dition": 3505,
      "dated": 3506,
      "eth": 3507,
      "fr": 3508,
      "ffe": 3509,
      "ftest": 3510,
      "gas": 3511,
      "gery": 3512,
      "ging": 3513,
      "gium": 3514,
      "gacy": 3515,
      "hing": 3516,
      "ij": 3517,
      "iop": 3518,
      "ju": 3519,
      "jack": 3520,
      "jacency": 3521,
      "jorn": 3522,
      "lde": 3523,
      "lang": 3524,
      "lted": 3525,
      "mar": 3526,
      "magne": 3527,
      "nare": 3528,
      "oci": 3529,
      "osc": 3530,
      "oare": 3531,
      "ogram": 3532,
      "pes": 3533,
      "ptic": 3534,
      "qat": 3535,
      "rw": 3536,
      "sk": 3537,
      "tne": 3538,
      "uvi": 3539,
      "uce": 3540,
      "urie": 3541,
      "uriz": 3542,
      "uado": 3543,
      "vo": 3544,
      "vex": 3545,
      "wren": 3546,
      "wain": 3547,
      "xis": 3548,
      "xican": 3549,
      "zil": 3550,
      "zanne": 3551,
      "Ġparameters": 3552,
      "Ġur": 3553,
      "Ġass": 3554,
      "ĠEmbedding": 3555,
      "ĠPo": 3556,
      "thailand": 3557,
      "ole": 3558,
      "reg": 3559,
      "imos": 3560,
      "eny": 3561,
      "enmark": 3562,
      "erus": 3563,
      "erlang": 3564,
      "tise": 3565,
      "tilted": 3566,
      "alber": 3567,
      "alile": 3568,
      "mexican": 3569,
      "arta": 3570,
      "ses": 3571,
      "semer": 3572,
      "ano": 3573,
      "anger": 3574,
      "ancre": 3575,
      "antise": 3576,
      "sity": 3577,
      "sich": 3578,
      "unger": 3579,
      "types": 3580,
      "umpet": 3581,
      "cture": 3582,
      "Ġaxis": 3583,
      "rid": 3584,
      "rity": 3585,
      "Ġwall": 3586,
      "Ġtold": 3587,
      "Ġtokenizer": 3588,
      "iss": 3589,
      "ission": 3590,
      "Ġwild": 3591,
      "Ġwilde": 3592,
      "Ġsp": 3593,
      "Ġsame": 3594,
      "Ġsur": 3595,
      "Ġsouth": 3596,
      "obbit": 3597,
      "obos": 3598,
      "Ġfail": 3599,
      "Ġfission": 3600,
      "Ġcamus": 3601,
      "Ġcurie": 3602,
      "ouis": 3603,
      "oustr": 3604,
      "peruvi": 3605,
      "Ġtwain": 3606,
      "chris": 3607,
      "Ġbtree": 3608,
      "Ġboltzmann": 3609,
      "Ġbenn": 3610,
      "Ġbjorn": 3611,
      "steur": 3612,
      "steuriz": 3613,
      "ift": 3614,
      "ific": 3615,
      "Ġecu": 3616,
      "Ġearli": 3617,
      "Ġeye": 3618,
      "Ġinten": 3619,
      "Ġinsecure": 3620,
      "Ġdenmark": 3621,
      "dder": 3622,
      "therfor": 3623,
      "Ġtagged": 3624,
      "Ġliter": 3625,
      "Ġlatt": 3626,
      "Ġsucre": 3627,
      "Ġexist": 3628,
      "dela": 3629,
      "Ġpancre": 3630,
      "illo": 3631,
      "ilogram": 3632,
      "arie": 3633,
      "swiss": 3634,
      "Ġcondition": 3635,
      "ador": 3636,
      "adjacency": 3637,
      "ira": 3638,
      "itzer": 3639,
      "Ġdorian": 3640,
      "Ġperu": 3641,
      "Ġkong": 3642,
      "Ġdeimos": 3643,
      "Ġsecu": 3644,
      "Ġoutdated": 3645,
      "ecuado": 3646,
      "Ġure": 3647,
      "poon": 3648,
      "Retrie": 3649,
      "ssage": 3650,
      "lins": 3651,
      "riesemer": 3652,
      "Ġrich": 3653,
      "roso": 3654,
      "suzanne": 3655,
      "Ġlens": 3656,
      "Ġhoare": 3657,
      "Ġhunger": 3658,
      "Ġhobbit": 3659,
      "Ġgames": 3660,
      "Ġgreece": 3661,
      "Ġgriesemer": 3662,
      "Ġwashing": 3663,
      "Ġpasteur": 3664,
      "Ġliver": 3665,
      "angko": 3666,
      "Ġcontent": 3667,
      "Ġtables": 3668,
      "convex": 3669,
      "phobos": 3670,
      "Ġstrong": 3671,
      "Ġstranger": 3672,
      "Ġstroustr": 3673,
      "access": 3674,
      "Ġstable": 3675,
      "Ġstyle": 3676,
      "Ġmax": 3677,
      "alem": 3678,
      "Ġinteraction": 3679,
      "igali": 3680,
      "spain": 3681,
      "aphone": 3682,
      "microso": 3683,
      "osara": 3684,
      "Ġlister": 3685,
      "ĠKosara": 3686,
      "Ġsaxophone": 3687,
      "uminum": 3688,
      "electronvolt": 3689,
      "Ġelectronvolt": 3690,
      "pasteuriz": 3691,
      "Ġimportant": 3692,
      "Ġcoffe": 3693,
      "_block": 3694,
      "Ġcollins": 3695,
      "larry": 3696,
      "Ġcymb": 3697,
      "Ġswitzer": 3698,
      "Ġpicture": 3699,
      "Ġrock": 3700,
      "/bpe": 3701,
      "-message": 3702,
      ".\"\"\"<|": 3703,
      "josef": 3704,
      "turkey": 3705,
      "Ġrutherfor": 3706,
      "arlie": 3707,
      "akarta": 3708,
      "radioactivity": 3709,
      "black": 3710,
      "danish": 3711,
      "argentina": 3712,
      "Ġaustria": 3713,
      "Ġcarver": 3714,
      "indonesia": 3715,
      "crop": 3716,
      "apsort": 3717,
      "Ġmarimba": 3718,
      "madillo": 3719,
      "Ġpeace": 3720,
      "israel": 3721,
      "Ġfranc": 3722,
      "Ġlawren": 3723,
      "graydon": 3724,
      "/conftest": 3725,
      "Byte": 3726,
      "Rotary": 3727,
      "bjarne": 3728,
      "ethiop": 3729,
      "ociated": 3730,
      "oscar": 3731,
      "qatar": 3732,
      "rwanda": 3733,
      "tnega": 3734,
      "Ġurine": 3735,
      "Ġassociated": 3736,
      "ĠPosition": 3737,
      "erusalem": 3738,
      "albert": 3739,
      "antiseptic": 3740,
      "sichord": 3741,
      "typescript": 3742,
      "Ġsurgery": 3743,
      "Ġfails": 3744,
      "peruvian": 3745,
      "Ġbennet": 3746,
      "Ġbjornson": 3747,
      "Ġecuador": 3748,
      "Ġearlier": 3749,
      "Ġintensity": 3750,
      "Ġlattner": 3751,
      "Ġpancreas": 3752,
      "Ġsecurity": 3753,
      "ecuadorian": 3754,
      "Retrieving": 3755,
      "Ġwashington": 3756,
      "angkok": 3757,
      "Ġstrongly": 3758,
      "Ġstroustrup": 3759,
      "microsoft": 3760,
      "ĠKosaraju": 3761,
      "pasteurization": 3762,
      "Ġcoffee": 3763,
      "Ġswitzerland": 3764,
      "Ġrutherford": 3765,
      "Ġlawrence": 3766,
      "ethiopia": 3767,
      "(math": 3768,
      ")/": 3769,
      ")))\"}}Ċ": 3770,
      "-line": 3771,
      ".f": 3772,
      "=N": 3773,
      "TextEncoder": 3774,
      "]?<|": 3775,
      "_training": 3776,
      "_test": 3777,
      "dart": 3778,
      "ep": 3779,
      "hash": 3780,
      "java": 3781,
      "molar": 3782,
      "ohn": 3783,
      "por": 3784,
      "prec": 3785,
      "upl": 3786,
      "Ġ[": 3787,
      "Ġim": 3788,
      "top": 3789,
      "init": 3790,
      "mes": 3791,
      "sit": 3792,
      "sievert": 3793,
      "asy": 3794,
      "Ġtheir": 3795,
      "Ġwatt": 3796,
      "Ġtoo": 3797,
      "Ġmolar": 3798,
      "Ġsent": 3799,
      "ule": 3800,
      "Ġnn": 3801,
      "Ġfut": 3802,
      "Ġflo": 3803,
      "Ġfactorial": 3804,
      "Ġcre": 3805,
      "place": 3806,
      "Ġeasy": 3807,
      "Ġcalling": 3808,
      "Ġdart": 3809,
      "Ġdupl": 3810,
      "Ġrepor": 3811,
      "Ġsievert": 3812,
      "Ġmem": 3813,
      "Ġpython": 3814,
      "ĠTrue": 3815,
      "forward": 3816,
      "Ġconsist": 3817,
      "icates": 3818,
      "Ġdeprec": 3819,
      "Ġheap": 3820,
      "Ġjava": 3821,
      "Ġjohn": 3822,
      "Ġhow": 3823,
      "Ġhash": 3824,
      "Ġhold": 3825,
      "Ġthroughout": 3826,
      "Ġinstruc": 3827,
      "Ġstack": 3828,
      "Ġavogadro": 3829,
      "Ġsolved": 3830,
      "Ġgram": 3831,
      "ĠRoPECache": 3832,
      "avogadro": 3833,
      "Ġsplay": 3834,
      "guitar": 3835,
      "Ġinclude": 3836,
      "Ġcauses": 3837,
      "splay": 3838,
      "Ġrecorded": 3839,
      ".factorial": 3840,
      "=None": 3841,
      "Ġfuture": 3842,
      "Ġfloat": 3843,
      "Ġreporting": 3844,
      "Ġdeprecated": 3845,
      "Ġinstructing": 3846,
      "\"),Ċ": 3847,
      "%d": 3848,
      "(e": 3849,
      "*d": 3850,
      "+=": 3851,
      ",\\": 3852,
      "-%": 3853,
      "-st": 3854,
      "-call": 3855,
      "-Query": 3856,
      "-constrained": 3857,
      "-cell": 3858,
      ".s": 3859,
      "/\"}}Ċ": 3860,
      "/.<|": 3861,
      ":\\": 3862,
      "==": 3863,
      "=qk": 3864,
      "=True": 3865,
      "Ains": 3866,
      "Be": 3867,
      "LM": 3868,
      "Li": 3869,
      "Live": 3870,
      "Na": 3871,
      "Pd": 3872,
      "Sort": 3873,
      "Two": 3874,
      "Transformer": 3875,
      "Xe": 3876,
      "Zn": 3877,
      "_json": 3878,
      "aul": 3879,
      "ade": 3880,
      "bren": 3881,
      "cion": 3882,
      "cific": 3883,
      "dm": 3884,
      "dy": 3885,
      "dor": 3886,
      "dom": 3887,
      "duc": 3888,
      "ech": 3889,
      "fl": 3890,
      "fif": 3891,
      "gine": 3892,
      "har": 3893,
      "hom": 3894,
      "hile": 3895,
      "hong": 3896,
      "hara": 3897,
      "itr": 3898,
      "iki": 3899,
      "ja": 3900,
      "jane": 3901,
      "judi": 3902,
      "jective": 3903,
      "kotlin": 3904,
      "leb": 3905,
      "lic": 3906,
      "largest": 3907,
      "lgium": 3908,
      "ml": 3909,
      "mus": 3910,
      "meny": 3911,
      "nb": 3912,
      "nor": 3913,
      "ning": 3914,
      "nom": 3915,
      "nath": 3916,
      "nformation": 3917,
      "nprint": 3918,
      "oder": 3919,
      "ps": 3920,
      "qdm": 3921,
      "ras": 3922,
      "rugby": 3923,
      "sto": 3924,
      "sch": 3925,
      "tain": 3926,
      "two": 3927,
      "uay": 3928,
      "uit": 3929,
      "ucket": 3930,
      "wth": 3931,
      "west": 3932,
      "well": 3933,
      "work": 3934,
      "while": 3935,
      "xen": 3936,
      "xir": 3937,
      "yog": 3938,
      "zat": 3939,
      "ziki": 3940,
      "Ġ>": 3941,
      "ĠW": 3942,
      "Ġexpr": 3943,
      "Ġdescription": 3944,
      "Ġste": 3945,
      "Ġic": 3946,
      "Ġstat": 3947,
      "ĠGr": 3948,
      "Ġide": 3949,
      "Ġargentina": 3950,
      "togo": 3951,
      "thium": 3952,
      "array": 3953,
      "repro": 3954,
      "imum": 3955,
      "ster": 3956,
      "enari": 3957,
      "erson": 3958,
      "erdor": 3959,
      "tis": 3960,
      "ala": 3961,
      "aling": 3962,
      "alain": 3963,
      "inc": 3964,
      "ines": 3965,
      "inoder": 3966,
      "sels": 3967,
      "Ġthym": 3968,
      "Ġthorn": 3969,
      "anon": 3970,
      "anbe": 3971,
      "aniel": 3972,
      "sian": 3973,
      "uncion": 3974,
      "exade": 3975,
      "ascript": 3976,
      "pere": 3977,
      "peas": 3978,
      "pecific": 3979,
      "Ġthem": 3980,
      "quere": 3981,
      "Ġamount": 3982,
      "Ġaai": 3983,
      "rica": 3984,
      "Ġwords": 3985,
      "Ġtogg": 3986,
      "orine": 3987,
      "orway": 3988,
      "Ġmil": 3989,
      "Ġsun": 3990,
      "Ġsci": 3991,
      "Ġsple": 3992,
      "Ġscar": 3993,
      "Ġsush": 3994,
      "Ġschema": 3995,
      "Ġsaling": 3996,
      "Ġspecific": 3997,
      "ulates": 3998,
      "atet": 3999,
      "ectrom": 4000,
      "oby": 4001,
      "Ġnet": 4002,
      "Ġnorway": 4003,
      "Ġfac": 4004,
      "Ġfunctionality": 4005,
      "reduced": 4006,
      "Ġcop": 4007,
      "Ġcatch": 4008,
      "ouped": 4009,
      "eryll": 4010,
      "ingdom": 4011,
      "Ġtqdm": 4012,
      "Ġtzat": 4013,
      "chick": 4014,
      "charlie": 4015,
      "Ġbass": 4016,
      "Ġbile": 4017,
      "parag": 4018,
      "steam": 4019,
      "hest": 4020,
      "heit": 4021,
      "Ġeich": 4022,
      "Ġempty": 4023,
      "Ġeff": 4024,
      "urt": 4025,
      "Ġcalls": 4026,
      "Ġintest": 4027,
      "Ġdatet": 4028,
      "Ġreal": 4029,
      "Ġremo": 4030,
      ":ĊĊ": 4031,
      "ute": 4032,
      "Ġloop": 4033,
      "Ġlerdor": 4034,
      "Ġanderson": 4035,
      "ooke": 4036,
      "upia": 4037,
      "Ġoder": 4038,
      "Ġoxy": 4039,
      "Ġody": 4040,
      "violin": 4041,
      "Ġarab": 4042,
      "Ġarray": 4043,
      "Ġmelvi": 4044,
      "devel": 4045,
      "Ġbell": 4046,
      "Ġphn": 4047,
      "Ġupdate": 4048,
      "syrian": 4049,
      "sylvi": 4050,
      "lle": 4051,
      "llum": 4052,
      "ands": 4053,
      "adium": 4054,
      "tors": 4055,
      "ourine": 4056,
      "iro": 4057,
      "irut": 4058,
      "Ġlooks": 4059,
      "italy": 4060,
      "itance": 4061,
      "Ġparts": 4062,
      "renal": 4063,
      "renheit": 4064,
      "Ġkotlin": 4065,
      "Ġkangaroo": 4066,
      "Ġkingdom": 4067,
      ">Information": 4068,
      "Ġdel": 4069,
      "Ġplath": 4070,
      "Ġseal": 4071,
      "Ġitaly": 4072,
      "Ġrand": 4073,
      "Ġram": 4074,
      "Ġrobert": 4075,
      "Ġrye": 4076,
      "Ġrugby": 4077,
      "Ġrupia": 4078,
      "ĠAttention": 4079,
      "Ġdataset": 4080,
      "mbourine": 4081,
      "germ": 4082,
      "Ġengine": 4083,
      "Ġyiel": 4084,
      "Ġdick": 4085,
      "Ġnew": 4086
    },
    "merges": [
      [
        "\"",
        ":"
      ],
      [
        "t",
        "o"
      ],
      [
        "t",
        "h"
      ],
      [
        ">",
        "Ċ"
      ],
      [
        "Ġ",
        "\""
      ],
      [
        "o",
        "n"
      ],
      [
        "o",
        "l"
      ],
      [
        "to",
        "ol"
      ],
      [
        "a",
        "r"
      ],
      [
        "r",
        "e"
      ],
      [
        "i",
        "m"
      ],
      [
        "s",
        "t"
      ],
      [
        "<",
        "|"
      ],
      [
        "e",
        "n"
      ],
      [
        "e",
        "r"
      ],
      [
        "{",
        "\""
      ],
      [
        "t",
        "i"
      ],
      [
        "a",
        "l"
      ],
      [
        "i",
        "n"
      ],
      [
        "<",
        "/"
      ],
      [
        "c",
        "al"
      ],
      [
        "ti",
        "on"
      ],
      [
        "m",
        "e"
      ],
      [
        "cal",
        "l"
      ],
      [
        "\"",
        ","
      ],
      [
        "|",
        ">"
      ],
      [
        "ar",
        "t"
      ],
      [
        "re",
        "s"
      ],
      [
        "_",
        "call"
      ],
      [
        "th",
        "in"
      ],
      [
        "en",
        "d"
      ],
      [
        "a",
        "me"
      ],
      [
        "st",
        "art"
      ],
      [
        "_",
        "end"
      ],
      [
        "_",
        "start"
      ],
      [
        "s",
        "e"
      ],
      [
        "Ġ",
        "th"
      ],
      [
        "|",
        ">Ċ"
      ],
      [
        "a",
        "n"
      ],
      [
        "Ġ",
        "{\""
      ],
      [
        "<",
        "tool"
      ],
      [
        "}",
        "}"
      ],
      [
        "thin",
        "k"
      ],
      [
        ">",
        "<|"
      ],
      [
        "s",
        "i"
      ],
      [
        "u",
        "n"
      ],
      [
        "n",
        "ame"
      ],
      [
        "p",
        "r"
      ],
      [
        "c",
        "tion"
      ],
      [
        "p",
        "on"
      ],
      [
        "res",
        "pon"
      ],
      [
        "respon",
        "se"
      ],
      [
        "_",
        "response"
      ],
      [
        "f",
        "un"
      ],
      [
        "fun",
        "ction"
      ],
      [
        "e",
        "s"
      ],
      [
        "\"",
        "}}"
      ],
      [
        "e",
        "x"
      ],
      [
        "a",
        "s"
      ],
      [
        "p",
        "e"
      ],
      [
        "t",
        "y"
      ],
      [
        "ty",
        "pe"
      ],
      [
        "ar",
        "g"
      ],
      [
        "u",
        "m"
      ],
      [
        "Ġth",
        "e"
      ],
      [
        "u",
        "s"
      ],
      [
        "en",
        "t"
      ],
      [
        "\":",
        "\""
      ],
      [
        "si",
        "st"
      ],
      [
        "as",
        "sist"
      ],
      [
        "us",
        "er"
      ],
      [
        "q",
        "u"
      ],
      [
        "ent",
        "s"
      ],
      [
        "c",
        "t"
      ],
      [
        "um",
        "ents"
      ],
      [
        "arg",
        "uments"
      ],
      [
        "Ġ",
        "a"
      ],
      [
        "an",
        "t"
      ],
      [
        "r",
        "i"
      ],
      [
        "assist",
        "ant"
      ],
      [
        "Ġ",
        "w"
      ],
      [
        "Ġ",
        "to"
      ],
      [
        "o",
        "r"
      ],
      [
        "ex",
        "pr"
      ],
      [
        "Ġ",
        "m"
      ],
      [
        "e",
        "d"
      ],
      [
        "i",
        "s"
      ],
      [
        "<",
        "think"
      ],
      [
        "c",
        "ri"
      ],
      [
        "cri",
        "p"
      ],
      [
        "d",
        "es"
      ],
      [
        "Ġw",
        "i"
      ],
      [
        "des",
        "crip"
      ],
      [
        "descrip",
        "tion"
      ],
      [
        "\"}}",
        "Ċ"
      ],
      [
        ">Ċ",
        "Ċ"
      ],
      [
        "Ġ",
        "s"
      ],
      [
        "pr",
        "o"
      ],
      [
        "u",
        "l"
      ],
      [
        "a",
        "t"
      ],
      [
        ".",
        "Ċ"
      ],
      [
        "e",
        "ct"
      ],
      [
        "o",
        "b"
      ],
      [
        "Ġ",
        "n"
      ],
      [
        "j",
        "ect"
      ],
      [
        "ob",
        "ject"
      ],
      [
        "\",",
        "\""
      ],
      [
        "Ġ",
        "f"
      ],
      [
        "t",
        "er"
      ],
      [
        "Ġ",
        "an"
      ],
      [
        "Ġ",
        "function"
      ],
      [
        "re",
        "d"
      ],
      [
        "Ġ",
        "c"
      ],
      [
        "o",
        "u"
      ],
      [
        "Ġ",
        "<"
      ],
      [
        "er",
        "y"
      ],
      [
        "Ġth",
        "en"
      ],
      [
        "re",
        "qu"
      ],
      [
        "}",
        "Ċ"
      ],
      [
        "requ",
        "i"
      ],
      [
        "v",
        "al"
      ],
      [
        "Ġwi",
        "th"
      ],
      [
        "qu",
        "ery"
      ],
      [
        "in",
        "g"
      ],
      [
        "\"}}",
        ","
      ],
      [
        "\":",
        "{\""
      ],
      [
        "p",
        "er"
      ],
      [
        ".",
        "\","
      ],
      [
        "Ġ",
        "t"
      ],
      [
        "requi",
        "red"
      ],
      [
        "Ġ",
        "is"
      ],
      [
        "c",
        "h"
      ],
      [
        "Ġ",
        "b"
      ],
      [
        "tool",
        "s"
      ],
      [
        "pro",
        "per"
      ],
      [
        "st",
        "r"
      ],
      [
        "p",
        "ar"
      ],
      [
        "ter",
        "s"
      ],
      [
        "e",
        "t"
      ],
      [
        "par",
        "ame"
      ],
      [
        "parame",
        "ters"
      ],
      [
        "ti",
        "es"
      ],
      [
        "proper",
        "ties"
      ],
      [
        "e",
        "ed"
      ],
      [
        "str",
        "ing"
      ],
      [
        "val",
        "u"
      ],
      [
        "]",
        ","
      ],
      [
        "st",
        "e"
      ],
      [
        "h",
        "e"
      ],
      [
        "[",
        "\""
      ],
      [
        "p",
        "l"
      ],
      [
        "i",
        "f"
      ],
      [
        "Ġ",
        "e"
      ],
      [
        "Ġn",
        "eed"
      ],
      [
        "si",
        "on"
      ],
      [
        "o",
        "m"
      ],
      [
        "u",
        "r"
      ],
      [
        "Ġ",
        "call"
      ],
      [
        "\"",
        "],"
      ],
      [
        "Ġ",
        "in"
      ],
      [
        "Ġ",
        "d"
      ],
      [
        "Ġ",
        "pro"
      ],
      [
        "a",
        "g"
      ],
      [
        "Ġ",
        "+"
      ],
      [
        "Y",
        "ou"
      ],
      [
        "m",
        "a"
      ],
      [
        "d",
        "d"
      ],
      [
        "at",
        "e"
      ],
      [
        "Ġa",
        "dd"
      ],
      [
        "k",
        "e"
      ],
      [
        "Ġ",
        "re"
      ],
      [
        "a",
        "ct"
      ],
      [
        "Ġ",
        "if"
      ],
      [
        "th",
        "er"
      ],
      [
        "Ġ",
        "or"
      ],
      [
        ":",
        "Ċ"
      ],
      [
        "s",
        "on"
      ],
      [
        "u",
        "t"
      ],
      [
        "j",
        "son"
      ],
      [
        "Ġt",
        "ag"
      ],
      [
        "M",
        "L"
      ],
      [
        ">",
        "</"
      ],
      [
        "X",
        "ML"
      ],
      [
        "Ġ",
        "XML"
      ],
      [
        "Ġwi",
        "thin"
      ],
      [
        "Ġtag",
        "s"
      ],
      [
        "Ġth",
        "is"
      ],
      [
        "Ġ",
        "l"
      ],
      [
        "Ġan",
        "d"
      ],
      [
        "a",
        "y"
      ],
      [
        "ke",
        "y"
      ],
      [
        "\"",
        "}Ċ"
      ],
      [
        "ar",
        "ch"
      ],
      [
        "cal",
        "c"
      ],
      [
        "o",
        "o"
      ],
      [
        ".",
        "</"
      ],
      [
        "Ġb",
        "y"
      ],
      [
        "oo",
        "k"
      ],
      [
        "u",
        "p"
      ],
      [
        "Ġ",
        "o"
      ],
      [
        "ul",
        "ti"
      ],
      [
        "ulti",
        "pl"
      ],
      [
        "valu",
        "ate"
      ],
      [
        "v",
        "i"
      ],
      [
        "p",
        "res"
      ],
      [
        "Ġm",
        "o"
      ],
      [
        "Ġ",
        "ar"
      ],
      [
        "Ġs",
        "u"
      ],
      [
        "o",
        "ther"
      ],
      [
        "ti",
        "c"
      ],
      [
        "Ġ",
        "[\""
      ],
      [
        "th",
        "me"
      ],
      [
        "thme",
        "tic"
      ],
      [
        "Ċ",
        "Ċ"
      ],
      [
        "ste",
        "p"
      ],
      [
        "Ġ",
        "step"
      ],
      [
        "p",
        "ut"
      ],
      [
        "Ġ",
        "query"
      ],
      [
        "se",
        "arch"
      ],
      [
        "Ġ",
        "ex"
      ],
      [
        "pres",
        "sion"
      ],
      [
        "Ġm",
        "ultipl"
      ],
      [
        "ur",
        "n"
      ],
      [
        "Ġmo",
        "re"
      ],
      [
        "t",
        "r"
      ],
      [
        "Ġs",
        "h"
      ],
      [
        "Ġo",
        "f"
      ],
      [
        "Ġ",
        "*"
      ],
      [
        "Ġ",
        "si"
      ],
      [
        "ul",
        "t"
      ],
      [
        "b",
        "tr"
      ],
      [
        "Ġre",
        "t"
      ],
      [
        "Ġ",
        "me"
      ],
      [
        "Ġsu",
        "btr"
      ],
      [
        "Ġm",
        "ay"
      ],
      [
        "Ġ",
        "name"
      ],
      [
        "d",
        "e"
      ],
      [
        "Ġ",
        "res"
      ],
      [
        "Ġmultipl",
        "y"
      ],
      [
        "Ġret",
        "urn"
      ],
      [
        "Ġres",
        "ult"
      ],
      [
        "ma",
        "th"
      ],
      [
        "Ġ",
        "tool"
      ],
      [
        "c",
        "om"
      ],
      [
        "Ġ",
        "-"
      ],
      [
        "g",
        "h"
      ],
      [
        "o",
        "ul"
      ],
      [
        "oul",
        "d"
      ],
      [
        "Ġb",
        "e"
      ],
      [
        "Ġ",
        "on"
      ],
      [
        "Ġ",
        "p"
      ],
      [
        "ex",
        "t"
      ],
      [
        "v",
        "e"
      ],
      [
        "Ġsubtr",
        "act"
      ],
      [
        "Ġar",
        "e"
      ],
      [
        "i",
        "l"
      ],
      [
        ".",
        "\",\""
      ],
      [
        "Ġex",
        "pression"
      ],
      [
        "Ġ",
        "up"
      ],
      [
        ".Ċ",
        "Ċ"
      ],
      [
        "T",
        "he"
      ],
      [
        "Ġf",
        "in"
      ],
      [
        "valu",
        "e"
      ],
      [
        "s",
        "y"
      ],
      [
        "Ġ",
        "search"
      ],
      [
        "ter",
        "n"
      ],
      [
        "l",
        "l"
      ],
      [
        "v",
        "er"
      ],
      [
        "}}",
        "}Ċ"
      ],
      [
        "d",
        "ed"
      ],
      [
        "Ġ",
        "I"
      ],
      [
        "o",
        "w"
      ],
      [
        "c",
        "es"
      ],
      [
        "ste",
        "m"
      ],
      [
        "Ġpro",
        "vi"
      ],
      [
        "put",
        "e"
      ],
      [
        "Ġ",
        "T"
      ],
      [
        "Ġ",
        "user"
      ],
      [
        "\":",
        "[\""
      ],
      [
        "Ġprovi",
        "ded"
      ],
      [
        "a",
        "ch"
      ],
      [
        "Ġon",
        "e"
      ],
      [
        "Ġf",
        "or"
      ],
      [
        "o",
        "ol"
      ],
      [
        "u",
        "res"
      ],
      [
        "Ġe",
        "ach"
      ],
      [
        "F",
        "or"
      ],
      [
        "ĠT",
        "ool"
      ],
      [
        "Ġfunction",
        "s"
      ],
      [
        "g",
        "n"
      ],
      [
        "Ġ",
        "json"
      ],
      [
        "Ġ",
        "object"
      ],
      [
        "arg",
        "s"
      ],
      [
        "Ġ",
        "arguments"
      ],
      [
        "Ġsi",
        "gn"
      ],
      [
        "-",
        "name"
      ],
      [
        "-",
        "object"
      ],
      [
        "-",
        "json"
      ],
      [
        ">",
        ","
      ],
      [
        ">",
        "}Ċ"
      ],
      [
        "Ġ",
        "assist"
      ],
      [
        "<tool",
        "s"
      ],
      [
        "at",
        "ures"
      ],
      [
        "sy",
        "stem"
      ],
      [
        "ĠTool",
        "s"
      ],
      [
        "Ġsign",
        "atures"
      ],
      [
        "Ġe",
        "valuate"
      ],
      [
        "an",
        "d"
      ],
      [
        "ces",
        "s"
      ],
      [
        "Ġn",
        "ext"
      ],
      [
        "Ġan",
        "other"
      ],
      [
        "Ġ",
        "value"
      ],
      [
        "L",
        "et"
      ],
      [
        "gh",
        "t"
      ],
      [
        "_",
        "e"
      ],
      [
        "_e",
        "val"
      ],
      [
        "_",
        "math"
      ],
      [
        "c",
        "k"
      ],
      [
        "calc",
        "ul"
      ],
      [
        "'",
        "s"
      ],
      [
        "f",
        "or"
      ],
      [
        "com",
        "pute"
      ],
      [
        "ar",
        "i"
      ],
      [
        "i",
        "ght"
      ],
      [
        "Ġsh",
        "ould"
      ],
      [
        "calcul",
        "a"
      ],
      [
        "s",
        "w"
      ],
      [
        "Ġan",
        "sw"
      ],
      [
        "Ġansw",
        "er"
      ],
      [
        "g",
        "et"
      ],
      [
        "Ġf",
        "il"
      ],
      [
        ".",
        "<|"
      ],
      [
        "as",
        "k"
      ],
      [
        "l",
        "y"
      ],
      [
        "c",
        "e"
      ],
      [
        ".",
        "\"}}"
      ],
      [
        "\"],",
        "\""
      ],
      [
        ".\"}}",
        "}}}Ċ"
      ],
      [
        "o",
        "de"
      ],
      [
        "Ġc",
        "on"
      ],
      [
        "A",
        "ri"
      ],
      [
        "Ari",
        "thmetic"
      ],
      [
        "or",
        "t"
      ],
      [
        "Ġneed",
        "ed"
      ],
      [
        "F",
        "in"
      ],
      [
        "a",
        "th"
      ],
      [
        "Ġt",
        "ask"
      ],
      [
        "Ġm",
        "ight"
      ],
      [
        "ou",
        "t"
      ],
      [
        "o",
        "t"
      ],
      [
        "Ġthe",
        "re"
      ],
      [
        "Ġc",
        "om"
      ],
      [
        "A",
        "n"
      ],
      [
        "h",
        "is"
      ],
      [
        "a",
        "d"
      ],
      [
        "ver",
        "sion"
      ],
      [
        "h",
        "a"
      ],
      [
        "m",
        "and"
      ],
      [
        "to",
        "red"
      ],
      [
        "to",
        "r"
      ],
      [
        "Ġc",
        "he"
      ],
      [
        "Ġche",
        "ck"
      ],
      [
        "h",
        "at"
      ],
      [
        "An",
        "other"
      ],
      [
        "ou",
        "r"
      ],
      [
        "T",
        "his"
      ],
      [
        "Ġn",
        "ot"
      ],
      [
        "ol",
        "ve"
      ],
      [
        "P",
        "er"
      ],
      [
        "i",
        "r"
      ],
      [
        "L",
        "ook"
      ],
      [
        "Ġl",
        "ook"
      ],
      [
        "Ġ",
        "key"
      ],
      [
        "Ġs",
        "tored"
      ],
      [
        "Ġf",
        "act"
      ],
      [
        "b",
        "er"
      ],
      [
        "tern",
        "al"
      ],
      [
        "Ġsh",
        "ort"
      ],
      [
        "Ġl",
        "in"
      ],
      [
        "Ġpro",
        "cess"
      ],
      [
        "Ġ",
        "get"
      ],
      [
        "e",
        "b"
      ],
      [
        "Ġn",
        "um"
      ],
      [
        "Ġnum",
        "ber"
      ],
      [
        "f",
        "in"
      ],
      [
        "our",
        "ce"
      ],
      [
        "ma",
        "tion"
      ],
      [
        "for",
        "mation"
      ],
      [
        "Ġin",
        "formation"
      ],
      [
        "i",
        "c"
      ],
      [
        "i",
        "t"
      ],
      [
        "Ġ",
        "N"
      ],
      [
        "}",
        ","
      ],
      [
        "ĠN",
        "o"
      ],
      [
        "Ġd",
        "o"
      ],
      [
        "?",
        "<|"
      ],
      [
        "n",
        "ow"
      ],
      [
        "Fin",
        "al"
      ],
      [
        "Ġstep",
        "s"
      ],
      [
        "Ġp",
        "art"
      ],
      [
        "Ġ",
        "per"
      ],
      [
        "Ġs",
        "ource"
      ],
      [
        "calcula",
        "tor"
      ],
      [
        "re",
        "n"
      ],
      [
        "R",
        "e"
      ],
      [
        "i",
        "tion"
      ],
      [
        "Ġ",
        "requi"
      ],
      [
        "m",
        "or"
      ],
      [
        "mor",
        "y"
      ],
      [
        "re",
        "ct"
      ],
      [
        "Ġ",
        "k"
      ],
      [
        "c",
        "ode"
      ],
      [
        "_",
        "s"
      ],
      [
        "or",
        "rect"
      ],
      [
        "o",
        "p"
      ],
      [
        "Ġc",
        "orrect"
      ],
      [
        "_",
        "calc"
      ],
      [
        "z",
        "x"
      ],
      [
        "_",
        "compute"
      ],
      [
        "f",
        "n"
      ],
      [
        "ha",
        "p"
      ],
      [
        ">",
        "I"
      ],
      [
        "_",
        "ex"
      ],
      [
        "Per",
        "hap"
      ],
      [
        "Perhap",
        "s"
      ],
      [
        "a",
        "tion"
      ],
      [
        "y",
        "th"
      ],
      [
        "yth",
        "on"
      ],
      [
        "x",
        "q"
      ],
      [
        "_",
        "expr"
      ],
      [
        "s",
        "olve"
      ],
      [
        "i",
        "thmetic"
      ],
      [
        "Ġar",
        "ithmetic"
      ],
      [
        "l",
        "ook"
      ],
      [
        "look",
        "up"
      ],
      [
        "b",
        "a"
      ],
      [
        "at",
        "a"
      ],
      [
        "Ġd",
        "e"
      ],
      [
        "W",
        "hat"
      ],
      [
        "Ġf",
        "ur"
      ],
      [
        "Ġfur",
        "ther"
      ],
      [
        "Ġfin",
        "d"
      ],
      [
        "Ġ",
        "pl"
      ],
      [
        "Ġ",
        "se"
      ],
      [
        "e",
        "valuate"
      ],
      [
        "Ġm",
        "y"
      ],
      [
        "Ġfin",
        "al"
      ],
      [
        "Ġ",
        "out"
      ],
      [
        "Ġ",
        "it"
      ],
      [
        "d",
        "o"
      ],
      [
        "e",
        "c"
      ],
      [
        "ren",
        "t"
      ],
      [
        "Ġa",
        "ction"
      ],
      [
        "Ġ",
        "r"
      ],
      [
        "ay",
        "er"
      ],
      [
        "_",
        "ari"
      ],
      [
        "_ari",
        "thmetic"
      ],
      [
        "_ex",
        "pression"
      ],
      [
        "Ġ",
        "A"
      ],
      [
        "Ġd",
        "ata"
      ],
      [
        "Ġpl",
        "ayer"
      ],
      [
        "Ġ",
        "required"
      ],
      [
        "t",
        "e"
      ],
      [
        "c",
        "eed"
      ],
      [
        "Ġpro",
        "ceed"
      ],
      [
        "at",
        "tern"
      ],
      [
        "Ġfil",
        "e"
      ],
      [
        "Ġrequi",
        "re"
      ],
      [
        "Ġc",
        "ould"
      ],
      [
        "fin",
        "d"
      ],
      [
        "Ġe",
        "l"
      ],
      [
        "Ġw",
        "eb"
      ],
      [
        "Ġ",
        "he"
      ],
      [
        "Ġsi",
        "de"
      ],
      [
        "ari",
        "th"
      ],
      [
        "Ġout",
        "put"
      ],
      [
        "Ġin",
        "ternal"
      ],
      [
        "com",
        "mand"
      ],
      [
        "pl",
        "et"
      ],
      [
        "Ġse",
        "e"
      ],
      [
        "v",
        "ed"
      ],
      [
        "o",
        "un"
      ],
      [
        "Ġ\"",
        "-"
      ],
      [
        "Ġ",
        "Ċ"
      ],
      [
        "Ġa",
        "c"
      ],
      [
        "Ġ",
        "version"
      ],
      [
        "he",
        "ll"
      ],
      [
        "Ġadd",
        "ition"
      ],
      [
        "P",
        "ython"
      ],
      [
        "Ġ",
        "u"
      ],
      [
        "m",
        "b"
      ],
      [
        "Ġk",
        "now"
      ],
      [
        "ĠA",
        "ll"
      ],
      [
        "g",
        "er"
      ],
      [
        "ec",
        "ut"
      ],
      [
        "Ġcom",
        "mand"
      ],
      [
        "Ġplayer",
        "s"
      ],
      [
        "ou",
        "gh"
      ],
      [
        "_",
        "f"
      ],
      [
        "Ġ",
        "calcula"
      ],
      [
        "p",
        "attern"
      ],
      [
        "Ġcalcula",
        "tion"
      ],
      [
        "p",
        "ath"
      ],
      [
        "im",
        "e"
      ],
      [
        "thin",
        "g"
      ],
      [
        "p",
        "o"
      ],
      [
        "\"",
        "},"
      ],
      [
        "in",
        "te"
      ],
      [
        "inte",
        "ger"
      ],
      [
        "is",
        "h"
      ],
      [
        "Ġlin",
        "es"
      ],
      [
        "g",
        "e"
      ],
      [
        "Ġan",
        "y"
      ],
      [
        "Ġfin",
        "ish"
      ],
      [
        "[",
        "],"
      ],
      [
        "Ġ",
        "en"
      ],
      [
        "b",
        "out"
      ],
      [
        "Ġth",
        "at"
      ],
      [
        "ecut",
        "e"
      ],
      [
        "in",
        "e"
      ],
      [
        "Ġ",
        "think"
      ],
      [
        "Ġel",
        "se"
      ],
      [
        "Ġany",
        "thing"
      ],
      [
        "Ġa",
        "bout"
      ],
      [
        "ar",
        "y"
      ],
      [
        "Ġcom",
        "plet"
      ],
      [
        "as",
        "s"
      ],
      [
        "Ġc",
        "ode"
      ],
      [
        "Ġ",
        "y"
      ],
      [
        "Ġd",
        "i"
      ],
      [
        "]",
        "}}}Ċ"
      ],
      [
        "for",
        "m"
      ],
      [
        "Ġme",
        "mory"
      ],
      [
        "Ġlin",
        "e"
      ],
      [
        ">",
        "Let"
      ],
      [
        "Ġu",
        "se"
      ],
      [
        "Ġ",
        "end"
      ],
      [
        "u",
        "al"
      ],
      [
        "et",
        "ch"
      ],
      [
        "ba",
        "se"
      ],
      [
        "ĊĊ",
        "Ċ"
      ],
      [
        "Ġn",
        "e"
      ],
      [
        "f",
        "ir"
      ],
      [
        "Ġcon",
        "fir"
      ],
      [
        "Ġs",
        "o"
      ],
      [
        "Ġfact",
        "ual"
      ],
      [
        "E",
        "valuate"
      ],
      [
        "R",
        "et"
      ],
      [
        "Ġr",
        "un"
      ],
      [
        "c",
        "ur"
      ],
      [
        "cess",
        "ary"
      ],
      [
        "f",
        "e"
      ],
      [
        "\"",
        "]}}}Ċ"
      ],
      [
        ".",
        "\"}},"
      ],
      [
        ".\"}},",
        "\""
      ],
      [
        "l",
        "ass"
      ],
      [
        "Ġne",
        "cessary"
      ],
      [
        "Fin",
        "d"
      ],
      [
        "Ġw",
        "hat"
      ],
      [
        "_",
        "search"
      ],
      [
        "{",
        "},"
      ],
      [
        "b",
        "o"
      ],
      [
        "l",
        "ed"
      ],
      [
        "led",
        "ge"
      ],
      [
        "bo",
        "x"
      ],
      [
        "\":\"",
        "-"
      ],
      [
        "Ġd",
        "if"
      ],
      [
        "fe",
        "rent"
      ],
      [
        "Ġdif",
        "ferent"
      ],
      [
        "Ġs",
        "and"
      ],
      [
        "Ġsand",
        "box"
      ],
      [
        "Ġen",
        "ough"
      ],
      [
        "mb",
        "ol"
      ],
      [
        "Ġhe",
        "re"
      ],
      [
        "e",
        "st"
      ],
      [
        "Ġt",
        "ime"
      ],
      [
        "E",
        "n"
      ],
      [
        "i",
        "ter"
      ],
      [
        "_",
        "lookup"
      ],
      [
        "r",
        "om"
      ],
      [
        "_",
        "find"
      ],
      [
        "l",
        "i"
      ],
      [
        "Ġt",
        "ext"
      ],
      [
        "Ġfil",
        "es"
      ],
      [
        "s",
        "s"
      ],
      [
        "Ġf",
        "rom"
      ],
      [
        "Ġp",
        "ath"
      ],
      [
        "Ġm",
        "ath"
      ],
      [
        "C",
        "om"
      ],
      [
        "iter",
        "al"
      ],
      [
        "w",
        "eb"
      ],
      [
        "ir",
        "st"
      ],
      [
        "b",
        "e"
      ],
      [
        "ter",
        "m"
      ],
      [
        "Re",
        "ad"
      ],
      [
        "oun",
        "d"
      ],
      [
        "ic",
        "ation"
      ],
      [
        "Ġ",
        "[],"
      ],
      [
        "Ġ",
        "{},"
      ],
      [
        "Ġit",
        "s"
      ],
      [
        "Ġs",
        "y"
      ],
      [
        "Ġ",
        "Final"
      ],
      [
        "Com",
        "pute"
      ],
      [
        "l",
        "o"
      ],
      [
        "Per",
        "form"
      ],
      [
        "S",
        "u"
      ],
      [
        "Ġmultipl",
        "ication"
      ],
      [
        "Ġre",
        "ad"
      ],
      [
        "Ġw",
        "e"
      ],
      [
        "_",
        "me"
      ],
      [
        "_me",
        "mory"
      ],
      [
        ">",
        "Another"
      ],
      [
        ">",
        "This"
      ],
      [
        "a",
        "st"
      ],
      [
        "_",
        "query"
      ],
      [
        "a",
        "ved"
      ],
      [
        "e",
        "ma"
      ],
      [
        "Ġf",
        "ound"
      ],
      [
        "re",
        "ad"
      ],
      [
        "ti",
        "ve"
      ],
      [
        "a",
        "ction"
      ],
      [
        "S",
        "olve"
      ],
      [
        "Ġde",
        "term"
      ],
      [
        "ti",
        "cal"
      ],
      [
        "Ġmath",
        "ema"
      ],
      [
        "Ġmathema",
        "tical"
      ],
      [
        "Ġsubtr",
        "action"
      ],
      [
        "Ġcomplet",
        "e"
      ],
      [
        "o",
        "us"
      ],
      [
        ">",
        "The"
      ],
      [
        "vi",
        "sion"
      ],
      [
        "Ġdi",
        "vision"
      ],
      [
        "Ġ",
        "qu"
      ],
      [
        "a",
        "in"
      ],
      [
        "d",
        "er"
      ],
      [
        "Ġc",
        "ur"
      ],
      [
        "to",
        "re"
      ],
      [
        "S",
        "e"
      ],
      [
        "Se",
        "arch"
      ],
      [
        "re",
        "vi"
      ],
      [
        "revi",
        "ous"
      ],
      [
        "i",
        "on"
      ],
      [
        "Ġde",
        "fin"
      ],
      [
        "l",
        "e"
      ],
      [
        "l",
        "a"
      ],
      [
        "p",
        "an"
      ],
      [
        "Ġac",
        "cur"
      ],
      [
        "Ġaccur",
        "ate"
      ],
      [
        "er",
        "r"
      ],
      [
        "l",
        "in"
      ],
      [
        "est",
        "ion"
      ],
      [
        "Ġqu",
        "estion"
      ],
      [
        "C",
        "lass"
      ],
      [
        "Ġl",
        "ast"
      ],
      [
        "i",
        "ent"
      ],
      [
        "Ġm",
        "an"
      ],
      [
        "Ġ",
        "j"
      ],
      [
        "f",
        "o"
      ],
      [
        "lin",
        "es"
      ],
      [
        "H",
        "ow"
      ],
      [
        "S",
        "hell"
      ],
      [
        "Ġwe",
        "re"
      ],
      [
        "Ġ",
        "err"
      ],
      [
        "Ġerr",
        "or"
      ],
      [
        "p",
        "ort"
      ],
      [
        "b",
        "string"
      ],
      [
        "Ġfil",
        "ter"
      ],
      [
        "Su",
        "bstring"
      ],
      [
        "il",
        "e"
      ],
      [
        "R",
        "un"
      ],
      [
        "ri",
        "e"
      ],
      [
        "v",
        "ol"
      ],
      [
        "Ġex",
        "ecute"
      ],
      [
        "Ġman",
        "y"
      ],
      [
        "Ġerror",
        "s"
      ],
      [
        "Ġ",
        "ri"
      ],
      [
        "si",
        "der"
      ],
      [
        "Ġp",
        "revious"
      ],
      [
        "Ġcon",
        "sider"
      ],
      [
        "f",
        "ic"
      ],
      [
        "L",
        "iteral"
      ],
      [
        "a",
        "m"
      ],
      [
        "Ġ",
        "Python"
      ],
      [
        "-",
        "re"
      ],
      [
        "F",
        "irst"
      ],
      [
        "Re",
        "po"
      ],
      [
        "la",
        "tive"
      ],
      [
        "-re",
        "lative"
      ],
      [
        "Ġd",
        "et"
      ],
      [
        "Ġaddition",
        "al"
      ],
      [
        "Ret",
        "urn"
      ],
      [
        "Ġwi",
        "ll"
      ],
      [
        "En",
        "d"
      ],
      [
        "f",
        "fic"
      ],
      [
        "Ġconfir",
        "m"
      ],
      [
        "c",
        "i"
      ],
      [
        "Ġcur",
        "rent"
      ],
      [
        "re",
        "call"
      ],
      [
        "Ġ",
        "calculator"
      ],
      [
        "at",
        "ed"
      ],
      [
        "ffic",
        "ient"
      ],
      [
        "Ġ",
        "us"
      ],
      [
        "Ġsy",
        "mbol"
      ],
      [
        "Ġj",
        "ob"
      ],
      [
        "i",
        "d"
      ],
      [
        "Ġus",
        "ing"
      ],
      [
        "'",
        "ll"
      ],
      [
        "Ġ",
        "as"
      ],
      [
        "r",
        "o"
      ],
      [
        "Ġdeterm",
        "ine"
      ],
      [
        "Ġsu",
        "fficient"
      ],
      [
        "ha",
        "in"
      ],
      [
        "b",
        "ly"
      ],
      [
        "ul",
        "ly"
      ],
      [
        "Ġ",
        "</"
      ],
      [
        "Ġpro",
        "ba"
      ],
      [
        "Ġproba",
        "bly"
      ],
      [
        "Ġknow",
        "n"
      ],
      [
        "lo",
        "ck"
      ],
      [
        "}}",
        "Ċ"
      ],
      [
        "Ġf",
        "ully"
      ],
      [
        "Ġa",
        "f"
      ],
      [
        "rie",
        "ve"
      ],
      [
        "Ġy",
        "ou"
      ],
      [
        "se",
        "ss"
      ],
      [
        "Ġas",
        "sess"
      ],
      [
        "Ġaf",
        "ter"
      ],
      [
        "l",
        "ow"
      ],
      [
        "Ġread",
        "y"
      ],
      [
        "_s",
        "tore"
      ],
      [
        "tor",
        "y"
      ],
      [
        "Ġ",
        "val"
      ],
      [
        "Ġin",
        "vol"
      ],
      [
        "Ġinvol",
        "ved"
      ],
      [
        "Ġval",
        "id"
      ],
      [
        "Ġknow",
        "ledge"
      ],
      [
        "Ġex",
        "ternal"
      ],
      [
        ".",
        "\"},"
      ],
      [
        ".\"},",
        "\""
      ],
      [
        "ol",
        "low"
      ],
      [
        "Ġf",
        "ollow"
      ],
      [
        ">",
        "Perhaps"
      ],
      [
        "l",
        "ine"
      ],
      [
        "Ġ",
        "tools"
      ],
      [
        "l",
        "u"
      ],
      [
        "me",
        "d"
      ],
      [
        "ver",
        "if"
      ],
      [
        "Ġw",
        "h"
      ],
      [
        "z",
        "e"
      ],
      [
        "Q",
        "u"
      ],
      [
        "s",
        "u"
      ],
      [
        "Qu",
        "ery"
      ],
      [
        "Ġn",
        "ow"
      ],
      [
        "Ġ",
        "verif"
      ],
      [
        "S",
        "t"
      ],
      [
        "Ġ",
        "What"
      ],
      [
        "St",
        "art"
      ],
      [
        "a",
        "se"
      ],
      [
        "ect",
        "ed"
      ],
      [
        "Ġto",
        "p"
      ],
      [
        "e",
        "w"
      ],
      [
        "Ġl",
        "en"
      ],
      [
        "r",
        "un"
      ],
      [
        "Ġ",
        "h"
      ],
      [
        "g",
        "th"
      ],
      [
        "Ġ",
        "g"
      ],
      [
        "Ġlen",
        "gth"
      ],
      [
        "Ġdet",
        "ected"
      ],
      [
        "Ġtop",
        "ic"
      ],
      [
        "Ġw",
        "as"
      ],
      [
        "i",
        "e"
      ],
      [
        "Ġis",
        "su"
      ],
      [
        "Ġissu",
        "es"
      ],
      [
        "Ġinternal",
        "ly"
      ],
      [
        "M",
        "ultipl"
      ],
      [
        "Ġdefin",
        "ition"
      ],
      [
        "Ġm",
        "at"
      ],
      [
        "_",
        "k"
      ],
      [
        "Multipl",
        "y"
      ],
      [
        "Ġs",
        "hell"
      ],
      [
        "ar",
        "d"
      ],
      [
        "Ġprevious",
        "ly"
      ],
      [
        "p",
        "y"
      ],
      [
        "Ġ",
        "proper"
      ],
      [
        "oun",
        "t"
      ],
      [
        "_",
        "in"
      ],
      [
        "Ġcode",
        "base"
      ],
      [
        "Ġmat",
        "ch"
      ],
      [
        "Ġri",
        "ver"
      ],
      [
        "ol",
        "ated"
      ],
      [
        "Ġis",
        "olated"
      ],
      [
        "Ġp",
        "a"
      ],
      [
        "Ġproper",
        "ly"
      ],
      [
        "Ġs",
        "aved"
      ],
      [
        "_",
        "web"
      ],
      [
        "li",
        "st"
      ],
      [
        "Ġre",
        "me"
      ],
      [
        "e",
        "red"
      ],
      [
        "F",
        "etch"
      ],
      [
        "mb",
        "ered"
      ],
      [
        "Ġreme",
        "mbered"
      ],
      [
        "Ġpa",
        "ir"
      ],
      [
        "E",
        "x"
      ],
      [
        "ex",
        "ternal"
      ],
      [
        "r",
        "ough"
      ],
      [
        "Ġth",
        "rough"
      ],
      [
        "Ġconfir",
        "med"
      ],
      [
        "ti",
        "n"
      ],
      [
        "/",
        "value"
      ],
      [
        "Ex",
        "ecute"
      ],
      [
        "{",
        "}}"
      ],
      [
        "\":",
        "[],"
      ],
      [
        "\":",
        "{}}"
      ],
      [
        "\":[],",
        "\""
      ],
      [
        "\":{}}",
        "}}Ċ"
      ],
      [
        "_",
        "base"
      ],
      [
        "now",
        "ledge"
      ],
      [
        "_k",
        "nowledge"
      ],
      [
        "_f",
        "act"
      ],
      [
        "c",
        "lu"
      ],
      [
        "re",
        "p"
      ],
      [
        "Ġrequi",
        "res"
      ],
      [
        "es",
        "pan"
      ],
      [
        "if",
        "espan"
      ],
      [
        "Ġl",
        "ifespan"
      ],
      [
        "ci",
        "es"
      ],
      [
        "Re",
        "port"
      ],
      [
        "w",
        "z"
      ],
      [
        "Ġ",
        "U"
      ],
      [
        "ĠU",
        "se"
      ],
      [
        "o",
        "me"
      ],
      [
        "Ġcon",
        "clu"
      ],
      [
        "_",
        "on"
      ],
      [
        "_on",
        "line"
      ],
      [
        "Ġl",
        "i"
      ],
      [
        "Ret",
        "rieve"
      ],
      [
        "Ġcomplet",
        "ed"
      ],
      [
        "_f",
        "ile"
      ],
      [
        "st",
        "at"
      ],
      [
        "f",
        "act"
      ],
      [
        "crip",
        "t"
      ],
      [
        "u",
        "e"
      ],
      [
        "ar",
        "s"
      ],
      [
        ">",
        "Final"
      ],
      [
        "m",
        "o"
      ],
      [
        "al",
        "l"
      ],
      [
        ".",
        "py"
      ],
      [
        "k",
        "b"
      ],
      [
        "p",
        "ython"
      ],
      [
        "um",
        "m"
      ],
      [
        "Ġ",
        "R"
      ],
      [
        "vi",
        "ew"
      ],
      [
        "Ġc",
        "hain"
      ],
      [
        "Ġin",
        "tern"
      ],
      [
        "Ġintern",
        "et"
      ],
      [
        "er",
        "ate"
      ],
      [
        "z",
        "ed"
      ],
      [
        "Ġin",
        "put"
      ],
      [
        "ver",
        "view"
      ],
      [
        "um",
        "erate"
      ],
      [
        "N",
        "eed"
      ],
      [
        "he",
        "re"
      ],
      [
        "Ġli",
        "ke"
      ],
      [
        "t",
        "ime"
      ],
      [
        "an",
        "g"
      ],
      [
        "Ġp",
        "ie"
      ],
      [
        "Ġpie",
        "ce"
      ],
      [
        "v",
        "ing"
      ],
      [
        "Ġ",
        "assistant"
      ],
      [
        "k",
        "v"
      ],
      [
        "m",
        "ent"
      ],
      [
        "w",
        "ard"
      ],
      [
        "Ġ",
        "pr"
      ],
      [
        "_in",
        "fo"
      ],
      [
        "_",
        "recall"
      ],
      [
        "on",
        "ing"
      ],
      [
        "as",
        "oning"
      ],
      [
        "Ġre",
        "asoning"
      ],
      [
        "Ġbe",
        "fo"
      ],
      [
        "Ġbefo",
        "re"
      ],
      [
        "a",
        "p"
      ],
      [
        "f",
        "etch"
      ],
      [
        "Ġcon",
        "t"
      ],
      [
        "_s",
        "aved"
      ],
      [
        "u",
        "st"
      ],
      [
        "Ġt",
        "a"
      ],
      [
        "es",
        "ult"
      ],
      [
        "s",
        "ing"
      ],
      [
        "Ġd",
        "on"
      ],
      [
        "a",
        "il"
      ],
      [
        "Ġ",
        "ha"
      ],
      [
        "Ġb",
        "ase"
      ],
      [
        "_",
        "list"
      ],
      [
        "Ġy",
        "e"
      ],
      [
        "_",
        "value"
      ],
      [
        "_s",
        "tored"
      ],
      [
        "r",
        "on"
      ],
      [
        "pe",
        "ed"
      ],
      [
        "Ġre",
        "po"
      ],
      [
        "Ġhe",
        "ight"
      ],
      [
        "Ġmo",
        "ving"
      ],
      [
        "Ġsu",
        "re"
      ],
      [
        "Ġfor",
        "ward"
      ],
      [
        "Ġcom",
        "put"
      ],
      [
        "i",
        "p"
      ],
      [
        "pres",
        "ent"
      ],
      [
        "_s",
        "ource"
      ],
      [
        "Ġl",
        "o"
      ],
      [
        "Ġha",
        "ve"
      ],
      [
        "ĠR",
        "esult"
      ],
      [
        "Ġc",
        "ome"
      ],
      [
        "si",
        "s"
      ],
      [
        "Ġverif",
        "y"
      ],
      [
        "b",
        "all"
      ],
      [
        "m",
        "m"
      ],
      [
        "Ġpr",
        "i"
      ],
      [
        "Ġpri",
        "or"
      ],
      [
        "am",
        "p"
      ],
      [
        "Ġbase",
        "d"
      ],
      [
        "i",
        "ve"
      ],
      [
        "Ġlike",
        "ly"
      ],
      [
        "Ġ",
        "The"
      ],
      [
        "sy",
        "mbol"
      ],
      [
        "Ġcome",
        "s"
      ],
      [
        "st",
        "amp"
      ],
      [
        "Ġye",
        "ars"
      ],
      [
        "_",
        "get"
      ],
      [
        "me",
        "mo"
      ],
      [
        "si",
        "tory"
      ],
      [
        "Ġb",
        "ut"
      ],
      [
        "Ġrepo",
        "sitory"
      ],
      [
        "Ġ",
        "present"
      ],
      [
        "al",
        "y"
      ],
      [
        "Ġm",
        "is"
      ],
      [
        "Ġpro",
        "ject"
      ],
      [
        "u",
        "re"
      ],
      [
        "_f",
        "etch"
      ],
      [
        "Ġs",
        "peed"
      ],
      [
        "pe",
        "t"
      ],
      [
        "Ġprocess",
        "ing"
      ],
      [
        "u",
        "ct"
      ],
      [
        "Ġta",
        "ke"
      ],
      [
        "Ġan",
        "aly"
      ],
      [
        "n",
        "ip"
      ],
      [
        "Ġmis",
        "sing"
      ],
      [
        "nip",
        "pet"
      ],
      [
        "Ġconclu",
        "de"
      ],
      [
        "Ġanaly",
        "sis"
      ],
      [
        "ti",
        "li"
      ],
      [
        "Ġu",
        "tili"
      ],
      [
        "Ġutili",
        "zed"
      ],
      [
        "Ġcon",
        "tin"
      ],
      [
        "Ġc",
        "lock"
      ],
      [
        "Ġac",
        "cess"
      ],
      [
        "a",
        "b"
      ],
      [
        "Ġsee",
        "m"
      ],
      [
        "-",
        "up"
      ],
      [
        "re",
        "po"
      ],
      [
        "ag",
        "e"
      ],
      [
        "M",
        "ay"
      ],
      [
        "Ġseem",
        "s"
      ],
      [
        "May",
        "be"
      ],
      [
        "c",
        "re"
      ],
      [
        "Ġcontin",
        "ue"
      ],
      [
        "Ġin",
        "com"
      ],
      [
        "Ġmay",
        "be"
      ],
      [
        "plet",
        "e"
      ],
      [
        "Ġincom",
        "plete"
      ],
      [
        "i",
        "st"
      ],
      [
        "c",
        "on"
      ],
      [
        "Ġw",
        "here"
      ],
      [
        "Ġk",
        "m"
      ],
      [
        "Ġd",
        "ate"
      ],
      [
        "Ġc",
        "ount"
      ],
      [
        "Ġd",
        "is"
      ],
      [
        "an",
        "ge"
      ],
      [
        "p",
        "h"
      ],
      [
        "Ġdo",
        "c"
      ],
      [
        "c",
        "lock"
      ],
      [
        "Ġ",
        "str"
      ],
      [
        "_",
        "python"
      ],
      [
        "pan",
        "cies"
      ],
      [
        "cre",
        "pancies"
      ],
      [
        "Ġdis",
        "crepancies"
      ],
      [
        "Ġ",
        "'"
      ],
      [
        "_",
        "stat"
      ],
      [
        "_stat",
        "s"
      ],
      [
        "Ġfact",
        "s"
      ],
      [
        "'",
        "t"
      ],
      [
        "o",
        "se"
      ],
      [
        "ag",
        "ent"
      ],
      [
        "or",
        "d"
      ],
      [
        "Ġdoc",
        "string"
      ],
      [
        "Ġper",
        "form"
      ],
      [
        "Ġs",
        "cript"
      ],
      [
        "Ġdefin",
        "ed"
      ],
      [
        "P",
        "ro"
      ],
      [
        "_",
        "time"
      ],
      [
        "s",
        "c"
      ],
      [
        "Pro",
        "cess"
      ],
      [
        "Ġmatch",
        "es"
      ],
      [
        "Ġe",
        "v"
      ],
      [
        "Ġfollow",
        "ed"
      ],
      [
        "Ġev",
        "ery"
      ],
      [
        "i",
        "ed"
      ],
      [
        "Ġa",
        "t"
      ],
      [
        "_ex",
        "ec"
      ],
      [
        "ren",
        "ces"
      ],
      [
        "En",
        "umerate"
      ],
      [
        "al",
        "ly"
      ],
      [
        "Ġo",
        "c"
      ],
      [
        "S",
        "h"
      ],
      [
        "cur",
        "rences"
      ],
      [
        "Ġoc",
        "currences"
      ],
      [
        "Sh",
        "ow"
      ],
      [
        "il",
        "es"
      ],
      [
        "Ġel",
        "e"
      ],
      [
        "_f",
        "iles"
      ],
      [
        "Ġc",
        "lass"
      ],
      [
        "Ġc",
        "an"
      ],
      [
        "Ġstr",
        "uct"
      ],
      [
        "Ġac",
        "ro"
      ],
      [
        "Ġacro",
        "ss"
      ],
      [
        "_",
        "code"
      ],
      [
        "p",
        "tion"
      ],
      [
        "Ġre",
        "c"
      ],
      [
        "Ġsi",
        "ze"
      ],
      [
        "Ġstruct",
        "ure"
      ],
      [
        "C",
        "hain"
      ],
      [
        "re",
        "c"
      ],
      [
        "L",
        "ist"
      ],
      [
        "as",
        "h"
      ],
      [
        "Ġ",
        "string"
      ],
      [
        "vi",
        "ron"
      ],
      [
        "Ġr",
        "ange"
      ],
      [
        "Ġen",
        "viron"
      ],
      [
        "Ġenviron",
        "ment"
      ],
      [
        "g",
        "r"
      ],
      [
        "Ġm",
        "ust"
      ],
      [
        "Ġcont",
        "ents"
      ],
      [
        "p",
        "en"
      ],
      [
        "G",
        "ive"
      ],
      [
        "Ġo",
        "verview"
      ],
      [
        "Ġo",
        "ption"
      ],
      [
        "Ġfil",
        "te"
      ],
      [
        "Ġoption",
        "ally"
      ],
      [
        "Ġfilte",
        "red"
      ],
      [
        "Ġhe",
        "l"
      ],
      [
        "Ġdi",
        "rec"
      ],
      [
        "O",
        "pen"
      ],
      [
        "v",
        "ation"
      ],
      [
        "ari",
        "ze"
      ],
      [
        "Ġy",
        "our"
      ],
      [
        "umm",
        "arize"
      ],
      [
        "ord",
        "s"
      ],
      [
        "S",
        "ummarize"
      ],
      [
        "Ġtime",
        "stamp"
      ],
      [
        "Ġcount",
        "s"
      ],
      [
        "Ġdirec",
        "tory"
      ],
      [
        "Ġsandbox",
        "ed"
      ],
      [
        "C",
        "an"
      ],
      [
        "g",
        "rep"
      ],
      [
        "un",
        "it"
      ],
      [
        "Ġele",
        "vation"
      ],
      [
        "u",
        "th"
      ],
      [
        "a",
        "c"
      ],
      [
        "f",
        "ile"
      ],
      [
        "Ġs",
        "nippet"
      ],
      [
        "Ġhel",
        "p"
      ],
      [
        "Ġend",
        "ed"
      ],
      [
        "Ġcalculation",
        "s"
      ],
      [
        "Ġrec",
        "ords"
      ],
      [
        "Ġp",
        "attern"
      ],
      [
        "Ġwh",
        "ose"
      ],
      [
        "_",
        "symbol"
      ],
      [
        "G",
        "et"
      ],
      [
        "pro",
        "ject"
      ],
      [
        "Ġf",
        "irst"
      ],
      [
        "_",
        "de"
      ],
      [
        "Ġcomput",
        "ation"
      ],
      [
        "G",
        "rep"
      ],
      [
        "Ġl",
        "iteral"
      ],
      [
        "The",
        "re"
      ],
      [
        "Ġsy",
        "stem"
      ],
      [
        ">",
        "End"
      ],
      [
        "Ġwh",
        "en"
      ],
      [
        "ci",
        "se"
      ],
      [
        "Ġverif",
        "ied"
      ],
      [
        "_",
        "read"
      ],
      [
        "ay",
        "s"
      ],
      [
        "_",
        "now"
      ],
      [
        "Ġs",
        "tore"
      ],
      [
        "l",
        "es"
      ],
      [
        "pl",
        "e"
      ],
      [
        "Ġsearch",
        "ing"
      ],
      [
        "um",
        "an"
      ],
      [
        "ou",
        "ght"
      ],
      [
        "s",
        "er"
      ],
      [
        "pl",
        "ain"
      ],
      [
        "b",
        "ash"
      ],
      [
        "t",
        "en"
      ],
      [
        "Ġ",
        "Ġ"
      ],
      [
        "c",
        "a"
      ],
      [
        "u",
        "age"
      ],
      [
        "Ġret",
        "rieve"
      ],
      [
        "ang",
        "uage"
      ],
      [
        "in",
        "ed"
      ],
      [
        "Ġin",
        "str"
      ],
      [
        "Ġdeterm",
        "ined"
      ],
      [
        "ab",
        "le"
      ],
      [
        "f",
        "ul"
      ],
      [
        "Ġ",
        "calc"
      ],
      [
        "in",
        "d"
      ],
      [
        "Ġri",
        "ght"
      ],
      [
        "Ġhelp",
        "ful"
      ],
      [
        "b",
        "it"
      ],
      [
        "'",
        ".ĊĊ"
      ],
      [
        "_",
        "clock"
      ],
      [
        "l",
        "w"
      ],
      [
        "th",
        "ought"
      ],
      [
        "Ġex",
        "plain"
      ],
      [
        "ĠA",
        "lw"
      ],
      [
        "Ġquestion",
        "s"
      ],
      [
        "ĠAlw",
        "ays"
      ],
      [
        "Ġ",
        "al"
      ],
      [
        "ain",
        "ed"
      ],
      [
        "Ġcon",
        "cise"
      ],
      [
        "Ġc",
        "ap"
      ],
      [
        "Ġre",
        "port"
      ],
      [
        "Ġor",
        "bit"
      ],
      [
        "e",
        "ll"
      ],
      [
        "Ġin",
        "con"
      ],
      [
        "Ġincon",
        "sist"
      ],
      [
        "Ġac",
        "c"
      ],
      [
        "Ġ",
        "calcul"
      ],
      [
        "Ġ",
        "ob"
      ],
      [
        "_s",
        "hell"
      ],
      [
        "Ġ",
        "/"
      ],
      [
        "Ġdet",
        "ail"
      ],
      [
        "c",
        "y"
      ],
      [
        "_",
        "run"
      ],
      [
        "ex",
        "ecute"
      ],
      [
        "Ġ",
        "requ"
      ],
      [
        "en",
        "cies"
      ],
      [
        "Ġm",
        "ph"
      ],
      [
        "it",
        "al"
      ],
      [
        "Ġcap",
        "ital"
      ],
      [
        "Ġrequ",
        "est"
      ],
      [
        "Ġinconsist",
        "encies"
      ],
      [
        "ount",
        "ed"
      ],
      [
        "Ġacc",
        "ounted"
      ],
      [
        "Ġlo",
        "c"
      ],
      [
        "re",
        "a"
      ],
      [
        "Ġt",
        "r"
      ],
      [
        "umm",
        "ary"
      ],
      [
        "Ġc",
        "h"
      ],
      [
        "Ġlo",
        "g"
      ],
      [
        "A",
        "dd"
      ],
      [
        "n",
        "e"
      ],
      [
        "Ġc",
        "rea"
      ],
      [
        "Ġcrea",
        "tor"
      ],
      [
        "oo",
        "t"
      ],
      [
        "l",
        "s"
      ],
      [
        "Ġf",
        "am"
      ],
      [
        "il",
        "y"
      ],
      [
        "Ġfam",
        "ily"
      ],
      [
        "Ġde",
        "vi"
      ],
      [
        "Ġrequest",
        "ed"
      ],
      [
        "Ġinstr",
        "uments"
      ],
      [
        "u",
        "g"
      ],
      [
        "Ġa",
        "uth"
      ],
      [
        "Ġr",
        "ot"
      ],
      [
        "[",
        "]}}}Ċ"
      ],
      [
        "_",
        "o"
      ],
      [
        "\":",
        "{},"
      ],
      [
        "\":",
        "[]}}}Ċ"
      ],
      [
        "_o",
        "verview"
      ],
      [
        "\":{},",
        "\""
      ],
      [
        "t",
        "ained"
      ],
      [
        "Ġob",
        "tained"
      ],
      [
        "Ġauth",
        "or"
      ],
      [
        "btr",
        "act"
      ],
      [
        "Su",
        "btract"
      ],
      [
        "ten",
        "tion"
      ],
      [
        "en",
        "ce"
      ],
      [
        "Ġsh",
        "ar"
      ],
      [
        "Ġrot",
        "ation"
      ],
      [
        "U",
        "ser"
      ],
      [
        "stat",
        "us"
      ],
      [
        "Ġ",
        "v"
      ],
      [
        "Ġ",
        "{"
      ],
      [
        "to",
        "n"
      ],
      [
        "code",
        "base"
      ],
      [
        "_s",
        "ummary"
      ],
      [
        "Ġloc",
        "ate"
      ],
      [
        "qu",
        "ence"
      ],
      [
        "o",
        "ple"
      ],
      [
        "Ġ",
        "st"
      ],
      [
        "pe",
        "ople"
      ],
      [
        "or",
        "m"
      ],
      [
        "Ġse",
        "quence"
      ],
      [
        "Ġdon",
        "e"
      ],
      [
        "s",
        "cript"
      ],
      [
        "N",
        "ow"
      ],
      [
        "Ġm",
        "ass"
      ],
      [
        "Ġ{",
        "}}Ċ"
      ],
      [
        "n",
        "ew"
      ],
      [
        "ll",
        "m"
      ],
      [
        "ad",
        "er"
      ],
      [
        "new",
        "llm"
      ],
      [
        "Ġcheck",
        "ed"
      ],
      [
        "ĠT",
        "his"
      ],
      [
        "gr",
        "ug"
      ],
      [
        "Ġl",
        "anguage"
      ],
      [
        "Ġso",
        "me"
      ],
      [
        "m",
        "ode"
      ],
      [
        "Ġex",
        "ecut"
      ],
      [
        "mode",
        "l"
      ],
      [
        "l",
        "f"
      ],
      [
        "en",
        "umerate"
      ],
      [
        "u",
        "d"
      ],
      [
        "st",
        "ant"
      ],
      [
        "Ġon",
        "line"
      ],
      [
        "Ġcon",
        "stant"
      ],
      [
        "ac",
        "tive"
      ],
      [
        "ation",
        "s"
      ],
      [
        "Ġcomput",
        "ed"
      ],
      [
        "tr",
        "y"
      ],
      [
        "ren",
        "cy"
      ],
      [
        "oun",
        "try"
      ],
      [
        "Ġcur",
        "rency"
      ],
      [
        "_",
        "d"
      ],
      [
        "sc",
        "an"
      ],
      [
        "Ġexecut",
        "ed"
      ],
      [
        "\"",
        "\""
      ],
      [
        "read",
        "y"
      ],
      [
        "Ġconclu",
        "ded"
      ],
      [
        "Ġal",
        "ready"
      ],
      [
        "Ġlog",
        "ic"
      ],
      [
        "se",
        "t"
      ],
      [
        "ri",
        "be"
      ],
      [
        "ve",
        "people"
      ],
      [
        "ca",
        "vepeople"
      ],
      [
        "Ġg",
        "i"
      ],
      [
        "P",
        "le"
      ],
      [
        "r",
        "s"
      ],
      [
        "Ple",
        "ase"
      ],
      [
        "Ġa",
        "d"
      ],
      [
        "An",
        "d"
      ],
      [
        "Ġm",
        "a"
      ],
      [
        "cri",
        "be"
      ],
      [
        "l",
        "d"
      ],
      [
        "fin",
        "ition"
      ],
      [
        "ata",
        "set"
      ],
      [
        "_de",
        "finition"
      ],
      [
        "d",
        "ir"
      ],
      [
        "Ġ",
        "<|"
      ],
      [
        "Ġn",
        "o"
      ],
      [
        "_list",
        "ing"
      ],
      [
        "c",
        "at"
      ],
      [
        "Ġa",
        "v"
      ],
      [
        "_",
        "grep"
      ],
      [
        "g",
        "ent"
      ],
      [
        "l",
        "ing"
      ],
      [
        "r",
        "a"
      ],
      [
        "e",
        "l"
      ],
      [
        "tr",
        "ain"
      ],
      [
        "op",
        "en"
      ],
      [
        "Ġwith",
        "out"
      ],
      [
        "tin",
        "g"
      ],
      [
        "Ġh",
        "as"
      ],
      [
        "ail",
        "able"
      ],
      [
        "Ġav",
        "ailable"
      ],
      [
        "des",
        "cribe"
      ],
      [
        "c",
        "ud"
      ],
      [
        "am",
        "m"
      ],
      [
        "cud",
        "a"
      ],
      [
        "d",
        "ay"
      ],
      [
        "Ġa",
        "gent"
      ],
      [
        ">",
        "Need"
      ],
      [
        "t",
        "k"
      ],
      [
        "Ġs",
        "olve"
      ],
      [
        "ain",
        "s"
      ],
      [
        "Ġad",
        "j"
      ],
      [
        "g",
        "a"
      ],
      [
        "o",
        "c"
      ],
      [
        "_de",
        "f"
      ],
      [
        "_",
        "bash"
      ],
      [
        "g",
        "y"
      ],
      [
        "Ġ",
        "ask"
      ],
      [
        "Ġw",
        "ant"
      ],
      [
        "Ġdevi",
        "ations"
      ],
      [
        "Ġask",
        "ing"
      ],
      [
        "n",
        "is"
      ],
      [
        "Ġf",
        "oot"
      ],
      [
        "in",
        "ce"
      ],
      [
        "Ġa",
        "p"
      ],
      [
        "c",
        "ome"
      ],
      [
        "h",
        "uman"
      ],
      [
        "Ġh",
        "uman"
      ],
      [
        "C",
        "al"
      ],
      [
        "b",
        "les"
      ],
      [
        "c",
        "ul"
      ],
      [
        "s",
        "hell"
      ],
      [
        "pl",
        "y"
      ],
      [
        "Ġfoot",
        "ball"
      ],
      [
        "Cal",
        "cul"
      ],
      [
        "Ġ",
        "start"
      ],
      [
        "Ġm",
        "ain"
      ],
      [
        "Ġl",
        "e"
      ],
      [
        "Ġdi",
        "d"
      ],
      [
        "(",
        "n"
      ],
      [
        "to",
        "day"
      ],
      [
        "et",
        "ball"
      ],
      [
        "m",
        "ind"
      ],
      [
        "r",
        "f"
      ],
      [
        "Ġ",
        "response"
      ],
      [
        "Re",
        "mind"
      ],
      [
        "ust",
        "ment"
      ],
      [
        "Ġadj",
        "ustment"
      ],
      [
        "k",
        "en"
      ],
      [
        "al",
        "i"
      ],
      [
        "Ġd",
        "ou"
      ],
      [
        "p",
        "t"
      ],
      [
        "at",
        "tention"
      ],
      [
        "Ġcont",
        "ains"
      ],
      [
        "Ġv",
        "ari"
      ],
      [
        "s",
        "h"
      ],
      [
        "al",
        "e"
      ],
      [
        "Ġprovi",
        "de"
      ],
      [
        "ie",
        "ld"
      ],
      [
        "Ġshar",
        "e"
      ],
      [
        "Ġgi",
        "v"
      ],
      [
        "Ġdou",
        "bles"
      ],
      [
        "Ġreturn",
        "ed"
      ],
      [
        "lo",
        "ad"
      ],
      [
        "Ġin",
        "ter"
      ],
      [
        "Ġcalcul",
        "ate"
      ],
      [
        "_d",
        "ataset"
      ],
      [
        "C",
        "ould"
      ],
      [
        "Ġsome",
        "thing"
      ],
      [
        ".",
        "."
      ],
      [
        "c",
        "lass"
      ],
      [
        "_s",
        "nippet"
      ],
      [
        "Ġcalcul",
        "ated"
      ],
      [
        "er",
        "gy"
      ],
      [
        "Ġbe",
        "ar"
      ],
      [
        "Ġen",
        "ergy"
      ],
      [
        ">",
        "Process"
      ],
      [
        "cur",
        "rent"
      ],
      [
        "_time",
        "stamp"
      ],
      [
        "_",
        "command"
      ],
      [
        ">",
        "Maybe"
      ],
      [
        "P",
        "revious"
      ],
      [
        "i",
        "g"
      ],
      [
        "Ġt",
        "en"
      ],
      [
        "b",
        "le"
      ],
      [
        "un",
        "e"
      ],
      [
        "Ġex",
        "act"
      ],
      [
        "Ġk",
        "g"
      ],
      [
        "pt",
        "une"
      ],
      [
        "u",
        "se"
      ],
      [
        "r",
        "b"
      ],
      [
        "Ġ",
        "un"
      ],
      [
        "p",
        "x"
      ],
      [
        "in",
        "al"
      ],
      [
        "de",
        "l"
      ],
      [
        "Ġtr",
        "uth"
      ],
      [
        "Ġ",
        "status"
      ],
      [
        "n",
        "orm"
      ],
      [
        "ma",
        "in"
      ],
      [
        "ab",
        "les"
      ],
      [
        "c",
        "o"
      ],
      [
        "i",
        "ate"
      ],
      [
        "med",
        "iate"
      ],
      [
        "Ġinter",
        "mediate"
      ],
      [
        "im",
        "port"
      ],
      [
        "term",
        "inal"
      ],
      [
        "Ġ",
        "ing"
      ],
      [
        "red",
        "ient"
      ],
      [
        "Ġfinish",
        "ed"
      ],
      [
        "Ġuse",
        "d"
      ],
      [
        "Ġvari",
        "ables"
      ],
      [
        "Ġing",
        "redient"
      ],
      [
        ">",
        "Chain"
      ],
      [
        "L",
        "ast"
      ],
      [
        "an",
        "s"
      ],
      [
        "Ġmo",
        "del"
      ],
      [
        "s",
        "p"
      ],
      [
        "Ġ",
        "J"
      ],
      [
        "Ġf",
        "ield"
      ],
      [
        "Ġwh",
        "ale"
      ],
      [
        "in",
        "t"
      ],
      [
        ">The",
        "re"
      ],
      [
        "Ġt",
        "ell"
      ],
      [
        "..",
        ".Ċ"
      ],
      [
        "V",
        "al"
      ],
      [
        "Ġ",
        "vol"
      ],
      [
        "ver",
        "s"
      ],
      [
        "Val",
        "ue"
      ],
      [
        "Ġ",
        "unit"
      ],
      [
        "re",
        "e"
      ],
      [
        "ect",
        "ron"
      ],
      [
        "train",
        "ing"
      ],
      [
        "y",
        "u"
      ],
      [
        "Ġe",
        "qu"
      ],
      [
        "\\",
        "u"
      ],
      [
        "ol",
        "ar"
      ],
      [
        "Ġs",
        "ol"
      ],
      [
        "oo",
        "d"
      ],
      [
        "he",
        "ad"
      ],
      [
        "Ġten",
        "nis"
      ],
      [
        "c",
        "er"
      ],
      [
        "i",
        "ch"
      ],
      [
        "Ġdetail",
        "s"
      ],
      [
        "our",
        "s"
      ],
      [
        "Ġh",
        "ours"
      ],
      [
        "i",
        "zed"
      ],
      [
        "ri",
        "ch"
      ],
      [
        "Ġre",
        "st"
      ],
      [
        "Ġret",
        "rie"
      ],
      [
        "form",
        "er"
      ],
      [
        "mo",
        "sp"
      ],
      [
        "ans",
        "former"
      ],
      [
        "mosp",
        "here"
      ],
      [
        "th",
        "e"
      ],
      [
        "Ġnumber",
        "s"
      ],
      [
        "le",
        "ader"
      ],
      [
        "Ġle",
        "ader"
      ],
      [
        "Ġretrie",
        "ved"
      ],
      [
        "y",
        "d"
      ],
      [
        "Ġfinal",
        "ized"
      ],
      [
        "(",
        "s"
      ],
      [
        "u",
        "tion"
      ],
      [
        "Ġ",
        "S"
      ],
      [
        "Ġs",
        "tor"
      ],
      [
        "Ġg",
        "r"
      ],
      [
        "Ġap",
        "ply"
      ],
      [
        "Ġstor",
        "age"
      ],
      [
        "ar",
        "th"
      ],
      [
        "Ġat",
        "mosphere"
      ],
      [
        "c",
        "ountry"
      ],
      [
        "Ġc",
        "ountry"
      ],
      [
        "Ġmultiply",
        "ing"
      ],
      [
        "on",
        "e"
      ],
      [
        "and",
        "a"
      ],
      [
        "T",
        "ell"
      ],
      [
        "d",
        "uct"
      ],
      [
        "t",
        "ribe"
      ],
      [
        "Ġt",
        "ribe"
      ],
      [
        "Ġg",
        "a"
      ],
      [
        ")",
        ":"
      ],
      [
        "j",
        "un"
      ],
      [
        "en",
        "jun"
      ],
      [
        "ch",
        "enjun"
      ],
      [
        "Ġh",
        "and"
      ],
      [
        "ang",
        "chenjun"
      ],
      [
        "Ġgiv",
        "en"
      ],
      [
        "angchenjun",
        "ga"
      ],
      [
        "_",
        "version"
      ],
      [
        "Ġc",
        "l"
      ],
      [
        "ate",
        "st"
      ],
      [
        "Ġl",
        "atest"
      ],
      [
        "ro",
        "pe"
      ],
      [
        "M",
        "e"
      ],
      [
        "_",
        "attention"
      ],
      [
        "l",
        "anguage"
      ],
      [
        "e",
        "re"
      ],
      [
        "Ġp",
        "re"
      ],
      [
        "ĠĠ",
        "ĠĠ"
      ],
      [
        ")",
        ","
      ],
      [
        "um",
        "p"
      ],
      [
        "Ġpro",
        "gr"
      ],
      [
        "ba",
        "ck"
      ],
      [
        "amm",
        "ing"
      ],
      [
        "Ġprogr",
        "amming"
      ],
      [
        "Ġ",
        "\\"
      ],
      [
        "k",
        "al"
      ],
      [
        "Ġw",
        "or"
      ],
      [
        "Ġcon",
        "vers"
      ],
      [
        "Ġconvers",
        "ation"
      ],
      [
        "_",
        "head"
      ],
      [
        "n",
        "ap"
      ],
      [
        "arg",
        "e"
      ],
      [
        "ri",
        "s"
      ],
      [
        "ag",
        "le"
      ],
      [
        "Ġre",
        "f"
      ],
      [
        "Ġo",
        "yu"
      ],
      [
        "urn",
        "a"
      ],
      [
        "ap",
        "h"
      ],
      [
        "Ġch",
        "arge"
      ],
      [
        "ump",
        "back"
      ],
      [
        "nap",
        "urna"
      ],
      [
        "_",
        "norm"
      ],
      [
        "u",
        "to"
      ],
      [
        "re",
        "st"
      ],
      [
        "as",
        "si"
      ],
      [
        "Ġis",
        "n"
      ],
      [
        "vi",
        "ce"
      ],
      [
        "de",
        "vice"
      ],
      [
        "Ġbe",
        "ca"
      ],
      [
        "Ġp",
        "anda"
      ],
      [
        "ve",
        "rest"
      ],
      [
        "and",
        "ard"
      ],
      [
        "Ġg",
        "ive"
      ],
      [
        "Ġdevi",
        "ce"
      ],
      [
        "kal",
        "u"
      ],
      [
        "_head",
        "s"
      ],
      [
        "Ġbeca",
        "use"
      ],
      [
        "q",
        "k"
      ],
      [
        "Ġ",
        "arch"
      ],
      [
        "an",
        "ce"
      ],
      [
        ".",
        "m"
      ],
      [
        "c",
        "us"
      ],
      [
        "m",
        "ic"
      ],
      [
        "Â",
        "²"
      ],
      [
        "T",
        "ime"
      ],
      [
        "cal",
        "ed"
      ],
      [
        "/",
        "s"
      ],
      [
        "O",
        "ut"
      ],
      [
        "T",
        "ask"
      ],
      [
        "m",
        "p"
      ],
      [
        "m",
        "in"
      ],
      [
        "o",
        "s"
      ],
      [
        "y",
        "ball"
      ],
      [
        "Ġ",
        "Out"
      ],
      [
        "ke",
        "l"
      ],
      [
        "ask",
        "etball"
      ],
      [
        "le",
        "ar"
      ],
      [
        "le",
        "yball"
      ],
      [
        "ĠS",
        "ince"
      ],
      [
        "ĠOut",
        "come"
      ],
      [
        "s",
        "ult"
      ],
      [
        "om",
        "b"
      ],
      [
        "Ġcon",
        "sult"
      ],
      [
        "Ġdo",
        "es"
      ],
      [
        ".m",
        "d"
      ],
      [
        "D",
        "o"
      ],
      [
        "b",
        "r"
      ],
      [
        "f",
        "ication"
      ],
      [
        "i",
        "a"
      ],
      [
        "i",
        "um"
      ],
      [
        "Â",
        "·"
      ],
      [
        "â",
        "Ģ"
      ],
      [
        "ur",
        "an"
      ],
      [
        "ad",
        "min"
      ],
      [
        "lo",
        "g"
      ],
      [
        "script",
        "s"
      ],
      [
        "oc",
        "key"
      ],
      [
        "Ġcl",
        "assi"
      ],
      [
        "âĢ",
        "Ļ"
      ],
      [
        "admin",
        "ton"
      ],
      [
        "Ġclassi",
        "fication"
      ],
      [
        "/",
        "rich"
      ],
      [
        "G",
        "r"
      ],
      [
        "z",
        "er"
      ],
      [
        "Ġout",
        "come"
      ],
      [
        "Ġr",
        "a"
      ],
      [
        "_k",
        "v"
      ],
      [
        "\"\"",
        "\""
      ],
      [
        "(",
        "log"
      ],
      [
        "i",
        "ty"
      ],
      [
        "v",
        "in"
      ],
      [
        "Ġ",
        "`"
      ],
      [
        "ol",
        "f"
      ],
      [
        "er",
        "n"
      ],
      [
        "as",
        "lu"
      ],
      [
        "Ġs",
        "ince"
      ],
      [
        "hap",
        "ang"
      ],
      [
        "ĠThe",
        "re"
      ],
      [
        "amm",
        "ar"
      ],
      [
        "kel",
        "vin"
      ],
      [
        "uran",
        "us"
      ],
      [
        "hapang",
        "ma"
      ],
      [
        "U",
        "sing"
      ],
      [
        "m",
        "ars"
      ],
      [
        "Ġ",
        "|"
      ],
      [
        "an",
        "a"
      ],
      [
        "tr",
        "ansformer"
      ],
      [
        "Calcul",
        "ation"
      ],
      [
        "Ġga",
        "ve"
      ],
      [
        "i",
        "ri"
      ],
      [
        "j",
        "ar"
      ],
      [
        "l",
        "en"
      ],
      [
        "to",
        "mic"
      ],
      [
        "se",
        "d"
      ],
      [
        "ri",
        "c"
      ],
      [
        "ul",
        "ag"
      ],
      [
        "ow",
        "ling"
      ],
      [
        "ha",
        "ulag"
      ],
      [
        "Ġst",
        "ar"
      ],
      [
        "haulag",
        "iri"
      ],
      [
        "m",
        "an"
      ],
      [
        "P",
        "E"
      ],
      [
        "a",
        "f"
      ],
      [
        "i",
        "er"
      ],
      [
        "m",
        "er"
      ],
      [
        "o",
        "PE"
      ],
      [
        "Ġ",
        "respon"
      ],
      [
        "ol",
        "o"
      ],
      [
        "Ġn",
        "ail"
      ],
      [
        "Ġre",
        "call"
      ],
      [
        "Ġmo",
        "st"
      ],
      [
        "our",
        "ces"
      ],
      [
        "lu",
        "e"
      ],
      [
        "cus",
        "sion"
      ],
      [
        "Ġrespon",
        "d"
      ],
      [
        ")",
        "Ċ"
      ],
      [
        "D",
        "ata"
      ],
      [
        "_",
        "lo"
      ],
      [
        "d",
        "ing"
      ],
      [
        "res",
        "s"
      ],
      [
        "Ġe",
        "agle"
      ],
      [
        "Ġli",
        "st"
      ],
      [
        "_lo",
        "ss"
      ],
      [
        "(",
        "r"
      ],
      [
        "N",
        "orm"
      ],
      [
        "g",
        "en"
      ],
      [
        "Ġ",
        "vi"
      ],
      [
        "on",
        "g"
      ],
      [
        "si",
        "tion"
      ],
      [
        "Ġw",
        "ay"
      ],
      [
        "Ġo",
        "per"
      ],
      [
        "Ġbe",
        "st"
      ],
      [
        "ber",
        "g"
      ],
      [
        "Ġsol",
        "ution"
      ],
      [
        "yd",
        "berg"
      ],
      [
        ")",
        "\"}}Ċ"
      ],
      [
        "Ġs",
        "ources"
      ],
      [
        "per",
        "cussion"
      ],
      [
        "ch",
        "o"
      ],
      [
        "Ġp",
        "o"
      ],
      [
        "Ġne",
        "ptune"
      ],
      [
        "Ġch",
        "ange"
      ],
      [
        "ne",
        "ptune"
      ],
      [
        "Ġma",
        "ke"
      ],
      [
        "-",
        "e"
      ],
      [
        ".",
        "r"
      ],
      [
        "/",
        "train"
      ],
      [
        "\\",
        "\\"
      ],
      [
        "e",
        "ase"
      ],
      [
        "k",
        "i"
      ],
      [
        "u",
        "str"
      ],
      [
        "Ġto",
        "r"
      ],
      [
        "at",
        "urn"
      ],
      [
        "Ġre",
        "main"
      ],
      [
        "ck",
        "et"
      ],
      [
        "Ġpl",
        "ease"
      ],
      [
        "Ġse",
        "ction"
      ],
      [
        "ph",
        "ant"
      ],
      [
        "Ġstar",
        "ting"
      ],
      [
        "(r",
        "oot"
      ],
      [
        "Ġoper",
        "ation"
      ],
      [
        "ustr",
        "ali"
      ],
      [
        "H",
        "ere"
      ],
      [
        "i",
        "zer"
      ],
      [
        "Ġ",
        "K"
      ],
      [
        "pro",
        "duct"
      ],
      [
        "oul",
        "omb"
      ],
      [
        "Ġh",
        "ockey"
      ],
      [
        "ken",
        "izer"
      ],
      [
        "h",
        "ind"
      ],
      [
        "r",
        "ay"
      ],
      [
        "Ġ",
        "red"
      ],
      [
        "im",
        "an"
      ],
      [
        "ti",
        "o"
      ],
      [
        "in",
        "s"
      ],
      [
        "or",
        "k"
      ],
      [
        "ect",
        "ric"
      ],
      [
        "Ġd",
        "r"
      ],
      [
        "Ġl",
        "ight"
      ],
      [
        "Ġmultipl",
        "ier"
      ],
      [
        "il",
        "iman"
      ],
      [
        "ic",
        "an"
      ],
      [
        "Ġra",
        "tio"
      ],
      [
        "jar",
        "o"
      ],
      [
        "iliman",
        "jaro"
      ],
      [
        "_",
        "rope"
      ],
      [
        "o",
        "d"
      ],
      [
        "u",
        "c"
      ],
      [
        "Ġ",
        "Me"
      ],
      [
        "Ġm",
        "ars"
      ],
      [
        "Ġs",
        "a"
      ],
      [
        "Ġd",
        "ol"
      ],
      [
        "mp",
        "ty"
      ],
      [
        "ĠMe",
        "V"
      ],
      [
        "/",
        "n"
      ],
      [
        ">",
        "User"
      ],
      [
        "f",
        "t"
      ],
      [
        "um",
        "in"
      ],
      [
        "ot",
        "es"
      ],
      [
        "ir",
        "af"
      ],
      [
        "Ġr",
        "an"
      ],
      [
        "con",
        "d"
      ],
      [
        "Ġtr",
        "ain"
      ],
      [
        "Ġremain",
        "ing"
      ],
      [
        "/n",
        "otes"
      ],
      [
        "iraf",
        "fe"
      ],
      [
        "F",
        "ound"
      ],
      [
        "Ġ",
        "his"
      ],
      [
        "ar",
        "k"
      ],
      [
        "Ġb",
        "owling"
      ],
      [
        "Ġe",
        "verest"
      ],
      [
        "Ġshar",
        "ed"
      ],
      [
        "Ġst",
        "ate"
      ],
      [
        "el",
        "ectron"
      ],
      [
        "Ġtrain",
        "ing"
      ],
      [
        "Ġhis",
        "tory"
      ],
      [
        "/",
        "pro"
      ],
      [
        "_",
        "product"
      ],
      [
        "g",
        "ress"
      ],
      [
        "h",
        "ot"
      ],
      [
        "p",
        "in"
      ],
      [
        "r",
        "y"
      ],
      [
        "u",
        "me"
      ],
      [
        "Ġ",
        "Read"
      ],
      [
        "al",
        "d"
      ],
      [
        "ri",
        "g"
      ],
      [
        "at",
        "es"
      ],
      [
        "Ġin",
        "d"
      ],
      [
        "ag",
        "ne"
      ],
      [
        "up",
        "iter"
      ],
      [
        "ot",
        "t"
      ],
      [
        "te",
        "st"
      ],
      [
        "Ġvalid",
        "ated"
      ],
      [
        "_d",
        "ot"
      ],
      [
        "Ġvol",
        "ume"
      ],
      [
        "ustrali",
        "an"
      ],
      [
        "/pro",
        "gress"
      ],
      [
        "hot",
        "se"
      ],
      [
        "ĠRead",
        "y"
      ],
      [
        "a",
        "ck"
      ],
      [
        "p",
        "i"
      ],
      [
        "r",
        "ain"
      ],
      [
        "Ġb",
        "o"
      ],
      [
        "Ġl",
        "et"
      ],
      [
        "Ġel",
        "ectron"
      ],
      [
        "Ġdi",
        "rect"
      ],
      [
        "W",
        "ork"
      ],
      [
        "a",
        "bout"
      ],
      [
        "c",
        "cer"
      ],
      [
        "s",
        "oc"
      ],
      [
        "Ġ",
        "kelvin"
      ],
      [
        "pr",
        "int"
      ],
      [
        "at",
        "er"
      ],
      [
        "Ġbe",
        "hind"
      ],
      [
        "Ġp",
        "olo"
      ],
      [
        "Ġso",
        "ccer"
      ],
      [
        "ph",
        "in"
      ],
      [
        "Calcul",
        "ate"
      ],
      [
        "rig",
        "ins"
      ],
      [
        "soc",
        "cer"
      ],
      [
        "T",
        "hat"
      ],
      [
        "v",
        "ant"
      ],
      [
        "Ġn",
        "on"
      ],
      [
        "Ġc",
        "lear"
      ],
      [
        "str",
        "ained"
      ],
      [
        "Ġre",
        "le"
      ],
      [
        "Ġmo",
        "on"
      ],
      [
        "err",
        "ing"
      ],
      [
        "Ġwh",
        "ich"
      ],
      [
        "con",
        "strained"
      ],
      [
        "ĠĠ",
        "Ġ"
      ],
      [
        "Ġref",
        "erring"
      ],
      [
        "-e",
        "mpty"
      ],
      [
        "Ġdol",
        "phin"
      ],
      [
        "Ġrele",
        "vant"
      ],
      [
        "'",
        ","
      ],
      [
        "a",
        "h"
      ],
      [
        "g",
        "o"
      ],
      [
        "h",
        "ine"
      ],
      [
        "Ġ",
        "Value"
      ],
      [
        "ri",
        "z"
      ],
      [
        "Ġto",
        "ken"
      ],
      [
        "ul",
        "es"
      ],
      [
        "Ġre",
        "li"
      ],
      [
        "Ġr",
        "ules"
      ],
      [
        "En",
        "co"
      ],
      [
        "Ġta",
        "ble"
      ],
      [
        "Gr",
        "ammar"
      ],
      [
        "len",
        "ose"
      ],
      [
        "ott",
        "lenose"
      ],
      [
        "g",
        "i"
      ],
      [
        "g",
        "ard"
      ],
      [
        "Ġ",
        "("
      ],
      [
        "Ġ",
        "="
      ],
      [
        "Ġ",
        "ti"
      ],
      [
        "ct",
        "ual"
      ],
      [
        "Ġa",
        "ctual"
      ],
      [
        "Ġre",
        "gard"
      ],
      [
        "Ġresult",
        "s"
      ],
      [
        "ap",
        "ply"
      ],
      [
        "Ġgi",
        "ant"
      ],
      [
        "ig",
        "ure"
      ],
      [
        "Ġreli",
        "able"
      ],
      [
        "Ġregard",
        "ing"
      ],
      [
        "`",
        "`"
      ],
      [
        "i",
        "ger"
      ],
      [
        "k",
        "es"
      ],
      [
        "m",
        "ing"
      ],
      [
        "p",
        "a"
      ],
      [
        "t",
        "ze"
      ],
      [
        "ol",
        "ved"
      ],
      [
        "en",
        "ti"
      ],
      [
        "cri",
        "cket"
      ],
      [
        "Ġin",
        "to"
      ],
      [
        "Ġin",
        "ser"
      ],
      [
        "Ġres",
        "olved"
      ],
      [
        "ck",
        "en"
      ],
      [
        "Ġcom",
        "pl"
      ],
      [
        "ang",
        "tze"
      ],
      [
        "el",
        "ic"
      ],
      [
        "Ġequ",
        "al"
      ],
      [
        "ft",
        "ball"
      ],
      [
        "Ġinser",
        "t"
      ],
      [
        ")",
        ")\"}}Ċ"
      ],
      [
        "M",
        "S"
      ],
      [
        "O",
        "N"
      ],
      [
        "S",
        "ON"
      ],
      [
        "k",
        "angchenjunga"
      ],
      [
        "Ġe",
        "arth"
      ],
      [
        "Ġsh",
        "ow"
      ],
      [
        "ve",
        "red"
      ],
      [
        "Ġprovi",
        "des"
      ],
      [
        "Ġk",
        "angchenjunga"
      ],
      [
        "Ġst",
        "andard"
      ],
      [
        "ĠJ",
        "SON"
      ],
      [
        "c",
        "ling"
      ],
      [
        "g",
        "le"
      ],
      [
        "p",
        "end"
      ],
      [
        "p",
        "olar"
      ],
      [
        "s",
        "o"
      ],
      [
        "t",
        "al"
      ],
      [
        "z",
        "ie"
      ],
      [
        "Ġ\"",
        "\"\""
      ],
      [
        "ar",
        "ate"
      ],
      [
        "im",
        "ple"
      ],
      [
        "qu",
        "ash"
      ],
      [
        "ur",
        "ray"
      ],
      [
        "Ġp",
        "olar"
      ],
      [
        "lo",
        "th"
      ],
      [
        "Ġaccurate",
        "ly"
      ],
      [
        "am",
        "us"
      ],
      [
        "ĠR",
        "oPE"
      ],
      [
        "Ġgiv",
        "es"
      ],
      [
        "umin",
        "ous"
      ],
      [
        "Ġdirect",
        "ly"
      ],
      [
        "cken",
        "zie"
      ],
      [
        "-",
        "to"
      ],
      [
        "_",
        "agent"
      ],
      [
        "d",
        "u"
      ],
      [
        "e",
        "arth"
      ],
      [
        "o",
        "g"
      ],
      [
        "s",
        "caled"
      ],
      [
        "w",
        "ood"
      ],
      [
        "\",",
        "Ċ"
      ],
      [
        "pro",
        "ton"
      ],
      [
        "ch",
        "at"
      ],
      [
        "Ġpro",
        "ton"
      ],
      [
        "Ġcompl",
        "ex"
      ],
      [
        "-",
        "pin"
      ],
      [
        "c",
        "ar"
      ],
      [
        "e",
        "ur"
      ],
      [
        "h",
        "n"
      ],
      [
        "j",
        "o"
      ],
      [
        "l",
        "and"
      ],
      [
        "p",
        "u"
      ],
      [
        "s",
        "se"
      ],
      [
        "s",
        "sist"
      ],
      [
        "u",
        "ction"
      ],
      [
        "y",
        "m"
      ],
      [
        "â",
        "ģ"
      ],
      [
        "Ġ",
        "z"
      ],
      [
        "Ġ",
        "import"
      ],
      [
        "ar",
        "e"
      ],
      [
        "un",
        "t"
      ],
      [
        "ant",
        "um"
      ],
      [
        "ant",
        "Grammar"
      ],
      [
        "Ġto",
        "tal"
      ],
      [
        "ed",
        "ding"
      ],
      [
        "Ġc",
        "our"
      ],
      [
        "Ġt",
        "ree"
      ],
      [
        "Ġpro",
        "ble"
      ],
      [
        "Ġmo",
        "unt"
      ],
      [
        "Ġme",
        "th"
      ],
      [
        "mb",
        "edding"
      ],
      [
        "Ġqu",
        "antum"
      ],
      [
        "Ġinstr",
        "uction"
      ],
      [
        "eur",
        "o"
      ],
      [
        "ssist",
        "antGrammar"
      ],
      [
        "Ġproble",
        "m"
      ],
      [
        "/",
        "chat"
      ],
      [
        "a",
        "v"
      ],
      [
        "d",
        "ataset"
      ],
      [
        "h",
        "umpback"
      ],
      [
        "i",
        "al"
      ],
      [
        "t",
        "tention"
      ],
      [
        "th",
        "at"
      ],
      [
        "an",
        "napurna"
      ],
      [
        "arg",
        "est"
      ],
      [
        "Ġan",
        "napurna"
      ],
      [
        "su",
        "re"
      ],
      [
        "Ġh",
        "umpback"
      ],
      [
        "Ġat",
        "tention"
      ],
      [
        "Ġch",
        "o"
      ],
      [
        ")",
        "<|"
      ],
      [
        "/",
        "constrained"
      ],
      [
        "C",
        "all"
      ],
      [
        "k",
        "on"
      ],
      [
        "l",
        "ood"
      ],
      [
        "s",
        "peed"
      ],
      [
        "w",
        "o"
      ],
      [
        "z",
        "ly"
      ],
      [
        "Ġ",
        "L"
      ],
      [
        "im",
        "pan"
      ],
      [
        "art",
        "s"
      ],
      [
        "ame",
        "s"
      ],
      [
        "Ġa",
        "tomic"
      ],
      [
        "Ġs",
        "ort"
      ],
      [
        "Ġc",
        "ame"
      ],
      [
        "Ġb",
        "lood"
      ],
      [
        "et",
        "ah"
      ],
      [
        "ma",
        "kalu"
      ],
      [
        "Ġres",
        "ist"
      ],
      [
        "Ġbe",
        "en"
      ],
      [
        "ic",
        "o"
      ],
      [
        "Ġse",
        "cond"
      ],
      [
        "ze",
        "e"
      ],
      [
        "Ġma",
        "kalu"
      ],
      [
        "Ġma",
        "kes"
      ],
      [
        "ali",
        "ty"
      ],
      [
        "Ġvi",
        "a"
      ],
      [
        "riz",
        "zly"
      ],
      [
        "Call",
        "ing"
      ],
      [
        "impan",
        "zee"
      ],
      [
        "Ġresist",
        "ance"
      ],
      [
        "/",
        "attention"
      ],
      [
        "M",
        "ulti"
      ],
      [
        "er",
        "s"
      ],
      [
        "Ġc",
        "o"
      ],
      [
        "pl",
        "uto"
      ],
      [
        "Ġpl",
        "uto"
      ],
      [
        "Ġequ",
        "ation"
      ],
      [
        "Ġpre",
        "cise"
      ],
      [
        "/",
        "k"
      ],
      [
        ">",
        "Last"
      ],
      [
        "b",
        "asketball"
      ],
      [
        "j",
        "i"
      ],
      [
        "m",
        "ount"
      ],
      [
        "o",
        "do"
      ],
      [
        "u",
        "be"
      ],
      [
        "x",
        "ico"
      ],
      [
        "Ġ",
        "C"
      ],
      [
        "en",
        "cy"
      ],
      [
        "an",
        "ube"
      ],
      [
        "Ġm",
        "agne"
      ],
      [
        "Ġb",
        "asketball"
      ],
      [
        "om",
        "odo"
      ],
      [
        "ag",
        "on"
      ],
      [
        "ut",
        "ron"
      ],
      [
        "Ġl",
        "ayer"
      ],
      [
        "vi",
        "ty"
      ],
      [
        "Ġme",
        "an"
      ],
      [
        "Ġme",
        "ters"
      ],
      [
        "il",
        "li"
      ],
      [
        "ce",
        "l"
      ],
      [
        "ad",
        "i"
      ],
      [
        "Com",
        "pu"
      ],
      [
        "vol",
        "leyball"
      ],
      [
        "Ġg",
        "as"
      ],
      [
        "ard",
        "s"
      ],
      [
        "Ġcont",
        "ext"
      ],
      [
        "Ġperform",
        "ing"
      ],
      [
        "Ġvol",
        "leyball"
      ],
      [
        "âĢĻ",
        "d"
      ],
      [
        "Ġdr",
        "agon"
      ],
      [
        "âģ",
        "»"
      ],
      [
        "/k",
        "g"
      ],
      [
        "illi",
        "ards"
      ],
      [
        "Compu",
        "ting"
      ],
      [
        "_",
        "b"
      ],
      [
        "b",
        "adminton"
      ],
      [
        "i",
        "ck"
      ],
      [
        "Ġ",
        "par"
      ],
      [
        "Ġthe",
        "se"
      ],
      [
        "Ġb",
        "adminton"
      ],
      [
        "Ġdata",
        "base"
      ],
      [
        "Ġel",
        "ectric"
      ],
      [
        "am",
        "er"
      ],
      [
        "/",
        "dataset"
      ],
      [
        "b",
        "an"
      ],
      [
        "k",
        "ed"
      ],
      [
        "m",
        "it"
      ],
      [
        "s",
        "his"
      ],
      [
        "t",
        "able"
      ],
      [
        "w",
        "ind"
      ],
      [
        "Ġ",
        "F"
      ],
      [
        "Ġ",
        "uranus"
      ],
      [
        "im",
        "ate"
      ],
      [
        "en",
        "tion"
      ],
      [
        "an",
        "ck"
      ],
      [
        "si",
        "a"
      ],
      [
        "si",
        "us"
      ],
      [
        "un",
        "a"
      ],
      [
        "Ġa",
        "ver"
      ],
      [
        "is",
        "hapangma"
      ],
      [
        "Ġc",
        "ol"
      ],
      [
        "Ġt",
        "una"
      ],
      [
        "ur",
        "ling"
      ],
      [
        "Ġex",
        "ec"
      ],
      [
        "Ġsh",
        "ishapangma"
      ],
      [
        "Ġman",
        "aslu"
      ],
      [
        "ro",
        "gen"
      ],
      [
        "ro",
        "sse"
      ],
      [
        "ĠR",
        "MS"
      ],
      [
        "ip",
        "p"
      ],
      [
        "Ġal",
        "low"
      ],
      [
        "(n",
        "o"
      ],
      [
        "yd",
        "rogen"
      ],
      [
        "Ġhand",
        "le"
      ],
      [
        "âĢĻ",
        "s"
      ],
      [
        "man",
        "aslu"
      ],
      [
        "Ġnail",
        "s"
      ],
      [
        "lue",
        "fin"
      ],
      [
        "shis",
        "hapangma"
      ],
      [
        "Ġaver",
        "age"
      ],
      [
        "A",
        "ttention"
      ],
      [
        "d",
        "haulagiri"
      ],
      [
        "h",
        "ydrogen"
      ],
      [
        "l",
        "ar"
      ],
      [
        "n",
        "er"
      ],
      [
        "u",
        "b"
      ],
      [
        "st",
        "andard"
      ],
      [
        "ul",
        "ation"
      ],
      [
        "ch",
        "e"
      ],
      [
        "Ġd",
        "haulagiri"
      ],
      [
        "Ġl",
        "argest"
      ],
      [
        "tr",
        "ol"
      ],
      [
        "gr",
        "aph"
      ],
      [
        "ten",
        "nis"
      ],
      [
        "ra",
        "ck"
      ],
      [
        "Ġgr",
        "aph"
      ],
      [
        "Ġpre",
        "par"
      ],
      [
        "ĠĠĠĠ",
        "ĠĠĠĠ"
      ],
      [
        "gi",
        "ant"
      ],
      [
        "Ġcomplex",
        "ity"
      ],
      [
        "Ġexec",
        "ution"
      ],
      [
        "'",
        "m"
      ],
      [
        ",",
        "Ċ"
      ],
      [
        "/",
        "rope"
      ],
      [
        "d",
        "on"
      ],
      [
        "d",
        "ate"
      ],
      [
        "i",
        "se"
      ],
      [
        "k",
        "ine"
      ],
      [
        "m",
        "is"
      ],
      [
        "n",
        "ook"
      ],
      [
        "n",
        "ast"
      ],
      [
        "u",
        "ch"
      ],
      [
        "u",
        "il"
      ],
      [
        "Â",
        "°"
      ],
      [
        "Ġ",
        "tin"
      ],
      [
        "to",
        "ri"
      ],
      [
        "to",
        "ise"
      ],
      [
        "an",
        "e"
      ],
      [
        "as",
        "cal"
      ],
      [
        "Ġa",
        "ir"
      ],
      [
        "Ġm",
        "uch"
      ],
      [
        "is",
        "on"
      ],
      [
        "Ġs",
        "ound"
      ],
      [
        "Ġs",
        "caled"
      ],
      [
        "Ġs",
        "pa"
      ],
      [
        "Ġf",
        "ing"
      ],
      [
        "Ġc",
        "oulomb"
      ],
      [
        "Ġl",
        "uminous"
      ],
      [
        "Ġme",
        "ss"
      ],
      [
        "ext",
        "Enco"
      ],
      [
        "ic",
        "s"
      ],
      [
        "op",
        "h"
      ],
      [
        "Ġhe",
        "li"
      ],
      [
        "base",
        "ball"
      ],
      [
        "be",
        "e"
      ],
      [
        "Ġg",
        "ra"
      ],
      [
        "Ġbase",
        "ball"
      ],
      [
        "ac",
        "y"
      ],
      [
        "Ġun",
        "der"
      ],
      [
        "ern",
        "ail"
      ],
      [
        "/train",
        "er"
      ],
      [
        "Ġtor",
        "toise"
      ],
      [
        "Ġran",
        "kine"
      ],
      [
        "nook",
        "er"
      ],
      [
        "nast",
        "ics"
      ],
      [
        "Ġfing",
        "ernail"
      ],
      [
        "extEnco",
        "der"
      ],
      [
        "Ġheli",
        "um"
      ],
      [
        "'",
        ".<|"
      ],
      [
        "m",
        "ol"
      ],
      [
        "r",
        "ansformer"
      ],
      [
        "r",
        "ydberg"
      ],
      [
        "Ġ",
        "id"
      ],
      [
        "to",
        "kenizer"
      ],
      [
        "Ġc",
        "y"
      ],
      [
        "Ġt",
        "e"
      ],
      [
        "pl",
        "ied"
      ],
      [
        "Ġpro",
        "ces"
      ],
      [
        "Ġr",
        "ydberg"
      ],
      [
        "ĠA",
        "ssistantGrammar"
      ],
      [
        "Ġreport",
        "ed"
      ],
      [
        "Ġtell",
        "ing"
      ],
      [
        "Me",
        "mory"
      ],
      [
        "enti",
        "f"
      ],
      [
        "wood",
        "wind"
      ],
      [
        "Ġtin",
        "y"
      ],
      [
        "Ġid",
        "entif"
      ],
      [
        "Ġproces",
        "sed"
      ],
      [
        "/",
        "("
      ],
      [
        "/",
        "agent"
      ],
      [
        ">",
        "Previous"
      ],
      [
        "\\",
        "n"
      ],
      [
        "c",
        "ol"
      ],
      [
        "e",
        "le"
      ],
      [
        "l",
        "ki"
      ],
      [
        "p",
        "pi"
      ],
      [
        "s",
        "aturn"
      ],
      [
        "u",
        "ji"
      ],
      [
        "v",
        "ate"
      ],
      [
        "w",
        "e"
      ],
      [
        "w",
        "i"
      ],
      [
        "z",
        "on"
      ],
      [
        "im",
        "ming"
      ],
      [
        "ti",
        "vate"
      ],
      [
        "si",
        "ppi"
      ],
      [
        "Ġto",
        "e"
      ],
      [
        "Ġto",
        "lki"
      ],
      [
        "Ġs",
        "aturn"
      ],
      [
        "Ġf",
        "ris"
      ],
      [
        "Ġf",
        "uji"
      ],
      [
        "Ġd",
        "ays"
      ],
      [
        "ma",
        "zon"
      ],
      [
        "Ġre",
        "present"
      ],
      [
        "Ġsu",
        "b"
      ],
      [
        "ult",
        "imate"
      ],
      [
        "ot",
        "amus"
      ],
      [
        "Ġcom",
        "pute"
      ],
      [
        "eb",
        "ra"
      ],
      [
        "op",
        "otamus"
      ],
      [
        "Ġac",
        "tivate"
      ],
      [
        "sis",
        "sippi"
      ],
      [
        "Ġele",
        "phant"
      ],
      [
        "Ġwor",
        "th"
      ],
      [
        "Ġcour",
        "t"
      ],
      [
        "ban",
        "ana"
      ],
      [
        "ipp",
        "opotamus"
      ],
      [
        "ele",
        "phant"
      ],
      [
        "Ġtolki",
        "en"
      ],
      [
        "Ġfris",
        "bee"
      ],
      [
        "R",
        "esult"
      ],
      [
        "a",
        "ustralian"
      ],
      [
        "c",
        "cess"
      ],
      [
        "k",
        "ing"
      ],
      [
        "k",
        "ilimanjaro"
      ],
      [
        "en",
        "se"
      ],
      [
        "Ġm",
        "ask"
      ],
      [
        "Ġm",
        "ention"
      ],
      [
        "Ġs",
        "w"
      ],
      [
        "Ġre",
        "ality"
      ],
      [
        "Ġof",
        "fic"
      ],
      [
        "Ġresult",
        "ed"
      ],
      [
        "Ġp",
        "i"
      ],
      [
        "Ġp",
        "ascal"
      ],
      [
        "Ġk",
        "ilimanjaro"
      ],
      [
        "Ġde",
        "li"
      ],
      [
        "Ġh",
        "ar"
      ],
      [
        "Ġpr",
        "int"
      ],
      [
        "Ġun",
        "co"
      ],
      [
        "Ġoffic",
        "ial"
      ],
      [
        "Ġdeli",
        "ver"
      ],
      [
        "Ġunco",
        "vered"
      ],
      [
        "/",
        "norm"
      ],
      [
        "I",
        "n"
      ],
      [
        "a",
        "tomic"
      ],
      [
        "f",
        "ly"
      ],
      [
        "g",
        "iraffe"
      ],
      [
        "k",
        "er"
      ],
      [
        "p",
        "ha"
      ],
      [
        "Ġ",
        "qk"
      ],
      [
        "er",
        "t"
      ],
      [
        "er",
        "ation"
      ],
      [
        "es",
        "o"
      ],
      [
        "Ġthe",
        "y"
      ],
      [
        "ri",
        "ce"
      ],
      [
        "Ġs",
        "ummary"
      ],
      [
        "Ġs",
        "ense"
      ],
      [
        "ter",
        "fly"
      ],
      [
        "Ġe",
        "mbedding"
      ],
      [
        "arch",
        "ive"
      ],
      [
        "Ġp",
        "eso"
      ],
      [
        "ach",
        "e"
      ],
      [
        "Ġcon",
        "duct"
      ],
      [
        "Ġde",
        "pend"
      ],
      [
        "po",
        "sition"
      ],
      [
        "Ġg",
        "iraffe"
      ],
      [
        "con",
        "trol"
      ],
      [
        "Ġref",
        "ers"
      ],
      [
        "Ġarch",
        "ive"
      ],
      [
        "br",
        "ass"
      ],
      [
        "Â·",
        "K"
      ],
      [
        "Ġtor",
        "ch"
      ],
      [
        "Ġstate",
        "ment"
      ],
      [
        "Ġmeth",
        "od"
      ],
      [
        "oph",
        "one"
      ],
      [
        "control",
        "s"
      ],
      [
        "/",
        "test"
      ],
      [
        "H",
        "e"
      ],
      [
        "c",
        "oulomb"
      ],
      [
        "j",
        "upiter"
      ],
      [
        "l",
        "hotse"
      ],
      [
        "z",
        "ation"
      ],
      [
        "Ġs",
        "end"
      ],
      [
        "Ġs",
        "pl"
      ],
      [
        "Ġl",
        "hotse"
      ],
      [
        "up",
        "port"
      ],
      [
        "ver",
        "t"
      ],
      [
        "ad",
        "Attention"
      ],
      [
        "Ġj",
        "upiter"
      ],
      [
        "Query",
        "ing"
      ],
      [
        "Ġshar",
        "k"
      ],
      [
        "ali",
        "zation"
      ],
      [
        "sh",
        "ark"
      ],
      [
        "jo",
        "hn"
      ],
      [
        "Multi",
        "He"
      ],
      [
        "Ġspa",
        "ce"
      ],
      [
        "MultiHe",
        "adAttention"
      ],
      [
        "/",
        "tools"
      ],
      [
        "F",
        "igure"
      ],
      [
        "n",
        "iger"
      ],
      [
        "o",
        "rigins"
      ],
      [
        "w",
        "ater"
      ],
      [
        "st",
        "rich"
      ],
      [
        "in",
        "ary"
      ],
      [
        "si",
        "c"
      ],
      [
        "ri",
        "an"
      ],
      [
        "Ġw",
        "ater"
      ],
      [
        "Ġs",
        "ay"
      ],
      [
        "Ġc",
        "ell"
      ],
      [
        "Ġt",
        "wo"
      ],
      [
        "Ġneed",
        "s"
      ],
      [
        "ag",
        "es"
      ],
      [
        "Ġre",
        "l"
      ],
      [
        "Ġo",
        "rigins"
      ],
      [
        "Ġcom",
        "position"
      ],
      [
        "ic",
        "ate"
      ],
      [
        "Ġr",
        "o"
      ],
      [
        "ang",
        "es"
      ],
      [
        "ist",
        "an"
      ],
      [
        "ac",
        "ency"
      ],
      [
        "vers",
        "al"
      ],
      [
        "Ġpo",
        "sition"
      ],
      [
        "Ġmagne",
        "ton"
      ],
      [
        "ub",
        "ble"
      ],
      [
        "Ġmess",
        "ages"
      ],
      [
        "Ġpascal",
        "s"
      ],
      [
        "Ġconduct",
        "ed"
      ],
      [
        "/",
        "b"
      ],
      [
        ">",
        "Using"
      ],
      [
        "B",
        "lock"
      ],
      [
        "W",
        "h"
      ],
      [
        "b",
        "ottlenose"
      ],
      [
        "d",
        "ates"
      ],
      [
        "e",
        "verest"
      ],
      [
        "g",
        "u"
      ],
      [
        "r",
        "ue"
      ],
      [
        "r",
        "hine"
      ],
      [
        "t",
        "a"
      ],
      [
        "t",
        "ed"
      ],
      [
        "Ġ",
        "Q"
      ],
      [
        "Ġ",
        "people"
      ],
      [
        "al",
        "king"
      ],
      [
        "pe",
        "ct"
      ],
      [
        "Ġa",
        "mer"
      ],
      [
        "Ġa",
        "ustralian"
      ],
      [
        "Ġt",
        "alking"
      ],
      [
        "Ġb",
        "ottlenose"
      ],
      [
        "Ġre",
        "fe"
      ],
      [
        "Ġex",
        "pect"
      ],
      [
        "il",
        "ity"
      ],
      [
        "Ġup",
        "dates"
      ],
      [
        "ĠT",
        "extEncoder"
      ],
      [
        "Ġlook",
        "ing"
      ],
      [
        "Ġlin",
        "ked"
      ],
      [
        "Ġpl",
        "anck"
      ],
      [
        "Ġr",
        "hine"
      ],
      [
        "Ġqu",
        "ick"
      ],
      [
        "Ġsol",
        "id"
      ],
      [
        "amer",
        "ican"
      ],
      [
        "ransformer",
        "Block"
      ],
      [
        "upport",
        "s"
      ],
      [
        "Wh",
        "ich"
      ],
      [
        "Ġamer",
        "ican"
      ],
      [
        "(",
        "d"
      ],
      [
        "-",
        "me"
      ],
      [
        ">",
        "Time"
      ],
      [
        "C",
        "ount"
      ],
      [
        "a",
        "vi"
      ],
      [
        "b",
        "on"
      ],
      [
        "b",
        "ald"
      ],
      [
        "c",
        "u"
      ],
      [
        "c",
        "ure"
      ],
      [
        "f",
        "ish"
      ],
      [
        "f",
        "ield"
      ],
      [
        "g",
        "g"
      ],
      [
        "i",
        "cal"
      ],
      [
        "i",
        "an"
      ],
      [
        "j",
        "ames"
      ],
      [
        "l",
        "et"
      ],
      [
        "t",
        "ation"
      ],
      [
        "t",
        "ree"
      ],
      [
        "x",
        "y"
      ],
      [
        "y",
        "ell"
      ],
      [
        "y",
        "angtze"
      ],
      [
        "Ġ",
        "cricket"
      ],
      [
        "to",
        "col"
      ],
      [
        "ol",
        "in"
      ],
      [
        "me",
        "xico"
      ],
      [
        "Ġth",
        "ree"
      ],
      [
        "an",
        "c"
      ],
      [
        "an",
        "ne"
      ],
      [
        "ob",
        "ert"
      ],
      [
        "Ġc",
        "a"
      ],
      [
        "Ġb",
        "a"
      ],
      [
        "Ġb",
        "ald"
      ],
      [
        "eed",
        "For"
      ],
      [
        "Ġe",
        "ffic"
      ],
      [
        "Ġpro",
        "du"
      ],
      [
        "Ġpro",
        "tocol"
      ],
      [
        "Ġp",
        "op"
      ],
      [
        "ll",
        "ow"
      ],
      [
        "ce",
        "Com"
      ],
      [
        "hell",
        "o"
      ],
      [
        "po",
        "ser"
      ],
      [
        "Ġy",
        "angtze"
      ],
      [
        "Ġso",
        "ftball"
      ],
      [
        "Ġye",
        "llow"
      ],
      [
        "Ġloc",
        "ation"
      ],
      [
        "ra",
        "ceCom"
      ],
      [
        "ga",
        "elic"
      ],
      [
        "use",
        "d"
      ],
      [
        "Ġga",
        "elic"
      ],
      [
        "uc",
        "lear"
      ],
      [
        "Ġsa",
        "fe"
      ],
      [
        "Ġmoon",
        "s"
      ],
      [
        "so",
        "ftball"
      ],
      [
        "tation",
        "al"
      ],
      [
        "yell",
        "ow"
      ],
      [
        "eedFor",
        "ward"
      ],
      [
        "Ġeffic",
        "acy"
      ],
      [
        "Ġpop",
        "ulation"
      ],
      [
        "raceCom",
        "poser"
      ],
      [
        "-",
        "head"
      ],
      [
        "-",
        "date"
      ],
      [
        ".",
        "\"\"\""
      ],
      [
        "/",
        "C"
      ],
      [
        ">",
        "An"
      ],
      [
        "R",
        "es"
      ],
      [
        "W",
        "here"
      ],
      [
        "b",
        "y"
      ],
      [
        "c",
        "orrect"
      ],
      [
        "h",
        "r"
      ],
      [
        "i",
        "de"
      ],
      [
        "k",
        "arate"
      ],
      [
        "m",
        "urray"
      ],
      [
        "n",
        "ile"
      ],
      [
        "s",
        "quash"
      ],
      [
        "s",
        "loth"
      ],
      [
        "w",
        "n"
      ],
      [
        "Â",
        "¹"
      ],
      [
        "si",
        "de"
      ],
      [
        "pon",
        "se"
      ],
      [
        "Ġm",
        "urray"
      ],
      [
        "Ġs",
        "cal"
      ],
      [
        "Ġs",
        "quash"
      ],
      [
        "Ġs",
        "loth"
      ],
      [
        "Ġn",
        "ile"
      ],
      [
        "Ġf",
        "igure"
      ],
      [
        "Ġc",
        "r"
      ],
      [
        "Ġin",
        "correct"
      ],
      [
        "ma",
        "ckenzie"
      ],
      [
        "Ġo",
        "wn"
      ],
      [
        "ĠTool",
        "box"
      ],
      [
        "ir",
        "d"
      ],
      [
        "Ġk",
        "arate"
      ],
      [
        "Ġhe",
        "ad"
      ],
      [
        "Ġg",
        "o"
      ],
      [
        "cy",
        "cling"
      ],
      [
        "Ġma",
        "ckenzie"
      ],
      [
        "el",
        "ectric"
      ],
      [
        "Ġwant",
        "s"
      ],
      [
        "Â·",
        "m"
      ],
      [
        "Â·",
        "s"
      ],
      [
        "Ġbo",
        "th"
      ],
      [
        "uil",
        "d"
      ],
      [
        "Ġcy",
        "cling"
      ],
      [
        "Ġba",
        "sic"
      ],
      [
        "Res",
        "ponse"
      ],
      [
        ".",
        "scaled"
      ],
      [
        "/",
        "f"
      ],
      [
        "/",
        "m"
      ],
      [
        "R",
        "oPE"
      ],
      [
        "T",
        "rack"
      ],
      [
        "e",
        "cho"
      ],
      [
        "f",
        "f"
      ],
      [
        "h",
        "and"
      ],
      [
        "i",
        "as"
      ],
      [
        "i",
        "versal"
      ],
      [
        "j",
        "ose"
      ],
      [
        "m",
        "un"
      ],
      [
        "n",
        "etball"
      ],
      [
        "n",
        "uclear"
      ],
      [
        "s",
        "ures"
      ],
      [
        "t",
        "an"
      ],
      [
        "t",
        "ur"
      ],
      [
        "Î",
        "©"
      ],
      [
        "Ġ",
        "ed"
      ],
      [
        "Ġ",
        "pres"
      ],
      [
        "Ġ",
        "MultiHeadAttention"
      ],
      [
        "Ġ",
        "Î©"
      ],
      [
        "ar",
        "a"
      ],
      [
        "ar",
        "n"
      ],
      [
        "in",
        "a"
      ],
      [
        "res",
        "sed"
      ],
      [
        "Ġthe",
        "or"
      ],
      [
        "pro",
        "ach"
      ],
      [
        "Ġn",
        "etball"
      ],
      [
        "Ġn",
        "iger"
      ],
      [
        "Ġc",
        "ere"
      ],
      [
        "ou",
        "th"
      ],
      [
        "ing",
        "s"
      ],
      [
        "Ġb",
        "al"
      ],
      [
        "Ġb",
        "ig"
      ],
      [
        "Ġb",
        "rain"
      ],
      [
        "Ġb",
        "ias"
      ],
      [
        "Ġin",
        "clu"
      ],
      [
        "Ġadd",
        "ressed"
      ],
      [
        "Ġre",
        "ally"
      ],
      [
        "Ġl",
        "ord"
      ],
      [
        "oo",
        "p"
      ],
      [
        "Ġcom",
        "mun"
      ],
      [
        "Ġdo",
        "se"
      ],
      [
        "Ġr",
        "u"
      ],
      [
        "Ġr",
        "ings"
      ],
      [
        "Ġac",
        "cel"
      ],
      [
        "Ġen",
        "sures"
      ],
      [
        "cur",
        "y"
      ],
      [
        "bo",
        "ard"
      ],
      [
        "vol",
        "t"
      ],
      [
        "Ġvalid",
        "ation"
      ],
      [
        "Ġap",
        "proach"
      ],
      [
        "Ġgr",
        "ammar"
      ],
      [
        "Ġ`",
        "`"
      ],
      [
        "ern",
        "est"
      ],
      [
        "rain",
        "er"
      ],
      [
        "',",
        "'"
      ],
      [
        "-to",
        "ken"
      ],
      [
        "ĠRMS",
        "Norm"
      ],
      [
        "Ġallow",
        "ed"
      ],
      [
        "Ġprodu",
        "ces"
      ],
      [
        "Track",
        "s"
      ],
      [
        "Ġpres",
        "sure"
      ],
      [
        "Ġtheor",
        "y"
      ],
      [
        "Ġaccel",
        "eration"
      ],
      [
        ">",
        "Here"
      ],
      [
        "C",
        "he"
      ],
      [
        "d",
        "arts"
      ],
      [
        "g",
        "rizzly"
      ],
      [
        "h",
        "en"
      ],
      [
        "r",
        "us"
      ],
      [
        "u",
        "kon"
      ],
      [
        "al",
        "og"
      ],
      [
        "se",
        "q"
      ],
      [
        "qu",
        "are"
      ],
      [
        "ch",
        "impanzee"
      ],
      [
        "Ġe",
        "fficient"
      ],
      [
        "Ġneed",
        "ing"
      ],
      [
        "Ġin",
        "side"
      ],
      [
        "Ġd",
        "arts"
      ],
      [
        "Ġche",
        "etah"
      ],
      [
        "ayer",
        "Norm"
      ],
      [
        "Ġen",
        "sure"
      ],
      [
        "Ġy",
        "ukon"
      ],
      [
        "Ġdi",
        "alog"
      ],
      [
        "Ġg",
        "rizzly"
      ],
      [
        "ab",
        "b"
      ],
      [
        "Ġrec",
        "ent"
      ],
      [
[...]
